{
  "version": "1.0",
  "truncation": null,
  "padding": null,
  "added_tokens": [
    {
      "id": 0,
      "content": "<PAD>",
      "single_word": false,
      "lstrip": false,
      "rstrip": false,
      "normalized": false,
      "special": true
    },
    {
      "id": 1,
      "content": "<BOS>",
      "single_word": false,
      "lstrip": false,
      "rstrip": false,
      "normalized": false,
      "special": true
    },
    {
      "id": 2,
      "content": "<EOS>",
      "single_word": false,
      "lstrip": false,
      "rstrip": false,
      "normalized": false,
      "special": true
    },
    {
      "id": 3,
      "content": "<UNK>",
      "single_word": false,
      "lstrip": false,
      "rstrip": false,
      "normalized": false,
      "special": true
    },
    {
      "id": 4,
      "content": "<SEARCH>",
      "single_word": false,
      "lstrip": false,
      "rstrip": false,
      "normalized": false,
      "special": true
    },
    {
      "id": 5,
      "content": "<RESULT>",
      "single_word": false,
      "lstrip": false,
      "rstrip": false,
      "normalized": false,
      "special": true
    },
    {
      "id": 6,
      "content": "<TOOL>",
      "single_word": false,
      "lstrip": false,
      "rstrip": false,
      "normalized": false,
      "special": true
    },
    {
      "id": 7,
      "content": "<ANSWER>",
      "single_word": false,
      "lstrip": false,
      "rstrip": false,
      "normalized": false,
      "special": true
    }
  ],
  "normalizer": null,
  "pre_tokenizer": {
    "type": "ByteLevel",
    "add_prefix_space": false,
    "trim_offsets": true,
    "use_regex": true
  },
  "post_processor": {
    "type": "TemplateProcessing",
    "single": [
      {
        "SpecialToken": {
          "id": "<BOS>",
          "type_id": 0
        }
      },
      {
        "Sequence": {
          "id": "A",
          "type_id": 0
        }
      },
      {
        "SpecialToken": {
          "id": "<EOS>",
          "type_id": 0
        }
      }
    ],
    "pair": [
      {
        "Sequence": {
          "id": "A",
          "type_id": 0
        }
      },
      {
        "Sequence": {
          "id": "B",
          "type_id": 1
        }
      }
    ],
    "special_tokens": {
      "<BOS>": {
        "id": "<BOS>",
        "ids": [
          1
        ],
        "tokens": [
          "<BOS>"
        ]
      },
      "<EOS>": {
        "id": "<EOS>",
        "ids": [
          2
        ],
        "tokens": [
          "<EOS>"
        ]
      }
    }
  },
  "decoder": {
    "type": "ByteLevel",
    "add_prefix_space": true,
    "trim_offsets": true,
    "use_regex": true
  },
  "model": {
    "type": "BPE",
    "dropout": null,
    "unk_token": "<UNK>",
    "continuing_subword_prefix": null,
    "end_of_word_suffix": null,
    "fuse_unk": false,
    "byte_fallback": false,
    "ignore_merges": false,
    "vocab": {
      "<PAD>": 0,
      "<BOS>": 1,
      "<EOS>": 2,
      "<UNK>": 3,
      "<SEARCH>": 4,
      "<RESULT>": 5,
      "<TOOL>": 6,
      "<ANSWER>": 7,
      "!": 8,
      "\"": 9,
      "#": 10,
      "$": 11,
      "%": 12,
      "&": 13,
      "'": 14,
      "(": 15,
      ")": 16,
      "*": 17,
      "+": 18,
      ",": 19,
      "-": 20,
      ".": 21,
      "/": 22,
      "0": 23,
      "1": 24,
      "2": 25,
      "3": 26,
      "4": 27,
      "5": 28,
      "6": 29,
      "7": 30,
      "8": 31,
      "9": 32,
      ":": 33,
      ";": 34,
      "<": 35,
      "=": 36,
      ">": 37,
      "?": 38,
      "@": 39,
      "A": 40,
      "B": 41,
      "C": 42,
      "D": 43,
      "E": 44,
      "F": 45,
      "G": 46,
      "H": 47,
      "I": 48,
      "J": 49,
      "K": 50,
      "L": 51,
      "M": 52,
      "N": 53,
      "O": 54,
      "P": 55,
      "Q": 56,
      "R": 57,
      "S": 58,
      "T": 59,
      "U": 60,
      "V": 61,
      "W": 62,
      "X": 63,
      "Y": 64,
      "Z": 65,
      "[": 66,
      "\\": 67,
      "]": 68,
      "^": 69,
      "_": 70,
      "`": 71,
      "a": 72,
      "b": 73,
      "c": 74,
      "d": 75,
      "e": 76,
      "f": 77,
      "g": 78,
      "h": 79,
      "i": 80,
      "j": 81,
      "k": 82,
      "l": 83,
      "m": 84,
      "n": 85,
      "o": 86,
      "p": 87,
      "q": 88,
      "r": 89,
      "s": 90,
      "t": 91,
      "u": 92,
      "v": 93,
      "w": 94,
      "x": 95,
      "y": 96,
      "z": 97,
      "{": 98,
      "|": 99,
      "}": 100,
      "~": 101,
      "¡": 102,
      "¢": 103,
      "£": 104,
      "¤": 105,
      "¥": 106,
      "¦": 107,
      "§": 108,
      "¨": 109,
      "©": 110,
      "ª": 111,
      "«": 112,
      "¬": 113,
      "®": 114,
      "¯": 115,
      "°": 116,
      "±": 117,
      "²": 118,
      "³": 119,
      "´": 120,
      "µ": 121,
      "¶": 122,
      "·": 123,
      "¸": 124,
      "¹": 125,
      "º": 126,
      "»": 127,
      "¼": 128,
      "½": 129,
      "¾": 130,
      "¿": 131,
      "À": 132,
      "Á": 133,
      "Â": 134,
      "Ã": 135,
      "Ä": 136,
      "Å": 137,
      "Æ": 138,
      "Ç": 139,
      "È": 140,
      "É": 141,
      "Ê": 142,
      "Ë": 143,
      "Ì": 144,
      "Í": 145,
      "Î": 146,
      "Ï": 147,
      "Ð": 148,
      "Ñ": 149,
      "Ò": 150,
      "Ó": 151,
      "Ô": 152,
      "Õ": 153,
      "Ö": 154,
      "×": 155,
      "Ø": 156,
      "Ù": 157,
      "Ú": 158,
      "Û": 159,
      "Ü": 160,
      "Ý": 161,
      "Þ": 162,
      "ß": 163,
      "à": 164,
      "á": 165,
      "â": 166,
      "ã": 167,
      "ä": 168,
      "å": 169,
      "æ": 170,
      "ç": 171,
      "è": 172,
      "é": 173,
      "ê": 174,
      "ë": 175,
      "ì": 176,
      "í": 177,
      "î": 178,
      "ï": 179,
      "ð": 180,
      "ñ": 181,
      "ò": 182,
      "ó": 183,
      "ô": 184,
      "õ": 185,
      "ö": 186,
      "÷": 187,
      "ø": 188,
      "ù": 189,
      "ú": 190,
      "û": 191,
      "ü": 192,
      "ý": 193,
      "þ": 194,
      "ÿ": 195,
      "Ā": 196,
      "ā": 197,
      "Ă": 198,
      "ă": 199,
      "Ą": 200,
      "ą": 201,
      "Ć": 202,
      "ć": 203,
      "Ĉ": 204,
      "ĉ": 205,
      "Ċ": 206,
      "ċ": 207,
      "Č": 208,
      "č": 209,
      "Ď": 210,
      "ď": 211,
      "Đ": 212,
      "đ": 213,
      "Ē": 214,
      "ē": 215,
      "Ĕ": 216,
      "ĕ": 217,
      "Ė": 218,
      "ė": 219,
      "Ę": 220,
      "ę": 221,
      "Ě": 222,
      "ě": 223,
      "Ĝ": 224,
      "ĝ": 225,
      "Ğ": 226,
      "ğ": 227,
      "Ġ": 228,
      "ġ": 229,
      "Ģ": 230,
      "ģ": 231,
      "Ĥ": 232,
      "ĥ": 233,
      "Ħ": 234,
      "ħ": 235,
      "Ĩ": 236,
      "ĩ": 237,
      "Ī": 238,
      "ī": 239,
      "Ĭ": 240,
      "ĭ": 241,
      "Į": 242,
      "į": 243,
      "İ": 244,
      "ı": 245,
      "Ĳ": 246,
      "ĳ": 247,
      "Ĵ": 248,
      "ĵ": 249,
      "Ķ": 250,
      "ķ": 251,
      "ĸ": 252,
      "Ĺ": 253,
      "ĺ": 254,
      "Ļ": 255,
      "ļ": 256,
      "Ľ": 257,
      "ľ": 258,
      "Ŀ": 259,
      "ŀ": 260,
      "Ł": 261,
      "ł": 262,
      "Ń": 263,
      "Ġt": 264,
      "he": 265,
      "Ġa": 266,
      "in": 267,
      "Ġthe": 268,
      "er": 269,
      "on": 270,
      "Ġ,": 271,
      "re": 272,
      "Ġs": 273,
      "ed": 274,
      "Ġw": 275,
      "Ġo": 276,
      "nd": 277,
      "at": 278,
      "Ġ.": 279,
      "or": 280,
      "en": 281,
      "it": 282,
      "Ġc": 283,
      "Ġf": 284,
      "es": 285,
      "is": 286,
      "ar": 287,
      "Ġb": 288,
      "Ġof": 289,
      "an": 290,
      "Ġin": 291,
      "al": 292,
      "ing": 293,
      "Ġp": 294,
      "as": 295,
      "Ġand": 296,
      "Ġto": 297,
      "ic": 298,
      "ro": 299,
      "Ġm": 300,
      "Ġd": 301,
      "Ġh": 302,
      "ion": 303,
      "le": 304,
      "ou": 305,
      "ĠT": 306,
      "Ġre": 307,
      "il": 308,
      "ĠS": 309,
      "ent": 310,
      "Ġ1": 311,
      "Ġth": 312,
      "ĠA": 313,
      "Ġ\"": 314,
      "st": 315,
      "el": 316,
      "Ġl": 317,
      "Ġ@": 318,
      "om": 319,
      "Ġe": 320,
      "čĊ": 321,
      "am": 322,
      "ĠC": 323,
      "Ġ=": 324,
      "Ġn": 325,
      "ad": 326,
      "ac": 327,
      "Ġwas": 328,
      "ĠM": 329,
      "Ġon": 330,
      "ec": 331,
      "ly": 332,
      "ur": 333,
      "ĠB": 334,
      "et": 335,
      "Ġg": 336,
      "Ġ'": 337,
      "ol": 338,
      "id": 339,
      "-@": 340,
      "Ġ@-@": 341,
      "im": 342,
      "ir": 343,
      "Ġfor": 344,
      "ig": 345,
      "iv": 346,
      "ot": 347,
      "ter": 348,
      "ĠI": 349,
      "ut": 350,
      "ĠThe": 351,
      "Ġas": 352,
      "ow": 353,
      "us": 354,
      "ĠH": 355,
      "ith": 356,
      "ay": 357,
      "Ġst": 358,
      "Ġ2": 359,
      "ver": 360,
      "ĠP": 361,
      "ation": 362,
      "her": 363,
      "Ġwith": 364,
      "Ġbe": 365,
      "Ġthat": 366,
      "ĠR": 367,
      "ce": 368,
      "un": 369,
      "em": 370,
      "ĠD": 371,
      "Ġwh": 372,
      "ch": 373,
      "Ġby": 374,
      "th": 375,
      "Ġ)": 376,
      "Ġ(": 377,
      "ul": 378,
      "ĠW": 379,
      "Ġal": 380,
      "Ġis": 381,
      "ĠF": 382,
      "ers": 383,
      "Ġcon": 384,
      "Ġat": 385,
      "ĠG": 386,
      "ĠL": 387,
      "ct": 388,
      "ra": 389,
      "ĠN": 390,
      "os": 391,
      "Ġan": 392,
      "Ġ19": 393,
      "Ġit": 394,
      "Ġhe": 395,
      "rom": 396,
      "and": 397,
      "00": 398,
      "um": 399,
      "est": 400,
      "ĠJ": 401,
      "ag": 402,
      "ist": 403,
      "ain": 404,
      "ri": 405,
      "ĠE": 406,
      "av": 407,
      "od": 408,
      "Ġfrom": 409,
      "Ġhis": 410,
      "Ġcom": 411,
      "Ġv": 412,
      "op": 413,
      "Ġpro": 414,
      "if": 415,
      "ĠO": 416,
      "ld": 417,
      "res": 418,
      "Ġr": 419,
      "ere": 420,
      "up": 421,
      "ill": 422,
      "igh": 423,
      "ies": 424,
      "ew": 425,
      "ore": 426,
      "Ġwere": 427,
      "Ġde": 428,
      "ort": 429,
      "ard": 430,
      "Ġse": 431,
      "ak": 432,
      "ber": 433,
      "all": 434,
      "ich": 435,
      "art": 436,
      "ate": 437,
      "ant": 438,
      "ap": 439,
      "qu": 440,
      "Ġex": 441,
      "ud": 442,
      "ab": 443,
      "Ġor": 444,
      "ong": 445,
      "oc": 446,
      "gh": 447,
      "ear": 448,
      "Ġpl": 449,
      "ated": 450,
      "ame": 451,
      "Ġsh": 452,
      "Ġch": 453,
      "ity": 454,
      "ess": 455,
      "ive": 456,
      "ip": 457,
      "ĠK": 458,
      "Ġâ": 459,
      "Ġhad": 460,
      "ĠU": 461,
      "ack": 462,
      "ĠIn": 463,
      "ect": 464,
      "se": 465,
      "ĠâĢ": 466,
      "Ġk": 467,
      "und": 468,
      "Ġsu": 469,
      "red": 470,
      "ge": 471,
      "ast": 472,
      "Ġwhich": 473,
      "our": 474,
      "ĠSt": 475,
      "ment": 476,
      "ian": 477,
      "Ġle": 478,
      "Ġare": 479,
      "ov": 480,
      "ial": 481,
      "Ġnot": 482,
      "Ġsp": 483,
      "Ġy": 484,
      "ost": 485,
      "ight": 486,
      "ell": 487,
      "ia": 488,
      "ord": 489,
      "rit": 490,
      "ther": 491,
      "pt": 492,
      "ine": 493,
      "Ġ3": 494,
      "ary": 495,
      "ust": 496,
      "oun": 497,
      "ical": 498,
      "pp": 499,
      "ave": 500,
      "Ġun": 501,
      "Ġ200": 502,
      "cc": 503,
      "ĠCh": 504,
      "irst": 505,
      "Ġinc": 506,
      "fter": 507,
      "Ġbut": 508,
      "ould": 509,
      "ish": 510,
      "ous": 511,
      "Ġcomp": 512,
      "te": 513,
      "ions": 514,
      "ĠV": 515,
      "ff": 516,
      "so": 517,
      "Ġ20": 518,
      "ure": 519,
      "Ġfirst": 520,
      "Ġro": 521,
      "ide": 522,
      "ub": 523,
      "Ġwhe": 524,
      "og": 525,
      "Ġcont": 526,
      "Ġ;": 527,
      "wo": 528,
      "Ġar": 529,
      "Ġits": 530,
      "ok": 531,
      "Ġtheir": 532,
      "ass": 533,
      "Ġcl": 534,
      "ie": 535,
      "ĠâĢĵ": 536,
      "orm": 537,
      "ign": 538,
      "Ġher": 539,
      "ue": 540,
      "Ġint": 541,
      "ater": 542,
      "out": 543,
      "Ġab": 544,
      "Ġres": 545,
      "ork": 546,
      "Ġ:": 547,
      "ome": 548,
      "ond": 549,
      "Ġalso": 550,
      "ĠHe": 551,
      "ry": 552,
      "ire": 553,
      "Ġus": 554,
      "hed": 555,
      "ran": 556,
      "Ġad": 557,
      "own": 558,
      "Ġ4": 559,
      "per": 560,
      "mer": 561,
      "ru": 562,
      "The": 563,
      "ime": 564,
      "age": 565,
      "Ġ18": 566,
      "Ġone": 567,
      "du": 568,
      "Ġ5": 569,
      "Ġper": 570,
      "low": 571,
      "ally": 572,
      ".@": 573,
      "Ġ@.@": 574,
      "Ġhave": 575,
      "pl": 576,
      "Ġwho": 577,
      "Ġrec": 578,
      "Ġsc": 579,
      "Ġtwo": 580,
      "ted": 581,
      "ile": 582,
      "ugh": 583,
      "port": 584,
      "iz": 585,
      "ence": 586,
      "ree": 587,
      "ts": 588,
      "ĠTh": 589,
      ",@": 590,
      "Ġ@,@": 591,
      "Ġbeen": 592,
      "ric": 593,
      "uring": 594,
      "ition": 595,
      "Ġag": 596,
      "Ġhas": 597,
      "ory": 598,
      "ations": 599,
      "ough": 600,
      "land": 601,
      "Ġbec": 602,
      "Ġen": 603,
      "Ġover": 604,
      "ely": 605,
      "Ġ201": 606,
      "Ġyear": 607,
      "Ġthis": 608,
      "Ġdis": 609,
      "Ġapp": 610,
      "Ġj": 611,
      "Ġpart": 612,
      "lud": 613,
      "Ġoff": 614,
      "Ġser": 615,
      "ice": 616,
      "Ġafter": 617,
      "ke": 618,
      "ction": 619,
      "Ġplay": 620,
      "ach": 621,
      "ren": 622,
      "ound": 623,
      "Ġdes": 624,
      "Ġup": 625,
      "ember": 626,
      "ĠAl": 627,
      "over": 628,
      "Ġman": 629,
      "Ġother": 630,
      "ade": 631,
      "Ġthey": 632,
      "ark": 633,
      "Ġout": 634,
      "ance": 635,
      "ĠIt": 636,
      "ace": 637,
      "Ġte": 638,
      "ult": 639,
      "act": 640,
      "wn": 641,
      "ress": 642,
      "Ġim": 643,
      "ib": 644,
      "ph": 645,
      "Ġinclud": 646,
      "urn": 647,
      "ced": 648,
      "we": 649,
      "Ġtime": 650,
      "ens": 651,
      "man": 652,
      "ĠY": 653,
      "Ġwould": 654,
      "Ġ6": 655,
      "Ġinto": 656,
      "ite": 657,
      "Ġpre": 658,
      "vel": 659,
      "ĠUn": 660,
      "ey": 661,
      "oin": 662,
      "Ġev": 663,
      "Ġwe": 664,
      "Ġne": 665,
      "ates": 666,
      "Ġhim": 667,
      "les": 668,
      "ward": 669,
      "ind": 670,
      "Ġatt": 671,
      "ount": 672,
      "ased": 673,
      "are": 674,
      "ited": 675,
      "ied": 676,
      "able": 677,
      "Ġshe": 678,
      "ase": 679,
      "rough": 680,
      "Ġcomm": 681,
      "ors": 682,
      "amp": 683,
      "oy": 684,
      "Ġall": 685,
      "ang": 686,
      "Ġ7": 687,
      "Ġmore": 688,
      "end": 689,
      "ings": 690,
      "tern": 691,
      "old": 692,
      "form": 693,
      "ons": 694,
      "ces": 695,
      "ep": 696,
      "ered": 697,
      "Ġwork": 698,
      "ail": 699,
      "ents": 700,
      "iss": 701,
      "ood": 702,
      "ild": 703,
      "Ġgame": 704,
      "ose": 705,
      "Ġbet": 706,
      "rib": 707,
      "Ġsec": 708,
      "way": 709,
      "att": 710,
      "vi": 711,
      "Ġ8": 712,
      "fer": 713,
      "Ġnew": 714,
      "inal": 715,
      "Ġfe": 716,
      "ft": 717,
      "Ġwhen": 718,
      "ilm": 719,
      "one": 720,
      "round": 721,
      "reat": 722,
      "ick": 723,
      "Ġtr": 724,
      "Ġcons": 725,
      "ubl": 726,
      "aw": 727,
      "gan": 728,
      "ake": 729,
      "orth": 730,
      "Ġdec": 731,
      "Ġund": 732,
      "Ġrem": 733,
      "Ġcent": 734,
      "ĠSe": 735,
      "ved": 736,
      "ason": 737,
      "Ġduring": 738,
      "aus": 739,
      "ĠAn": 740,
      "ween": 741,
      "Ġ9": 742,
      "Ġmost": 743,
      "Ġthem": 744,
      "Ġagain": 745,
      "Ġonly": 746,
      "ug": 747,
      "Ġear": 748,
      "ĠMar": 749,
      "oth": 750,
      "ollow": 751,
      "ans": 752,
      "Ġthan": 753,
      "ix": 754,
      "ĠOn": 755,
      "ss": 756,
      "Ġkn": 757,
      "Ġabout": 758,
      "Ġ199": 759,
      "Ġpr": 760,
      "ĠAr": 761,
      "ton": 762,
      "ath": 763,
      "Ġsup": 764,
      "ve": 765,
      "hip": 766,
      "Ġbetween": 767,
      "Ġ00": 768,
      "Ġinter": 769,
      "ob": 770,
      "Ġchar": 771,
      "Ġthree": 772,
      "Ġcan": 773,
      "Ġunder": 774,
      "fore": 775,
      "rop": 776,
      "Ġlater": 777,
      "hn": 778,
      "Ġsong": 779,
      "Ġcol": 780,
      "ict": 781,
      "Ġfilm": 782,
      "ational": 783,
      "Ġprodu": 784,
      "ron": 785,
      "outh": 786,
      "Ġme": 787,
      "orn": 788,
      "ook": 789,
      "Ġret": 790,
      "lect": 791,
      "Ġfl": 792,
      "Ġrele": 793,
      "Ġact": 794,
      "Ġthrough": 795,
      "Ġqu": 796,
      "Ġacc": 797,
      "Ġso": 798,
      "Ġnum": 799,
      "ames": 800,
      "Ġra": 801,
      "Ġrel": 802,
      "als": 803,
      "Ġend": 804,
      "orld": 805,
      "ĠEn": 806,
      "ĠNew": 807,
      "meric": 808,
      "Ġwhile": 809,
      "ĠCom": 810,
      "ever": 811,
      "Ġbu": 812,
      "In": 813,
      "ener": 814,
      "ĠAmeric": 815,
      "ters": 816,
      "ating": 817,
      "ular": 818,
      "Ġver": 819,
      "Ġreg": 820,
      "Ġpos": 821,
      "ock": 822,
      "ral": 823,
      "Ġ000": 824,
      "Ġpe": 825,
      "Ġday": 826,
      "ived": 827,
      "Ġass": 828,
      "ĠLe": 829,
      "Ġgro": 830,
      "Ġrecord": 831,
      "Ġsecond": 832,
      "ool": 833,
      "Ġwhere": 834,
      "Ġsub": 835,
      "ished": 836,
      "Ġform": 837,
      "Ġmade": 838,
      "Ġwrit": 839,
      "Ġseason": 840,
      "Ġsuch": 841,
      "Ġep": 842,
      "ning": 843,
      "ics": 844,
      "ision": 845,
      "Ġfollow": 846,
      "hes": 847,
      "Ġspec": 848,
      "Ġdef": 849,
      "Ġfour": 850,
      "iel": 851,
      "aid": 852,
      "bum": 853,
      "Ġsome": 854,
      "ank": 855,
      "Ġthere": 856,
      "Ġtra": 857,
      "Ġbefore": 858,
      "Ġmus": 859,
      "Ġind": 860,
      "Ġac": 861,
      "Ġam": 862,
      "Ġyears": 863,
      "ode": 864,
      "Ġ/": 865,
      "Ġlar": 866,
      "Ġcall": 867,
      "ĠRe": 868,
      "ĠSp": 869,
      "Ġ17": 870,
      "io": 871,
      "ual": 872,
      "Ġ10": 873,
      "Ġpubl": 874,
      "Ġused": 875,
      "ike": 876,
      "ĠJo": 877,
      "Ġmov": 878,
      "Ġmon": 879,
      "hen": 880,
      "ily": 881,
      "ific": 882,
      "owever": 883,
      "Ġhigh": 884,
      "ident": 885,
      "son": 886,
      "Ġsy": 887,
      "ĠThis": 888,
      "Ġno": 889,
      "Ġepis": 890,
      "uc": 891,
      "Ġalbum": 892,
      "ll": 893,
      "ury": 894,
      "Ġbeing": 895,
      "ale": 896,
      "Ġexp": 897,
      "Ġsur": 898,
      "Ġset": 899,
      "Ġteam": 900,
      "ĠSh": 901,
      "Ġdo": 902,
      "Ġent": 903,
      "velop": 904,
      "Ġloc": 905,
      "ten": 906,
      "Ġbl": 907,
      "Ġ0": 908,
      "Ġagainst": 909,
      "Ġthen": 910,
      "aj": 911,
      "air": 912,
      "rans": 913,
      "ained": 914,
      "ife": 915,
      "ious": 916,
      "Ġnumber": 917,
      "ik": 918,
      "Ġpres": 919,
      "Ġfound": 920,
      "Ġrece": 921,
      "Ġcharac": 922,
      "other": 923,
      "ars": 924,
      "ĠAt": 925,
      "ins": 926,
      "Ġsever": 927,
      "pen": 928,
      "Ġco": 929,
      "Ġ12": 930,
      "ines": 931,
      "ower": 932,
      "ather": 933,
      "ram": 934,
      "Ġinv": 935,
      "ĠUnited": 936,
      "ince": 937,
      "ĠBrit": 938,
      "ject": 939,
      "ised": 940,
      "Ġboth": 941,
      "Ġwell": 942,
      "ane": 943,
      "its": 944,
      "Ġadd": 945,
      "Ġshow": 946,
      "Ġbecame": 947,
      "Ġsing": 948,
      "ird": 949,
      "ier": 950,
      "ĠâĢĶ": 951,
      "ause": 952,
      "ek": 953,
      "ĠAs": 954,
      "any": 955,
      "Ġincluding": 956,
      "Ġback": 957,
      "olog": 958,
      "ivers": 959,
      "Ġ194": 960,
      "ise": 961,
      "Ġrep": 962,
      "Ġseries": 963,
      "ities": 964,
      "elf": 965,
      "led": 966,
      "ield": 967,
      "Ġcap": 968,
      "ement": 969,
      "Ġ15": 970,
      "Ġ198": 971,
      "ired": 972,
      "Ġship": 973,
      "Ġmain": 974,
      "Ġlead": 975,
      "Ġmin": 976,
      "Ġmet": 977,
      "uch": 978,
      "Ġperform": 979,
      "Ġ16": 980,
      "ures": 981,
      "ley": 982,
      "ober": 983,
      "iet": 984,
      "ĠEng": 985,
      "Ġem": 986,
      "ative": 987,
      "Ġair": 988,
      "Ġdevelop": 989,
      "ven": 990,
      "Ġepisode": 991,
      "Ġdid": 992,
      "overn": 993,
      "Ġcre": 994,
      "ting": 995,
      "ash": 996,
      "Ġpol": 997,
      "erm": 998,
      "iver": 999,
      "Ġlong": 1000,
      "Ġcar": 1001,
      "tend": 1002,
      "Ġmany": 1003,
      "Ġimp": 1004,
      "Ġgo": 1005,
      "ann": 1006,
      "az": 1007,
      "Ġ11": 1008,
      "ared": 1009,
      "ĠInd": 1010,
      "irect": 1011,
      "enn": 1012,
      "ful": 1013,
      "Ġstud": 1014,
      "rid": 1015,
      "ĠCon": 1016,
      "ĠSc": 1017,
      "ĠJohn": 1018,
      "Ġcould": 1019,
      "Ġwar": 1020,
      "Ġtrans": 1021,
      "Ġbro": 1022,
      "Ġknown": 1023,
      "Ġorig": 1024,
      "ĠShe": 1025,
      "Ġdep": 1026,
      "though": 1027,
      "ern": 1028,
      "Ġseveral": 1029,
      "Ġcontin": 1030,
      "emb": 1031,
      "Ġob": 1032,
      "Ġdif": 1033,
      "Ġdesc": 1034,
      "ah": 1035,
      "Ġmill": 1036,
      "chool": 1037,
      "der": 1038,
      "Ġsm": 1039,
      "Ġcomple": 1040,
      "Ġpop": 1041,
      "ĠWar": 1042,
      "iam": 1043,
      "Ġsaid": 1044,
      "til": 1045,
      "ĠAmerican": 1046,
      "Ġinst": 1047,
      "ually": 1048,
      "Ġrun": 1049,
      "oot": 1050,
      "view": 1051,
      "ute": 1052,
      "ross": 1053,
      "ĠZ": 1054,
      "Ġany": 1055,
      "tain": 1056,
      "ued": 1057,
      "Ġconc": 1058,
      "une": 1059,
      "Ġest": 1060,
      "Ġdist": 1061,
      "ized": 1062,
      "Ġmat": 1063,
      "ople": 1064,
      "Ġpass": 1065,
      "Ġprov": 1066,
      "Ġcalled": 1067,
      "ĠCl": 1068,
      "ris": 1069,
      "my": 1070,
      "Ġbegan": 1071,
      "ty": 1072,
      "aking": 1073,
      "Ġnear": 1074,
      "Ġdown": 1075,
      "Ġearly": 1076,
      "Ġ197": 1077,
      "ouse": 1078,
      "Ġdisc": 1079,
      "ĠAust": 1080,
      "ments": 1081,
      "Ġsign": 1082,
      "ĠWh": 1083,
      "imes": 1084,
      "Ġdesign": 1085,
      "Ġreturn": 1086,
      "ccess": 1087,
      "Ġbel": 1088,
      "Ġinf": 1089,
      "Ġgener": 1090,
      "ism": 1091,
      "ution": 1092,
      "Ġgroup": 1093,
      "Ġph": 1094,
      "erson": 1095,
      "Ġreleased": 1096,
      "ided": 1097,
      "Ġfeat": 1098,
      "Ġeff": 1099,
      "ĠDe": 1100,
      "ially": 1101,
      "ĠMay": 1102,
      "Ġown": 1103,
      "Ġmay": 1104,
      "ĠAfter": 1105,
      "Ġoffic": 1106,
      "Ġuntil": 1107,
      "Ġdirect": 1108,
      "Ġresp": 1109,
      "ĠCol": 1110,
      "ists": 1111,
      "ium": 1112,
      "Ġthese": 1113,
      "Ġ13": 1114,
      "Ġfin": 1115,
      "ĠBl": 1116,
      "Ġart": 1117,
      "Ġcrit": 1118,
      "ets": 1119,
      "xt": 1120,
      "Ġmusic": 1121,
      "Ġ196": 1122,
      "ured": 1123,
      "cept": 1124,
      "Ġalong": 1125,
      "yp": 1126,
      "ajor": 1127,
      "Ġoper": 1128,
      "erv": 1129,
      "Ġpoin": 1130,
      "Ġuse": 1131,
      "anc": 1132,
      "Ġopen": 1133,
      "Ġhist": 1134,
      "ax": 1135,
      "Ġ$": 1136,
      "ĠBritish": 1137,
      "osed": 1138,
      "ull": 1139,
      "pr": 1140,
      "Ġsim": 1141,
      "Ġfam": 1142,
      "Ġsame": 1143,
      "Ã©": 1144,
      "gg": 1145,
      "Ġmil": 1146,
      "ck": 1147,
      "Ġdescrib": 1148,
      "Ġmillion": 1149,
      "Ġins": 1150,
      "stem": 1151,
      "Ġland": 1152,
      "ĠUS": 1153,
      "Ġpeople": 1154,
      "amed": 1155,
      "Ġmod": 1156,
      "vent": 1157,
      "Ġstart": 1158,
      "erman": 1159,
      "ĠStates": 1160,
      "Ġ14": 1161,
      "els": 1162,
      "ĠCar": 1163,
      "Ġocc": 1164,
      "eb": 1165,
      "ĠPl": 1166,
      "Ġ195": 1167,
      "Ġwin": 1168,
      "ĠAug": 1169,
      "ys": 1170,
      "Ġattack": 1171,
      "ger": 1172,
      "ible": 1173,
      "Ġgovern": 1174,
      "ĠAugust": 1175,
      "ink": 1176,
      "ĠSept": 1177,
      "Ġsuccess": 1178,
      "Ġcharacter": 1179,
      "Ġconst": 1180,
      "ĠIs": 1181,
      "ange": 1182,
      "ĠWorld": 1183,
      "Ġthough": 1184,
      "ina": 1185,
      "ĠSeptember": 1186,
      "Ġcount": 1187,
      "Ġgu": 1188,
      "Ġpo": 1189,
      "Ġaround": 1190,
      "Ġvi": 1191,
      "ined": 1192,
      "Ġcentury": 1193,
      "Ġ%": 1194,
      "Ġclass": 1195,
      "rist": 1196,
      "Ġserv": 1197,
      "aced": 1198,
      "ruct": 1199,
      "oss": 1200,
      "ĠPro": 1201,
      "Ġsix": 1202,
      "Ġbecause": 1203,
      "ants": 1204,
      "wards": 1205,
      "ove": 1206,
      "Ġele": 1207,
      "Ġfollowing": 1208,
      "Ġkm": 1209,
      "Ġnorth": 1210,
      "Ġed": 1211,
      "Ġfive": 1212,
      "ĠAd": 1213,
      "Ġtook": 1214,
      "ues": 1215,
      "Ġconsid": 1216,
      "Ġlike": 1217,
      "ĠJu": 1218,
      "attle": 1219,
      "Ġgr": 1220,
      "ĠFran": 1221,
      "Ġreport": 1222,
      "ring": 1223,
      "Ġbuild": 1224,
      "Ġcity": 1225,
      "ĠNov": 1226,
      "Ġappear": 1227,
      "Ġsupport": 1228,
      "Ġsmall": 1229,
      "ged": 1230,
      "ives": 1231,
      "Ġeach": 1232,
      "aving": 1233,
      "Ġvar": 1234,
      "Ġfinal": 1235,
      "ĠAll": 1236,
      "Ġreceived": 1237,
      "Ġext": 1238,
      "Ġ193": 1239,
      "Ġever": 1240,
      "get": 1241,
      "ĠAustral": 1242,
      "Ġ]": 1243,
      "Ġaut": 1244,
      "esp": 1245,
      "Ġann": 1246,
      "gin": 1247,
      "ĠHowever": 1248,
      "ĠNorth": 1249,
      "Ġarea": 1250,
      "Ġ[": 1251,
      "ĠGerman": 1252,
      "tle": 1253,
      "ording": 1254,
      "ĠJune": 1255,
      "ĠFor": 1256,
      "ĠThey": 1257,
      "ĠDec": 1258,
      "ales": 1259,
      "ility": 1260,
      "ically": 1261,
      "ĠCan": 1262,
      "urch": 1263,
      "ĠQ": 1264,
      "iving": 1265,
      "ĠOct": 1266,
      "Ġpublic": 1267,
      "Ġstate": 1268,
      "ling": 1269,
      "ately": 1270,
      "ner": 1271,
      "Ġlife": 1272,
      "ored": 1273,
      "Ġprom": 1274,
      "raph": 1275,
      "Ġwill": 1276,
      "Ġhead": 1277,
      "ission": 1278,
      "Ġsystem": 1279,
      "anu": 1280,
      "Ġsince": 1281,
      "Ġmed": 1282,
      "Ġpartic": 1283,
      "ene": 1284,
      "ional": 1285,
      "ians": 1286,
      "Ġtri": 1287,
      "Ġbo": 1288,
      "Ġconf": 1289,
      "Ġ191": 1290,
      "med": 1291,
      "Ġmajor": 1292,
      "ĠOctober": 1293,
      "ilt": 1294,
      "inc": 1295,
      "ient": 1296,
      "ped": 1297,
      "ex": 1298,
      "ĠComm": 1299,
      "Ġcontro": 1300,
      "ble": 1301,
      "ret": 1302,
      "Ġweek": 1303,
      "Ġmar": 1304,
      "ĠYork": 1305,
      "Ġlast": 1306,
      "Ġschool": 1307,
      "ural": 1308,
      "lish": 1309,
      "Ġelect": 1310,
      "raft": 1311,
      "Ġsingle": 1312,
      "Ġref": 1313,
      "uss": 1314,
      "ats": 1315,
      "ĠJuly": 1316,
      "ively": 1317,
      "ĠNovember": 1318,
      "Ġlarge": 1319,
      "pril": 1320,
      "Ġworld": 1321,
      "ĠApril": 1322,
      "ĠPh": 1323,
      "Ġdet": 1324,
      "Ġleft": 1325,
      "por": 1326,
      "ĠMarch": 1327,
      "apan": 1328,
      "Ġhel": 1329,
      "ball": 1330,
      "Ġallow": 1331,
      "omet": 1332,
      "ĠEd": 1333,
      "Ġcare": 1334,
      "Ġrest": 1335,
      "Ġline": 1336,
      "empt": 1337,
      "Ġvers": 1338,
      "Ġbook": 1339,
      "ected": 1340,
      "ĠJapan": 1341,
      "row": 1342,
      "Ġjust": 1343,
      "Ġ30": 1344,
      "Ġdiffer": 1345,
      "Ġlit": 1346,
      "ection": 1347,
      "vious": 1348,
      "..": 1349,
      "Ġwhat": 1350,
      "ains": 1351,
      "hest": 1352,
      "Ġincre": 1353,
      "Ġmonth": 1354,
      "Ġstr": 1355,
      "ĠSouth": 1356,
      "ified": 1357,
      "Ġadv": 1358,
      "Ġ25": 1359,
      "ean": 1360,
      "Ġmuch": 1361,
      "Ġsl": 1362,
      "Ġold": 1363,
      "ĠDecember": 1364,
      "Ġplayed": 1365,
      "aim": 1366,
      "ague": 1367,
      "by": 1368,
      "Ġcamp": 1369,
      "Ġthird": 1370,
      "ĠMc": 1371,
      "ĠBe": 1372,
      "Ġexpl": 1373,
      "Ġsouth": 1374,
      "Ġanother": 1375,
      "Ġif": 1376,
      "Ġbased": 1377,
      "Ġband": 1378,
      "Ġdue": 1379,
      "ĠGu": 1380,
      "cl": 1381,
      "Ġappro": 1382,
      "Ġevent": 1383,
      "anuary": 1384,
      "yl": 1385,
      "ĠJanuary": 1386,
      "oman": 1387,
      "Ġdr": 1388,
      "Ġshort": 1389,
      "rench": 1390,
      "ĠBro": 1391,
      "Ġhome": 1392,
      "Ġtit": 1393,
      "ĠHar": 1394,
      "ently": 1395,
      "Ġincluded": 1396,
      "rote": 1397,
      "Ġvis": 1398,
      "alf": 1399,
      "Ġdescribed": 1400,
      "Ġname": 1401,
      "ĠChrist": 1402,
      "Ġbre": 1403,
      "Ġprog": 1404,
      "ĠGe": 1405,
      "Ġperson": 1406,
      "ĠKing": 1407,
      "iod": 1408,
      "Ġgames": 1409,
      "ĠII": 1410,
      "Ġplace": 1411,
      "Ġstory": 1412,
      "Ġ...": 1413,
      "ilar": 1414,
      "rand": 1415,
      "Ġwrote": 1416,
      "Ġturn": 1417,
      "ital": 1418,
      "ĠWill": 1419,
      "Ġgovernment": 1420,
      "Ġpower": 1421,
      "Ġkill": 1422,
      "Ġspecies": 1423,
      "Ġnamed": 1424,
      "Ġdam": 1425,
      "Ġprot": 1426,
      "ple": 1427,
      "Ġwon": 1428,
      "Ġpar": 1429,
      "ves": 1430,
      "iversity": 1431,
      "ister": 1432,
      "ert": 1433,
      "Ġrequ": 1434,
      "ĠEu": 1435,
      "avy": 1436,
      "Ġattempt": 1437,
      "Ġreview": 1438,
      "Ġnow": 1439,
      "ne": 1440,
      "ideo": 1441,
      "Ġeng": 1442,
      "ages": 1443,
      "ĠFrench": 1444,
      "ony": 1445,
      "Ġtrack": 1446,
      "af": 1447,
      "Ġway": 1448,
      "embers": 1449,
      "Ġorgan": 1450,
      "eng": 1451,
      "Ġport": 1452,
      "ience": 1453,
      "rent": 1454,
      "Ġled": 1455,
      "rig": 1456,
      "alk": 1457,
      "ody": 1458,
      "Ġdeath": 1459,
      "Ġprevious": 1460,
      "Ġterm": 1461,
      "Ġfamily": 1462,
      "ham": 1463,
      "ont": 1464,
      "Ġmake": 1465,
      "Ġmen": 1466,
      "Ġhand": 1467,
      "ps": 1468,
      "Ġposs": 1469,
      "Ġiss": 1470,
      "Ġmark": 1471,
      "Ġgun": 1472,
      "omin": 1473,
      "urther": 1474,
      "ĠÂ": 1475,
      "Ġtown": 1476,
      "Ġ192": 1477,
      "ature": 1478,
      "Ġperiod": 1479,
      "ards": 1480,
      "Ġeven": 1481,
      "Ġbuilt": 1482,
      "Ġbest": 1483,
      "Ġsold": 1484,
      "itions": 1485,
      "rew": 1486,
      "mp": 1487,
      "ached": 1488,
      "enc": 1489,
      "Ġbelie": 1490,
      "iven": 1491,
      "Ġwithin": 1492,
      "Ġdem": 1493,
      "Ġright": 1494,
      "Ġ100": 1495,
      "Ġcommand": 1496,
      "reen": 1497,
      "Ġlate": 1498,
      "ences": 1499,
      "sh": 1500,
      "Ġstorm": 1501,
      "oad": 1502,
      "ched": 1503,
      "Ġthose": 1504,
      "Ġvery": 1505,
      "Ġdest": 1506,
      "Ġlist": 1507,
      "ridge": 1508,
      "ĠMan": 1509,
      "ĠPr": 1510,
      "Ġcour": 1511,
      "Ġview": 1512,
      "Ġstill": 1513,
      "Ġrepl": 1514,
      "Ġleg": 1515,
      "Ġalthough": 1516,
      "Ġchild": 1517,
      "Ġopp": 1518,
      "ĠHis": 1519,
      "aken": 1520,
      "Ġnext": 1521,
      "Ġtop": 1522,
      "Ġmembers": 1523,
      "ulation": 1524,
      "ivision": 1525,
      "ival": 1526,
      "ides": 1527,
      "Ġeffect": 1528,
      "Ġ21": 1529,
      "ĠPar": 1530,
      "Ġoriginal": 1531,
      "Ġexper": 1532,
      "Ġaddition": 1533,
      "ior": 1534,
      "Ġestab": 1535,
      "ott": 1536,
      "Ġwater": 1537,
      "ĠEurop": 1538,
      "ense": 1539,
      "ole": 1540,
      "tended": 1541,
      "hor": 1542,
      "oci": 1543,
      "Ġ2010": 1544,
      "ĠWe": 1545,
      "eter": 1546,
      "aged": 1547,
      "ĠFl": 1548,
      "ption": 1549,
      "Ġfun": 1550,
      "gy": 1551,
      "Ġsk": 1552,
      "Ġformer": 1553,
      "itary": 1554,
      "aster": 1555,
      "ness": 1556,
      "ĠWest": 1557,
      "Ġjoin": 1558,
      "Ġgreat": 1559,
      "Ġinit": 1560,
      "Ġreal": 1561,
      "ances": 1562,
      "Ġ&": 1563,
      "Ġheld": 1564,
      "Ġvideo": 1565,
      "Ġcur": 1566,
      "bo": 1567,
      "riend": 1568,
      "ĠAnd": 1569,
      "ĠMin": 1570,
      "ead": 1571,
      "uted": 1572,
      "ruction": 1573,
      "lu": 1574,
      "ĠNo": 1575,
      "self": 1576,
      "augh": 1577,
      "ĠBy": 1578,
      "ebru": 1579,
      "elt": 1580,
      "Ġ24": 1581,
      "Ġdays": 1582,
      "ology": 1583,
      "ropical": 1584,
      "Ġcame": 1585,
      "Ġcover": 1586,
      "ebruary": 1587,
      "ĠMich": 1588,
      "ĠFebruary": 1589,
      "oon": 1590,
      "Ġsimilar": 1591,
      "Ġfew": 1592,
      "ĠWhen": 1593,
      "ĠNational": 1594,
      "Ġhowever": 1595,
      "Ġcaus": 1596,
      "line": 1597,
      "Ġresult": 1598,
      "Ġhum": 1599,
      "Ġpresent": 1600,
      "ĠMus": 1601,
      "ops": 1602,
      "ai": 1603,
      "ĠHer": 1604,
      "Ġmag": 1605,
      "esc": 1606,
      "idd": 1607,
      "Ġdeb": 1608,
      "ograph": 1609,
      "Ġrelease": 1610,
      "Ġ2009": 1611,
      "Ġstand": 1612,
      "ried": 1613,
      "au": 1614,
      "Ġprop": 1615,
      "Ġtyp": 1616,
      "Ġtw": 1617,
      "ech": 1618,
      "Ġsent": 1619,
      "urs": 1620,
      "Ġ2008": 1621,
      "ese": 1622,
      "ney": 1623,
      "atic": 1624,
      "Ġcontinued": 1625,
      "akes": 1626,
      "lev": 1627,
      "Ġrole": 1628,
      "ĠAir": 1629,
      "Ġspe": 1630,
      "ĠAm": 1631,
      "Ġ2007": 1632,
      "Ġoften": 1633,
      "Ġconsidered": 1634,
      "Ġwind": 1635,
      "tal": 1636,
      "Ġlocal": 1637,
      "Ġside": 1638,
      "Ġcareer": 1639,
      "ĠEngland": 1640,
      "arm": 1641,
      "Ġequ": 1642,
      "Ġamong": 1643,
      "read": 1644,
      "Ġ2011": 1645,
      "Ġpost": 1646,
      "estern": 1647,
      "Ġsay": 1648,
      "Ġplayer": 1649,
      "Ġwithout": 1650,
      "Ġhistory": 1651,
      "ĠBar": 1652,
      "ches": 1653,
      "side": 1654,
      "ots": 1655,
      "ories": 1656,
      "Ġdifferent": 1657,
      "ering": 1658,
      "Ġfre": 1659,
      "ĠCanad": 1660,
      "par": 1661,
      "Ġyou": 1662,
      "Ġcr": 1663,
      "ĠGeor": 1664,
      "Ġevery": 1665,
      "Ġ23": 1666,
      "Ġdel": 1667,
      "ush": 1668,
      "ĠWilliam": 1669,
      "Ġclaim": 1670,
      "hel": 1671,
      "Ġ2012": 1672,
      "Ġfurther": 1673,
      "Ġtake": 1674,
      "ract": 1675,
      "Ġversion": 1676,
      "Ġpolit": 1677,
      "Ġ22": 1678,
      "que": 1679,
      "Ġmoved": 1680,
      "ler": 1681,
      "Ġdra": 1682,
      "Ġbeh": 1683,
      "ĠDuring": 1684,
      "omen": 1685,
      "urric": 1686,
      "aul": 1687,
      "Ġmy": 1688,
      "Ġtrad": 1689,
      "rodu": 1690,
      "ĠCount": 1691,
      "ray": 1692,
      "ested": 1693,
      "Ġvict": 1694,
      "Ġwritten": 1695,
      "ĠEnglish": 1696,
      "Ġdefe": 1697,
      "ize": 1698,
      "Ġav": 1699,
      "Ġhalf": 1700,
      "ae": 1701,
      "resent": 1702,
      "yn": 1703,
      "roy": 1704,
      "Ġlevel": 1705,
      "ĠCity": 1706,
      "Ġmatch": 1707,
      "ĠX": 1708,
      "Ġfoot": 1709,
      "Ġpoint": 1710,
      "omb": 1711,
      "Ġsugg": 1712,
      "ĠRec": 1713,
      "ĠPark": 1714,
      "craft": 1715,
      "Ġplan": 1716,
      "atter": 1717,
      "Ġbecome": 1718,
      "ator": 1719,
      "ĠThere": 1720,
      "reet": 1721,
      "ternational": 1722,
      "On": 1723,
      "ĠOr": 1724,
      "ĠCent": 1725,
      "ĠAb": 1726,
      "Ġfire": 1727,
      "Ġprof": 1728,
      "ices": 1729,
      "ĠEl": 1730,
      "ford": 1731,
      "sp": 1732,
      "ĠGener": 1733,
      "Ġpublished": 1734,
      "let": 1735,
      "ĠChar": 1736,
      "ĠBo": 1737,
      "rad": 1738,
      "Ġrefer": 1739,
      "Ġorder": 1740,
      "Ġhaving": 1741,
      "Ġcommun": 1742,
      "Ġimport": 1743,
      "Ġroad": 1744,
      "ours": 1745,
      "Ġlost": 1746,
      "aining": 1747,
      "Ġant": 1748,
      "Ġappe": 1749,
      "Ġel": 1750,
      "ĠEar": 1751,
      "Ġinflu": 1752,
      "iety": 1753,
      "Ġbas": 1754,
      "Ġgen": 1755,
      "Ġstrong": 1756,
      "ery": 1757,
      "ĠAf": 1758,
      "Ġ190": 1759,
      "Ġlow": 1760,
      "ĠUniversity": 1761,
      "Ġcompany": 1762,
      "ms": 1763,
      "Ġtro": 1764,
      "Ġpress": 1765,
      "ondon": 1766,
      "Ġinvol": 1767,
      "Ġarr": 1768,
      "echn": 1769,
      "Ġgave": 1770,
      "Ġstar": 1771,
      "outher": 1772,
      "ration": 1773,
      "Ġtotal": 1774,
      "ief": 1775,
      "ĠLondon": 1776,
      "Ġaff": 1777,
      "ining": 1778,
      "vers": 1779,
      "Ġcor": 1780,
      "Ġcomb": 1781,
      "Ġwest": 1782,
      "yle": 1783,
      "Ġrecorded": 1784,
      "Ġless": 1785,
      "outhern": 1786,
      "ĠCal": 1787,
      "ampions": 1788,
      "app": 1789,
      "utes": 1790,
      "Ġhouse": 1791,
      "ailed": 1792,
      "ks": 1793,
      "ĠComp": 1794,
      "anted": 1795,
      "dom": 1796,
      "hem": 1797,
      "Ġeight": 1798,
      "Ġorigin": 1799,
      "Ġsound": 1800,
      "iment": 1801,
      "sequ": 1802,
      "Ġord": 1803,
      "Ġproduced": 1804,
      "ington": 1805,
      "Ġwent": 1806,
      "Ġprogram": 1807,
      "urricane": 1808,
      "Ġhig": 1809,
      "Ġstated": 1810,
      "ront": 1811,
      "Ġreported": 1812,
      "Ġnever": 1813,
      "ape": 1814,
      "Ġeast": 1815,
      "Ġla": 1816,
      "ention": 1817,
      "Ġtem": 1818,
      "Ġneed": 1819,
      "Ġposition": 1820,
      "Ġlarg": 1821,
      "Ġreturned": 1822,
      "ccording": 1823,
      "Ġsoc": 1824,
      "Ġlight": 1825,
      "oung": 1826,
      "Ġfore": 1827,
      "Ġgiven": 1828,
      "ĠRiver": 1829,
      "Ġproduction": 1830,
      "Ġfind": 1831,
      "Ġcommon": 1832,
      "Ġcontrol": 1833,
      "amb": 1834,
      "Ġstat": 1835,
      "Ġfield": 1836,
      "ges": 1837,
      "ĠCo": 1838,
      "levision": 1839,
      "ests": 1840,
      "ĠNe": 1841,
      "Ġter": 1842,
      "Ġinclude": 1843,
      "rest": 1844,
      "Ġ2006": 1845,
      "aff": 1846,
      "Ġ26": 1847,
      "irc": 1848,
      "ĠHigh": 1849,
      "quad": 1850,
      "Ġke": 1851,
      "Ġsol": 1852,
      "cer": 1853,
      "Ġchang": 1854,
      "Ġships": 1855,
      "rem": 1856,
      "ĠOne": 1857,
      "Ġpat": 1858,
      "astern": 1859,
      "cess": 1860,
      "Ġshould": 1861,
      "ĠAng": 1862,
      "Ġrad": 1863,
      "Ġfact": 1864,
      "Ġmilitary": 1865,
      "Ġparticular": 1866,
      "ĠGeneral": 1867,
      "Ġhow": 1868,
      "Ġgood": 1869,
      "ones": 1870,
      "Ġadm": 1871,
      "osp": 1872,
      "Ġlaw": 1873,
      "lear": 1874,
      "Ġusing": 1875,
      "Ġsurv": 1876,
      "ploy": 1877,
      "Ġ28": 1878,
      "Ġannoun": 1879,
      "Ġcompet": 1880,
      "Ġ50": 1881,
      "con": 1882,
      "ĠAss": 1883,
      "Ġer": 1884,
      "Ġcast": 1885,
      "Ġcapt": 1886,
      "ĠDav": 1887,
      "Ġaircraft": 1888,
      "oll": 1889,
      "aign": 1890,
      "ably": 1891,
      "odes": 1892,
      "Ġauthor": 1893,
      "Ġred": 1894,
      "Ġnort": 1895,
      "Ġsongs": 1896,
      "used": 1897,
      "Ġdestroy": 1898,
      "Ġ27": 1899,
      "Ġ189": 1900,
      "Ġfriend": 1901,
      "Ġrepresent": 1902,
      "Ġconv": 1903,
      "Ġbuilding": 1904,
      "Ġread": 1905,
      "Ġten": 1906,
      "Ġlim": 1907,
      "Ġsomet": 1908,
      "ĠMon": 1909,
      "ison": 1910,
      "Ġtimes": 1911,
      "ille": 1912,
      "Ġcountry": 1913,
      "Ġmaking": 1914,
      "Ġ2013": 1915,
      "Ġdevelopment": 1916,
      "Ġproject": 1917,
      "itive": 1918,
      "ĠEx": 1919,
      "Ġft": 1920,
      "ensive": 1921,
      "Ġsit": 1922,
      "Ġhimself": 1923,
      "eder": 1924,
      "atch": 1925,
      "Ġisland": 1926,
      "Ġcritic": 1927,
      "ĠCor": 1928,
      "ĠTr": 1929,
      "ither": 1930,
      "arn": 1931,
      "ef": 1932,
      "Ġclub": 1933,
      "Ġrank": 1934,
      "Ġide": 1935,
      "Ġobs": 1936,
      "ald": 1937,
      "Ġ40": 1938,
      "Ġservice": 1939,
      "Ġforces": 1940,
      "ĠThese": 1941,
      "Ġfather": 1942,
      "Ġsuff": 1943,
      "co": 1944,
      "omp": 1945,
      "hern": 1946,
      "idence": 1947,
      "ana": 1948,
      "ument": 1949,
      "Ġpopular": 1950,
      "Ġground": 1951,
      "Ġtitle": 1952,
      "ĠSec": 1953,
      "Ġblack": 1954,
      "Ġbattle": 1955,
      "play": 1956,
      "ression": 1957,
      "fic": 1958,
      "ĠWith": 1959,
      "oyal": 1960,
      "ization": 1961,
      "Ġacross": 1962,
      "Ġbatt": 1963,
      "ĠAustralia": 1964,
      "iness": 1965,
      "ĠTe": 1966,
      "Ġmonths": 1967,
      "ĠState": 1968,
      "bs": 1969,
      "alth": 1970,
      "ĠJapanese": 1971,
      "ries": 1972,
      "ĠSw": 1973,
      "ĠAfric": 1974,
      "Ġintrodu": 1975,
      "ett": 1976,
      "onn": 1977,
      "ung": 1978,
      "ampionship": 1979,
      "Ġdied": 1980,
      "ox": 1981,
      "Ġremained": 1982,
      "Ġsignific": 1983,
      "ĠCounty": 1984,
      "ream": 1985,
      "Ġcross": 1986,
      "Ġpra": 1987,
      "ĠSm": 1988,
      "Ġfac": 1989,
      "Ġcharacters": 1990,
      "itted": 1991,
      "Ġdeveloped": 1992,
      "ĠMed": 1993,
      "ĠArmy": 1994,
      "Ġget": 1995,
      "Ġtour": 1996,
      "Ġste": 1997,
      "Ġreached": 1998,
      "most": 1999,
      "Ġnoted": 2000,
      "Ġfelt": 2001,
      "Ġperformance": 2002,
      "Ġaway": 2003,
      "Ġsw": 2004,
      "Ġchart": 2005,
      "field": 2006,
      "Ġsum": 2007,
      "ky": 2008,
      "Ġofficial": 2009,
      "Ġtechn": 2010,
      "olution": 2011,
      "Ġround": 2012,
      "ublic": 2013,
      "Ġseen": 2014,
      "work": 2015,
      "Ġcer": 2016,
      "Ġ2005": 2017,
      "Ġgl": 2018,
      "Ġlet": 2019,
      "Ġhistor": 2020,
      "Ġbus": 2021,
      "ĠJames": 2022,
      "ords": 2023,
      "ĠPer": 2024,
      "Ġvarious": 2025,
      "ĠJack": 2026,
      "Ġaver": 2027,
      "isted": 2028,
      "Ġcy": 2029,
      "ĠâĢĻ": 2030,
      "ivil": 2031,
      "Ġ29": 2032,
      "ael": 2033,
      "ĠAlthough": 2034,
      "ising": 2035,
      "ination": 2036,
      "Ġfem": 2037,
      "ĠPol": 2038,
      "Ġtoo": 2039,
      "Ġcond": 2040,
      "Ġcampaign": 2041,
      "Ġnight": 2042,
      "Ġseven": 2043,
      "lished": 2044,
      "ressed": 2045,
      "Ġrelations": 2046,
      "aval": 2047,
      "ĠSy": 2048,
      "Ġaward": 2049,
      "Ġtelevision": 2050,
      "Ġcult": 2051,
      "ways": 2052,
      "cast": 2053,
      "Ġsuccessful": 2054,
      "ee": 2055,
      "Ġareas": 2056,
      "Ġdecl": 2057,
      "ĠLeague": 2058,
      "rick": 2059,
      "imately": 2060,
      "Ġthroughout": 2061,
      "Ġcoll": 2062,
      "Ġage": 2063,
      "ency": 2064,
      "Ġcolle": 2065,
      "Ġanim": 2066,
      "ope": 2067,
      "ĠAmerica": 2068,
      "Ġfav": 2069,
      "Ġval": 2070,
      "Ġplayers": 2071,
      "Ġprim": 2072,
      "Ġhit": 2073,
      "Ġagre": 2074,
      "ula": 2075,
      "ĠEast": 2076,
      "Ġestablished": 2077,
      "acy": 2078,
      "ĠGl": 2079,
      "ases": 2080,
      "Ġsee": 2081,
      "Ġcreated": 2082,
      "Ġnational": 2083,
      "Ġearl": 2084,
      "Ġmid": 2085,
      "ĠRober": 2086,
      "Ġnon": 2087,
      "Ġdiscover": 2088,
      "Ġbegin": 2089,
      "ĠIndian": 2090,
      "Ġpromot": 2091,
      "Ġkilled": 2092,
      "Ġnov": 2093,
      "Ġlittle": 2094,
      "Ġserved": 2095,
      "ĠReg": 2096,
      "ĠDivision": 2097,
      "omm": 2098,
      "Ġwriting": 2099,
      "Ġenc": 2100,
      "Ġson": 2101,
      "Ġvol": 2102,
      "Ġput": 2103,
      "iers": 2104,
      "Ġstation": 2105,
      "Ġident": 2106,
      "rict": 2107,
      "Ġchildren": 2108,
      "Ġforce": 2109,
      "Ġarm": 2110,
      "Ġbar": 2111,
      "Ġgrow": 2112,
      "Ġcost": 2113,
      "Ġtaken": 2114,
      "ament": 2115,
      "abor": 2116,
      "Ġentire": 2117,
      "Ġfollowed": 2118,
      "ĠAccording": 2119,
      "Ġpopulation": 2120,
      "Ġtropical": 2121,
      "ĠRich": 2122,
      "ĠSim": 2123,
      "ground": 2124,
      "Ġ186": 2125,
      "reg": 2126,
      "bert": 2127,
      "ĠWhile": 2128,
      "Ġstarted": 2129,
      "ĠIsland": 2130,
      "Ġwhite": 2131,
      "Ġmeet": 2132,
      "men": 2133,
      "iting": 2134,
      "Ġwid": 2135,
      "Ġable": 2136,
      "Ġgeneral": 2137,
      "eth": 2138,
      "Ġthought": 2139,
      "enced": 2140,
      "Ġfull": 2141,
      "Ġbase": 2142,
      "ĠRep": 2143,
      "oph": 2144,
      "aur": 2145,
      "ĠGeorge": 2146,
      "Ġsignificant": 2147,
      "ivid": 2148,
      "Ġball": 2149,
      "Ġstruct": 2150,
      "int": 2151,
      "Ġmm": 2152,
      "duct": 2153,
      "ĠPres": 2154,
      "Ġrange": 2155,
      "Ġoccur": 2156,
      "hing": 2157,
      "ĠMe": 2158,
      "less": 2159,
      "Ġannounced": 2160,
      "here": 2161,
      "Ġmodern": 2162,
      "Ġcoun": 2163,
      "Ġlook": 2164,
      "Ġyoung": 2165,
      "Ġprocess": 2166,
      "Ġdoes": 2167,
      "ying": 2168,
      "Ġlocated": 2169,
      "Ġrev": 2170,
      "ls": 2171,
      "ĠBlack": 2172,
      "Ġfeet": 2173,
      "Ġhelp": 2174,
      "Ġstyle": 2175,
      "Ġfle": 2176,
      "aces": 2177,
      "oice": 2178,
      "Ġloss": 2179,
      "Ġ!": 2180,
      "iec": 2181,
      "Ġcirc": 2182,
      "Ġwomen": 2183,
      "Ġpolitical": 2184,
      "Ġbecom": 2185,
      "ata": 2186,
      "Ġrock": 2187,
      "alt": 2188,
      "elling": 2189,
      "Ġperformed": 2190,
      "aint": 2191,
      "orts": 2192,
      "ĠStreet": 2193,
      "Ġspecial": 2194,
      "ĠAustralian": 2195,
      "Ġactiv": 2196,
      "Ġbroad": 2197,
      "Ġmiles": 2198,
      "ĠSte": 2199,
      "Ġformed": 2200,
      "day": 2201,
      "Ġve": 2202,
      "ogn": 2203,
      "Ġmember": 2204,
      "Ġ188": 2205,
      "Ġcoast": 2206,
      "Ġcaused": 2207,
      "Ġbody": 2208,
      "Ġarch": 2209,
      "Ġpri": 2210,
      "urb": 2211,
      "Ġ2004": 2212,
      "Ġimportant": 2213,
      "Ġcop": 2214,
      "Ġconn": 2215,
      "Ġsite": 2216,
      "ought": 2217,
      "Ġmanag": 2218,
      "ample": 2219,
      "ecut": 2220,
      "asing": 2221,
      "Ġesc": 2222,
      "Ġdiv": 2223,
      "Ġlik": 2224,
      "Ġopened": 2225,
      "Ġstri": 2226,
      "umb": 2227,
      "sc": 2228,
      "Ġtoget": 2229,
      "Ġtogether": 2230,
      "Ġhold": 2231,
      "ster": 2232,
      "Ġfight": 2233,
      "ality": 2234,
      "ript": 2235,
      "Ġappeared": 2236,
      "Ġ31": 2237,
      "Ġpoints": 2238,
      "ĠSer": 2239,
      "Ġothers": 2240,
      "ĠQu": 2241,
      "epend": 2242,
      "lected": 2243,
      "Ġinstead": 2244,
      "Ġ2014": 2245,
      "aly": 2246,
      "quadron": 2247,
      "ĠRoman": 2248,
      "Ġroute": 2249,
      "Ġconstruction": 2250,
      "Ġimpro": 2251,
      "rated": 2252,
      "itch": 2253,
      "Ġredu": 2254,
      "Ġcompleted": 2255,
      "emy": 2256,
      "ĠPhil": 2257,
      "head": 2258,
      "cent": 2259,
      "ask": 2260,
      "iber": 2261,
      "Ġaud": 2262,
      "ĠBill": 2263,
      "ĠAct": 2264,
      "Ġhost": 2265,
      "Ġfeatures": 2266,
      "ĠSup": 2267,
      "ĠRoad": 2268,
      "reek": 2269,
      "Ġmix": 2270,
      "rought": 2271,
      "Ġdecided": 2272,
      "ĠFrance": 2273,
      "oring": 2274,
      "pped": 2275,
      "Ġcrew": 2276,
      "Ġmiss": 2277,
      "ĠSchool": 2278,
      "ological": 2279,
      "Ġmot": 2280,
      "ĠHen": 2281,
      "Ã¡": 2282,
      "ĠRoyal": 2283,
      "Ġstage": 2284,
      "Ġleast": 2285,
      "Ġbomb": 2286,
      "Ġcut": 2287,
      "Ġborn": 2288,
      "Ġeventually": 2289,
      "itar": 2290,
      "iron": 2291,
      "Ġsaw": 2292,
      "antic": 2293,
      "Ġknow": 2294,
      "Ġlaun": 2295,
      "ceed": 2296,
      "Ġproble": 2297,
      "ara": 2298,
      "Ġadded": 2299,
      "Ġarg": 2300,
      "Ġrespect": 2301,
      "ĠPe": 2302,
      "Ġplaying": 2303,
      "ĠPart": 2304,
      "ĠMac": 2305,
      "ators": 2306,
      "ficult": 2307,
      "off": 2308,
      "ned": 2309,
      "Ġguns": 2310,
      "Ġdifficult": 2311,
      "Ġcomment": 2312,
      "Ġhy": 2313,
      "Ġhuman": 2314,
      "Ġtradition": 2315,
      "ĠHist": 2316,
      "ements": 2317,
      "Ġdev": 2318,
      "Ġhon": 2319,
      "Ġinsp": 2320,
      "Ġfall": 2321,
      "ĠYou": 2322,
      "aps": 2323,
      "Ġevents": 2324,
      "Ġmater": 2325,
      "cil": 2326,
      "Ġalmost": 2327,
      "Ġ187": 2328,
      "Ġbehind": 2329,
      "lic": 2330,
      "conom": 2331,
      "Ġworks": 2332,
      "oid": 2333,
      "ĠVir": 2334,
      "wood": 2335,
      "ĠRuss": 2336,
      "Ġinform": 2337,
      "ells": 2338,
      "Ġren": 2339,
      "Ġrather": 2340,
      "Ġfourth": 2341,
      "Ġ2015": 2342,
      "Ġheavy": 2343,
      "Ġpeak": 2344,
      "Ġsepar": 2345,
      "Ġrelationship": 2346,
      "ĠMor": 2347,
      "Ġonce": 2348,
      "istic": 2349,
      "aching": 2350,
      "Ġallowed": 2351,
      "Ġcase": 2352,
      "Ġclos": 2353,
      "ĠPlay": 2354,
      "iddle": 2355,
      "Ġreb": 2356,
      "Ġprovided": 2357,
      "Ġfig": 2358,
      "Ġdou": 2359,
      "Ġprofess": 2360,
      "Ġoriginally": 2361,
      "Ġscored": 2362,
      "Ġappoin": 2363,
      "Ġfront": 2364,
      "Ġtre": 2365,
      "Ġindivid": 2366,
      "ĠBattle": 2367,
      "Ġengine": 2368,
      "uk": 2369,
      "Ġask": 2370,
      "Ġregion": 2371,
      "rison": 2372,
      "right": 2373,
      "ades": 2374,
      "Ġmer": 2375,
      "ĠMad": 2376,
      "Ġdamage": 2377,
      "ule": 2378,
      "ĠWil": 2379,
      "medi": 2380,
      "Ġlack": 2381,
      "ĠGro": 2382,
      "azine": 2383,
      "Ġaverage": 2384,
      "Ġpred": 2385,
      "ĠTo": 2386,
      "ĠPort": 2387,
      "orse": 2388,
      "angu": 2389,
      "unk": 2390,
      "Ġfif": 2391,
      "Ġking": 2392,
      "igned": 2393,
      "Ġpract": 2394,
      "Ġvill": 2395,
      "Ġ500": 2396,
      "nder": 2397,
      "ĠEm": 2398,
      "Ġvoc": 2399,
      "Ġruns": 2400,
      "Ġgenerally": 2401,
      "Ġsubsequ": 2402,
      "Ġleading": 2403,
      "Ġmass": 2404,
      "ama": 2405,
      "Ġlive": 2406,
      "Ġrace": 2407,
      "Ġupon": 2408,
      "Ġaction": 2409,
      "ĠWash": 2410,
      "Ġassoci": 2411,
      "Ġexample": 2412,
      "ĠHouse": 2413,
      "Ġclose": 2414,
      "ming": 2415,
      "ects": 2416,
      "Ġworked": 2417,
      "cher": 2418,
      "Ġinj": 2419,
      "Ġcreat": 2420,
      "Ġbrought": 2421,
      "Ġz": 2422,
      "urg": 2423,
      "Ġindust": 2424,
      "ĠEurope": 2425,
      "ength": 2426,
      "Ġvictory": 2427,
      "ills": 2428,
      "Ġaccept": 2429,
      "Ġmult": 2430,
      "Ġsequ": 2431,
      "Ġbrother": 2432,
      "ĠCompany": 2433,
      "Ġ2000": 2434,
      "ĠSch": 2435,
      "rag": 2436,
      "Ġcritics": 2437,
      "Ġarmy": 2438,
      "Ġweeks": 2439,
      "Ġneg": 2440,
      "Ġwanted": 2441,
      "aper": 2442,
      "Ġrecogn": 2443,
      "Ġ2003": 2444,
      "Ġeither": 2445,
      "Ġtravel": 2446,
      "ĠSan": 2447,
      "to": 2448,
      "Ġestim": 2449,
      "ĠAtl": 2450,
      "ius": 2451,
      "rup": 2452,
      "artment": 2453,
      "ĠKe": 2454,
      "Ġquick": 2455,
      "ĠDavid": 2456,
      "Ġsouthern": 2457,
      "Ġtroops": 2458,
      "com": 2459,
      "Ġce": 2460,
      "ollowing": 2461,
      "Ġquar": 2462,
      "ĠAg": 2463,
      "ĠFirst": 2464,
      "Ġworking": 2465,
      "ĠMichael": 2466,
      "oor": 2467,
      "ential": 2468,
      "chie": 2469,
      "Ġmaterial": 2470,
      "Ġfoc": 2471,
      "ourn": 2472,
      "Ġplaced": 2473,
      "ston": 2474,
      "ĠAngel": 2475,
      "Ġsour": 2476,
      "ateg": 2477,
      "Ġthreat": 2478,
      "ĠCanada": 2479,
      "Ġgoal": 2480,
      "Ġhurricane": 2481,
      "ĠWashington": 2482,
      "go": 2483,
      "Ġ35": 2484,
      "After": 2485,
      "uel": 2486,
      "ica": 2487,
      "Ġhom": 2488,
      "Ġemploy": 2489,
      "ĠGame": 2490,
      "Ġsex": 2491,
      "ened": 2492,
      "aves": 2493,
      "board": 2494,
      "uff": 2495,
      "ĠRh": 2496,
      "Ġfar": 2497,
      "Ġreve": 2498,
      "val": 2499,
      "ores": 2500,
      "Ġbird": 2501,
      "Ġfell": 2502,
      "Ġhours": 2503,
      "ago": 2504,
      "espite": 2505,
      "Ġnovel": 2506,
      "ĠHol": 2507,
      "ĠChristian": 2508,
      "Ġindic": 2509,
      "Ġfree": 2510,
      "Ġmother": 2511,
      "ification": 2512,
      "Ġfeatured": 2513,
      "Ġfund": 2514,
      "Ġvot": 2515,
      "Ġmi": 2516,
      "ĠHam": 2517,
      "ĠGreat": 2518,
      "Ġbelieved": 2519,
      "Ġtowards": 2520,
      "uck": 2521,
      "ĠIr": 2522,
      "Ġresul": 2523,
      "Ġreplaced": 2524,
      "arch": 2525,
      "Ġjoined": 2526,
      "cing": 2527,
      "ference": 2528,
      "fall": 2529,
      "ico": 2530,
      "Ġoffice": 2531,
      "osition": 2532,
      "Ġlength": 2533,
      "ĠPaul": 2534,
      "Ġdesp": 2535,
      "Ġfinished": 2536,
      "ĠLou": 2537,
      "Ġwife": 2538,
      "stit": 2539,
      "of": 2540,
      "ĠThom": 2541,
      "Ġinvest": 2542,
      "ĠOther": 2543,
      "iction": 2544,
      "ĠPresident": 2545,
      "Ġcou": 2546,
      "ĠCro": 2547,
      "Ġelements": 2548,
      "Ġcurrent": 2549,
      "Ġscene": 2550,
      "ishing": 2551,
      "alion": 2552,
      "Ġgrad": 2553,
      "Ġrail": 2554,
      "ĠRobert": 2555,
      "ĠMil": 2556,
      "earch": 2557,
      "Ġexc": 2558,
      "atural": 2559,
      "Ġinterest": 2560,
      "Ġwall": 2561,
      "Ġchurch": 2562,
      "rap": 2563,
      "aut": 2564,
      "rian": 2565,
      "rac": 2566,
      "ĠMusic": 2567,
      "Ġsoon": 2568,
      "ude": 2569,
      "Ġdesigned": 2570,
      "ĠVirgin": 2571,
      "isc": 2572,
      "Ġlangu": 2573,
      "ĠRed": 2574,
      "Ġregular": 2575,
      "Ġeconom": 2576,
      "Ġrelig": 2577,
      "Ġavail": 2578,
      "aren": 2579,
      "Ġnomin": 2580,
      "Ġ2001": 2581,
      "west": 2582,
      "Ġ185": 2583,
      "Ġstru": 2584,
      "for": 2585,
      "ĠMex": 2586,
      "Ġparticip": 2587,
      "Ġfootball": 2588,
      "enes": 2589,
      "ays": 2590,
      "ique": 2591,
      "ountain": 2592,
      "ems": 2593,
      "ply": 2594,
      "merc": 2595,
      "Ġinvolved": 2596,
      "Ġexist": 2597,
      "Ġbusiness": 2598,
      "Ġunits": 2599,
      "ĠIndia": 2600,
      "erous": 2601,
      "ĠColle": 2602,
      "Ġlargest": 2603,
      "ĠNor": 2604,
      "Ġeduc": 2605,
      "ino": 2606,
      "ĠChurch": 2607,
      "ĠKingdom": 2608,
      "asy": 2609,
      "Ġopening": 2610,
      "Ġinn": 2611,
      "Ġbi": 2612,
      "Ġcourt": 2613,
      "ĠÃ": 2614,
      "Ġshot": 2615,
      "Ġflight": 2616,
      "Ġearlier": 2617,
      "oul": 2618,
      "Ġproper": 2619,
      "Ġcentral": 2620,
      "ĠInternational": 2621,
      "BC": 2622,
      "ĠSing": 2623,
      "Ġly": 2624,
      "Ġhard": 2625,
      "ving": 2626,
      "Ġpossible": 2627,
      "Ġrul": 2628,
      "ears": 2629,
      "ĠÂ°": 2630,
      "ĠPal": 2631,
      "ĠHenry": 2632,
      "now": 2633,
      "ĠCap": 2634,
      "iter": 2635,
      "iforn": 2636,
      "ville": 2637,
      "Ġill": 2638,
      "iding": 2639,
      "Ġpriv": 2640,
      "Ġregard": 2641,
      "ĠBut": 2642,
      "den": 2643,
      "inist": 2644,
      "Ġinitially": 2645,
      "Ġobject": 2646,
      "uter": 2647,
      "itte": 2648,
      "Ġnar": 2649,
      "Ġbreak": 2650,
      "anding": 2651,
      "antry": 2652,
      "Ġ2002": 2653,
      "Ġpresident": 2654,
      "Ġsaying": 2655,
      "Ġmph": 2656,
      "Ġbill": 2657,
      "ecutive": 2658,
      "ĠMy": 2659,
      "sel": 2660,
      "Ġhous": 2661,
      "Ġmeas": 2662,
      "ĠCaliforn": 2663,
      "Ġended": 2664,
      "Ġphys": 2665,
      "aled": 2666,
      "ump": 2667,
      "ĠHall": 2668,
      "Ġparticularly": 2669,
      "igan": 2670,
      "ĠRichard": 2671,
      "ĠMo": 2672,
      "Ġdirector": 2673,
      "ari": 2674,
      "Ġdirected": 2675,
      "Ġcontrib": 2676,
      "Ġincreased": 2677,
      "ĠEuropean": 2678,
      "Ġtaking": 2679,
      "ĠMcC": 2680,
      "ids": 2681,
      "ĠPeter": 2682,
      "Ġsigned": 2683,
      "Ġdro": 2684,
      "Ġpassed": 2685,
      "oms": 2686,
      "ĠCalifornia": 2687,
      "Ġremov": 2688,
      "Ġpraised": 2689,
      "Ġmust": 2690,
      "Ġsurf": 2691,
      "ffic": 2692,
      "asion": 2693,
      "anned": 2694,
      "Ġliter": 2695,
      "ze": 2696,
      "Ġaccording": 2697,
      "Ġtraining": 2698,
      "Ġnorthern": 2699,
      "Ġmean": 2700,
      "Ġrespons": 2701,
      "icle": 2702,
      "Ġforced": 2703,
      "Ġstop": 2704,
      "Ġsuper": 2705,
      "Ġdisp": 2706,
      "onst": 2707,
      "ĠOld": 2708,
      "ĠThomas": 2709,
      "ĠBest": 2710,
      "Ġstates": 2711,
      "ĠLa": 2712,
      "be": 2713,
      "ĠSome": 2714,
      "ĠDep": 2715,
      "ipp": 2716,
      "ilities": 2717,
      "Ġ36": 2718,
      "Ġhighest": 2719,
      "ki": 2720,
      "Ġhighway": 2721,
      "erved": 2722,
      "ĠChampionship": 2723,
      "osing": 2724,
      "Ġenough": 2725,
      "ĠRou": 2726,
      "ĠStar": 2727,
      "ĠQue": 2728,
      "ha": 2729,
      "Ġpiec": 2730,
      "Ġwinds": 2731,
      "Ġordered": 2732,
      "Ġfemale": 2733,
      "Ġfeel": 2734,
      "ography": 2735,
      "Ġquest": 2736,
      "Ġpositive": 2737,
      "Ġminutes": 2738,
      "ĠGr": 2739,
      "ended": 2740,
      "Ġey": 2741,
      "iff": 2742,
      "Ġmove": 2743,
      "eum": 2744,
      "ully": 2745,
      "Ġconduct": 2746,
      "Ġparty": 2747,
      "Ġcivil": 2748,
      "ĠDu": 2749,
      "Ġrequired": 2750,
      "elled": 2751,
      "Ġevidence": 2752,
      "Ġappearance": 2753,
      "ergy": 2754,
      "ĠMart": 2755,
      "aker": 2756,
      "rain": 2757,
      "Ġ60": 2758,
      "Ġachie": 2759,
      "atin": 2760,
      "ĠAle": 2761,
      "ĠGovern": 2762,
      "Ġgroups": 2763,
      "ĠTwo": 2764,
      "Ġpercent": 2765,
      "Ġterrit": 2766,
      "ĠRepublic": 2767,
      "Ġtreat": 2768,
      "ania": 2769,
      "Ġnine": 2770,
      "Ġstars": 2771,
      "ĠCast": 2772,
      "emor": 2773,
      "Ġturned": 2774,
      "bor": 2775,
      "ĠMet": 2776,
      "ĠBer": 2777,
      "Ġ45": 2778,
      "ĠTom": 2779,
      "Ġabove": 2780,
      "ites": 2781,
      "Ġtold": 2782,
      "leg": 2783,
      "Ġgoing": 2784,
      "Ġdefeated": 2785,
      "Ġcru": 2786,
      "rey": 2787,
      "Ġavailable": 2788,
      "ulf": 2789,
      "Ġdespite": 2790,
      "Ġpast": 2791,
      "ĠBrown": 2792,
      "Ġpreviously": 2793,
      "Ġ-": 2794,
      "ecess": 2795,
      "Ġpot": 2796,
      "Ġkeep": 2797,
      "ĠMiss": 2798,
      "uture": 2799,
      "Ġoutside": 2800,
      "Ġinterview": 2801,
      "Ġwhom": 2802,
      "Ġimmedi": 2803,
      "ĠDon": 2804,
      "Ġsocial": 2805,
      "Ġpers": 2806,
      "Ġche": 2807,
      "Ġcenter": 2808,
      "icles": 2809,
      "rying": 2810,
      "liam": 2811,
      "ĠGold": 2812,
      "Ġprob": 2813,
      "gen": 2814,
      "Ġclear": 2815,
      "Ġeastern": 2816,
      "Ġcommerc": 2817,
      "Ġissue": 2818,
      "lying": 2819,
      "Ġbetter": 2820,
      "mar": 2821,
      "Ġchange": 2822,
      "Ġcome": 2823,
      "ĠOly": 2824,
      "back": 2825,
      "lin": 2826,
      "Ġ1990": 2827,
      "As": 2828,
      "key": 2829,
      "Ġindepend": 2830,
      "ĠBritain": 2831,
      "Ġesp": 2832,
      "ĠMark": 2833,
      "etwork": 2834,
      "Ġlove": 2835,
      "Ġpressure": 2836,
      "Ġfailed": 2837,
      "Ġlower": 2838,
      "Ġstudy": 2839,
      "ĠMag": 2840,
      "Ġbeg": 2841,
      "Ġtransfer": 2842,
      "Ġrap": 2843,
      "Ġslow": 2844,
      "ĠOlymp": 2845,
      "zer": 2846,
      "arily": 2847,
      "ĠCup": 2848,
      "hib": 2849,
      "Ġself": 2850,
      "oke": 2851,
      "reng": 2852,
      "ĠÂ£": 2853,
      "ittee": 2854,
      "ability": 2855,
      "Ġitself": 2856,
      "ĠWhite": 2857,
      "ĠMur": 2858,
      "ga": 2859,
      "ĠAc": 2860,
      "ĠVirginia": 2861,
      "liament": 2862,
      "Ġpur": 2863,
      "ĠNavy": 2864,
      "Ġthink": 2865,
      "Ġbridge": 2866,
      "Ġfort": 2867,
      "Ġscore": 2868,
      "hester": 2869,
      "ĠAssoci": 2870,
      "heast": 2871,
      "ĠTex": 2872,
      "Ġpay": 2873,
      "quare": 2874,
      "ibility": 2875,
      "rigade": 2876,
      "ĠSl": 2877,
      "usion": 2878,
      "Ġder": 2879,
      "Ġgold": 2880,
      "Ġdestroyed": 2881,
      "ship": 2882,
      "Ġphot": 2883,
      "Ġ?": 2884,
      "Ġmarket": 2885,
      "uation": 2886,
      "edy": 2887,
      "anks": 2888,
      "Ġremaining": 2889,
      "inn": 2890,
      "ĠRock": 2891,
      "Ġcal": 2892,
      "Ġbeginning": 2893,
      "berg": 2894,
      "ma": 2895,
      "Ġsometimes": 2896,
      "ĠUnion": 2897,
      "ĠVal": 2898,
      "Ġap": 2899,
      "Ġspent": 2900,
      "Ġproduct": 2901,
      "Ġmight": 2902,
      "ĠDay": 2903,
      "nel": 2904,
      "apt": 2905,
      "Ġveh": 2906,
      "Ġstudio": 2907,
      "ĠCour": 2908,
      "Ġop": 2909,
      "ĠTimes": 2910,
      "Ġabs": 2911,
      "ander": 2912,
      "Ġclaimed": 2913,
      "rack": 2914,
      "ĠSong": 2915,
      "ume": 2916,
      "Ġacqu": 2917,
      "aughter": 2918,
      "Ġpain": 2919,
      "Ġadditional": 2920,
      "Ġwhose": 2921,
      "Ġstudents": 2922,
      "Ġquarter": 2923,
      "Ġrecording": 2924,
      "ership": 2925,
      "Ġreviews": 2926,
      "Ġarrived": 2927,
      "ka": 2928,
      "Ġfrequ": 2929,
      "ĠChic": 2930,
      "Ġwinning": 2931,
      "Ġhop": 2932,
      "Ġusually": 2933,
      "Ġintroduced": 2934,
      "hile": 2935,
      "Ġtow": 2936,
      "Ġdon": 2937,
      "Ġassist": 2938,
      "Ġidea": 2939,
      "Ġmagazine": 2940,
      "Ġstreng": 2941,
      "ession": 2942,
      "Ġparts": 2943,
      "Ġdiscuss": 2944,
      "AF": 2945,
      "Ġtest": 2946,
      "ena": 2947,
      "itor": 2948,
      "Ġpoor": 2949,
      "Ġawarded": 2950,
      "Ġprison": 2951,
      "atory": 2952,
      "ĠDespite": 2953,
      "ĠMary": 2954,
      "Ġapprox": 2955,
      "ĠCharles": 2956,
      "Ġcycl": 2957,
      "Ġcred": 2958,
      "ĠSam": 2959,
      "airs": 2960,
      "ĠCollege": 2961,
      "mb": 2962,
      "ida": 2963,
      "Ġ1980": 2964,
      "ios": 2965,
      "anish": 2966,
      "asons": 2967,
      "Ġmusical": 2968,
      "ĠCong": 2969,
      "Ġprem": 2970,
      "ranch": 2971,
      "unt": 2972,
      "rief": 2973,
      "Ġspeed": 2974,
      "Ġgive": 2975,
      "usp": 2976,
      "Ġpolice": 2977,
      "Ġlines": 2978,
      "aring": 2979,
      "ift": 2980,
      "Ġsil": 2981,
      "Ġwestern": 2982,
      "ĠRes": 2983,
      "St": 2984,
      "Ġdeal": 2985,
      "Ġestimated": 2986,
      "ecially": 2987,
      "idents": 2988,
      "Ġyards": 2989,
      "Ġcommunity": 2990,
      "Ġquickly": 2991,
      "leb": 2992,
      "ĠDr": 2993,
      "ĠGod": 2994,
      "ĠBen": 2995,
      "Ġ75": 2996,
      "Ġshows": 2997,
      "Ġexcept": 2998,
      "ĠCarol": 2999,
      "ĠBay": 3000,
      "Ġcomplet": 3001,
      "Ġviol": 3002,
      "asc": 3003,
      "Ġwriter": 3004,
      "Ġ80": 3005,
      "Ġsection": 3006,
      "aries": 3007,
      "irl": 3008,
      "inct": 3009,
      "ĠGrand": 3010,
      "Ġsuggested": 3011,
      "ĠSen": 3012,
      "Ġdeg": 3013,
      "Ġdebut": 3014,
      "ĠBow": 3015,
      "Ġoccup": 3016,
      "ulated": 3017,
      "Ġcontract": 3018,
      "ready": 3019,
      "me": 3020,
      "Ġsubject": 3021,
      "Ġwood": 3022,
      "Ġinternational": 3023,
      "ĠGreen": 3024,
      "ĠStud": 3025,
      "Ġprevent": 3026,
      "porary": 3027,
      "Ġlab": 3028,
      "Ġespecially": 3029,
      "era": 3030,
      "ĠIm": 3031,
      "Ġtransport": 3032,
      "irth": 3033,
      "ĠThat": 3034,
      "Ġcommission": 3035,
      "ĠBC": 3036,
      "etic": 3037,
      "Ġemb": 3038,
      "Ġfuture": 3039,
      "Ġden": 3040,
      "ĠRoute": 3041,
      "Ġoperations": 3042,
      "ĠForce": 3043,
      "ĠChicago": 3044,
      "ĠNY": 3045,
      "Ġasked": 3046,
      "ani": 3047,
      "Ġlatter": 3048,
      "ĠPac": 3049,
      "rab": 3050,
      "ĠUK": 3051,
      "Ġblock": 3052,
      "Ġcertain": 3053,
      "onse": 3054,
      "ĠSoc": 3055,
      "ows": 3056,
      "Ġcarried": 3057,
      "Ġanti": 3058,
      "Ġsyn": 3059,
      "Ġprior": 3060,
      "Ġrain": 3061,
      "Ġlarger": 3062,
      "Ġintended": 3063,
      "ĠMal": 3064,
      "Ġstaff": 3065,
      "ĠVict": 3066,
      "Ġradio": 3067,
      "omer": 3068,
      "Ġtrib": 3069,
      "Ġfood": 3070,
      "ĠScott": 3071,
      "Ġconstruct": 3072,
      "Ġconsider": 3073,
      "Ġdeterm": 3074,
      "Ġsize": 3075,
      "ĠWestern": 3076,
      "Ġflood": 3077,
      "ĠAtlantic": 3078,
      "ĠAwards": 3079,
      "ĠBel": 3080,
      "ĠFrom": 3081,
      "Ġremain": 3082,
      "ĠViet": 3083,
      "Ġcomplex": 3084,
      "Ġbur": 3085,
      "Ġleague": 3086,
      "Ġ300": 3087,
      "Ġpil": 3088,
      "ĠAward": 3089,
      "ĠBatt": 3090,
      "Ġdoc": 3091,
      "Ġ70": 3092,
      "ĠPenn": 3093,
      "Ġ32": 3094,
      "ĠSmith": 3095,
      "Ġscreen": 3096,
      "ĠFrank": 3097,
      "Ã¶": 3098,
      "Ġalready": 3099,
      "Ġriver": 3100,
      "down": 3101,
      "Ġdraw": 3102,
      "ÃŃ": 3103,
      "ournal": 3104,
      "Ġshoot": 3105,
      "Ġminor": 3106,
      "Ġlyric": 3107,
      "Ġpark": 3108,
      "Ġkey": 3109,
      "Ġdecision": 3110,
      "eal": 3111,
      "Ġepisodes": 3112,
      "raw": 3113,
      "ands": 3114,
      "Ġlimited": 3115,
      "ĠBig": 3116,
      "itt": 3117,
      "rd": 3118,
      "ĠCoun": 3119,
      "imb": 3120,
      "abit": 3121,
      "Ġbreed": 3122,
      "ĠSecond": 3123,
      "uz": 3124,
      "Ġincreasing": 3125,
      "Ġcommercial": 3126,
      "ĠOl": 3127,
      "Ġcomplete": 3128,
      "Ġmedia": 3129,
      "acing": 3130,
      "Ġ1999": 3131,
      "Ġaccess": 3132,
      "Ġlanguage": 3133,
      "Ġbow": 3134,
      "het": 3135,
      "Ġbrief": 3136,
      "ĠTra": 3137,
      "ĠEv": 3138,
      "Ġappointed": 3139,
      "Ġpen": 3140,
      "Ġ1970": 3141,
      "Ġsurround": 3142,
      "Ġbecoming": 3143,
      "Ġ33": 3144,
      "Ġproposed": 3145,
      "na": 3146,
      "Ġelectric": 3147,
      "ĠSquadron": 3148,
      "Ġremains": 3149,
      "ĠMichigan": 3150,
      "ĠFle": 3151,
      "atives": 3152,
      "Ġleaving": 3153,
      "ĠHill": 3154,
      "ĠItal": 3155,
      "Ġsoldiers": 3156,
      "ospital": 3157,
      "ĠBra": 3158,
      "Ġfilms": 3159,
      "Ġbuildings": 3160,
      "Ġenv": 3161,
      "ĠTown": 3162,
      "Ġresponse": 3163,
      "II": 3164,
      "ĠBur": 3165,
      "Ġranked": 3166,
      "ĠMer": 3167,
      "Ġdate": 3168,
      "Ġwide": 3169,
      "ĠHot": 3170,
      "Ġnearly": 3171,
      "imate": 3172,
      "ĠFlor": 3173,
      "Ġdi": 3174,
      "Ġdamaged": 3175,
      "mon": 3176,
      "Ġsales": 3177,
      "ĠLater": 3178,
      "Ġanc": 3179,
      "Ġfail": 3180,
      "Ġspace": 3181,
      "Ġofficers": 3182,
      "Ġelection": 3183,
      "Ġestablish": 3184,
      "Ġtype": 3185,
      "ij": 3186,
      "anced": 3187,
      "ĠPat": 3188,
      "Ġdark": 3189,
      "ili": 3190,
      "ĠFort": 3191,
      "Ġconcern": 3192,
      "Ġemer": 3193,
      "ĠPacific": 3194,
      "Ġtouch": 3195,
      "ĠScot": 3196,
      "ĠCanadian": 3197,
      "Ġhigher": 3198,
      "Ġdistrib": 3199,
      "incip": 3200,
      "Ġentered": 3201,
      "Ġsupported": 3202,
      "tained": 3203,
      "Ġwat": 3204,
      "teen": 3205,
      "Ġ184": 3206,
      "Ġpersonal": 3207,
      "bers": 3208,
      "ĠAfrica": 3209,
      "ĠAssociation": 3210,
      "can": 3211,
      "Ġarran": 3212,
      "Ġprovide": 3213,
      "Ġbroadcast": 3214,
      "Ġsat": 3215,
      "Ġconclud": 3216,
      "Ġ1960": 3217,
      "de": 3218,
      "uing": 3219,
      "inent": 3220,
      "ĠMont": 3221,
      "Ġthemsel": 3222,
      "Ġeffects": 3223,
      "Ġthemselves": 3224,
      "uit": 3225,
      "imum": 3226,
      "Ġagreed": 3227,
      "Ġintens": 3228,
      "ny": 3229,
      "isl": 3230,
      "Ġpurch": 3231,
      "Ġnatural": 3232,
      "agon": 3233,
      "Ġbr": 3234,
      "Ġstructure": 3235,
      "Ġdisplay": 3236,
      "Ġmoney": 3237,
      "Ġbig": 3238,
      "ils": 3239,
      "ste": 3240,
      "Ġliving": 3241,
      "ĠOper": 3242,
      "Ġyard": 3243,
      "atively": 3244,
      "ĠLove": 3245,
      "Ġrelated": 3246,
      "lor": 3247,
      "Ġstay": 3248,
      "ĠOver": 3249,
      "Ġdiss": 3250,
      "Ġsurface": 3251,
      "nes": 3252,
      "ĠLos": 3253,
      "ĠJust": 3254,
      "rial": 3255,
      "alled": 3256,
      "Ġexperience": 3257,
      "iser": 3258,
      "lands": 3259,
      "change": 3260,
      "ĠEarly": 3261,
      "Ġdead": 3262,
      "Ġchanges": 3263,
      "ires": 3264,
      "oo": 3265,
      "Ġsummer": 3266,
      "ror": 3267,
      "eck": 3268,
      "Ġens": 3269,
      "Ġlikely": 3270,
      "Ġmultip": 3271,
      "Ġrunning": 3272,
      "ĠHistory": 3273,
      "Ġwoman": 3274,
      "Ġlay": 3275,
      "Ġweap": 3276,
      "Ġmostly": 3277,
      "Ġfunction": 3278,
      "ĠAlex": 3279,
      "Ġtor": 3280,
      "ĠRob": 3281,
      "ĠFilm": 3282,
      "Ġsusp": 3283,
      "Ġteams": 3284,
      "Ġapproximately": 3285,
      "Ġconcept": 3286,
      "ending": 3287,
      "olf": 3288,
      "Ġoverall": 3289,
      "Ġinfluence": 3290,
      "Th": 3291,
      "iles": 3292,
      "Ġfeature": 3293,
      "Ġmarried": 3294,
      "ĠTexas": 3295,
      "ĠCourt": 3296,
      "Ġequip": 3297,
      "NA": 3298,
      "umn": 3299,
      "Ġdeep": 3300,
      "Ġboard": 3301,
      "Ġprofessional": 3302,
      "reak": 3303,
      "Ġresearch": 3304,
      "enth": 3305,
      "oes": 3306,
      "Ġflow": 3307,
      "Ġhelped": 3308,
      "Ġtemper": 3309,
      "ĠUp": 3310,
      "ounds": 3311,
      "ging": 3312,
      "ĠSal": 3313,
      "Ġdone": 3314,
      "Ġwithd": 3315,
      "ription": 3316,
      "ĠLouis": 3317,
      "Ġinvestig": 3318,
      "Ġtar": 3319,
      "ĠMost": 3320,
      "oys": 3321,
      "ĠSea": 3322,
      "enty": 3323,
      "Ġ183": 3324,
      "Ġterms": 3325,
      "Ġran": 3326,
      "Ġcapital": 3327,
      "Ġlonger": 3328,
      "Ġour": 3329,
      "olic": 3330,
      "Ġtrade": 3331,
      "Ġfocus": 3332,
      "Ġheav": 3333,
      "Ġcaptured": 3334,
      "Ġchanged": 3335,
      "Ġmixed": 3336,
      "Ġbring": 3337,
      "ĠJim": 3338,
      "Ġcreate": 3339,
      "Ġproblems": 3340,
      "ĠVictor": 3341,
      "ya": 3342,
      "Ġthus": 3343,
      "ider": 3344,
      "Ġforward": 3345,
      "thing": 3346,
      "Ġattacks": 3347,
      "Ġprivate": 3348,
      "During": 3349,
      "ĠIf": 3350,
      "Ġimm": 3351,
      "Ġstatus": 3352,
      "ĠDist": 3353,
      "ĠSun": 3354,
      "ĠArt": 3355,
      "ĠParty": 3356,
      "ĠMill": 3357,
      "Ġult": 3358,
      "rast": 3359,
      "ĠLake": 3360,
      "Ã³": 3361,
      "Ġlo": 3362,
      "ĠCamp": 3363,
      "Ġfavor": 3364,
      "win": 3365,
      "Ġdram": 3366,
      "Ġalways": 3367,
      "Ġsea": 3368,
      "Ġpit": 3369,
      "ĠBack": 3370,
      "Ġlearn": 3371,
      "ĠGre": 3372,
      "Ġ38": 3373,
      "Ġ1998": 3374,
      "ĠDan": 3375,
      "Ġenter": 3376,
      "ih": 3377,
      "Ġsal": 3378,
      "ĠSov": 3379,
      "ĠFollowing": 3380,
      "Ġroom": 3381,
      "Ġcopies": 3382,
      "vert": 3383,
      "Ġcoin": 3384,
      "ĠJew": 3385,
      "eway": 3386,
      "ĠCouncil": 3387,
      "rat": 3388,
      "Ġ1997": 3389,
      "arent": 3390,
      "ĠRad": 3391,
      "Ġ37": 3392,
      "iation": 3393,
      "Ġenergy": 3394,
      "Ġjud": 3395,
      "gypt": 3396,
      "erve": 3397,
      "stant": 3398,
      "Ġvoice": 3399,
      "Ġcompan": 3400,
      "ĠInf": 3401,
      "ĠSpanish": 3402,
      "Ġcat": 3403,
      "Ġmale": 3404,
      "ĠPet": 3405,
      "Ġcompared": 3406,
      "Ġflag": 3407,
      "Ġunc": 3408,
      "Ġincludes": 3409,
      "Ġdiscovered": 3410,
      "Ġnuc": 3411,
      "Ġvisit": 3412,
      "uals": 3413,
      "Ġshown": 3414,
      "Ġprobably": 3415,
      "hold": 3416,
      "light": 3417,
      "ĠServ": 3418,
      "Ġraised": 3419,
      "ĠGermany": 3420,
      "Ġmur": 3421,
      "Ġkil": 3422,
      "Ġcourse": 3423,
      "reland": 3424,
      "ĠApp": 3425,
      "Ġtons": 3426,
      "Ġlyrics": 3427,
      "Ġlived": 3428,
      "uth": 3429,
      "Ġoccurred": 3430,
      "Ġmanager": 3431,
      "Ġnames": 3432,
      "ĠRail": 3433,
      "Ġissued": 3434,
      "ĠOut": 3435,
      "Ġfifth": 3436,
      "ĠMexico": 3437,
      "Ġmeeting": 3438,
      "Ġplanned": 3439,
      "Ġscenes": 3440,
      "Ġguitar": 3441,
      "Ġfleet": 3442,
      "Ġdaughter": 3443,
      "Ġsuffered": 3444,
      "iring": 3445,
      "Al": 3446,
      "Ġdivision": 3447,
      "ples": 3448,
      "Ġunderst": 3449,
      "Ġadminist": 3450,
      "Ġsen": 3451,
      "ĠMr": 3452,
      "itude": 3453,
      "Ġvia": 3454,
      "Ġextended": 3455,
      "ously": 3456,
      "ĠClub": 3457,
      "Ġinformation": 3458,
      "Ġface": 3459,
      "imin": 3460,
      "Ġleave": 3461,
      "ĠIreland": 3462,
      "ĠCorps": 3463,
      "ĠSoviet": 3464,
      "iest": 3465,
      "cean": 3466,
      "Ġwhether": 3467,
      "Ġnumbers": 3468,
      "ĠKh": 3469,
      "ĠEgypt": 3470,
      "Ġadop": 3471,
      "Ġappears": 3472,
      "ĠBillboard": 3473,
      "sy": 3474,
      "ĠEr": 3475,
      "Ġexperi": 3476,
      "ĠTer": 3477,
      "ĠCross": 3478,
      "tered": 3479,
      "rie": 3480,
      "Ġreact": 3481,
      "uries": 3482,
      "ĠIII": 3483,
      "Ġlaunched": 3484,
      "Ġceleb": 3485,
      "Ġpow": 3486,
      "ederal": 3487,
      "ĠAfrican": 3488,
      "Ġmakes": 3489,
      "undred": 3490,
      "Ġoil": 3491,
      "ĠCenter": 3492,
      "Ġlargely": 3493,
      "aches": 3494,
      "ĠBr": 3495,
      "ĠHow": 3496,
      "Ġsett": 3497,
      "iqu": 3498,
      "Åį": 3499,
      "Ġcolon": 3500,
      "Ġinitial": 3501,
      "cis": 3502,
      "iant": 3503,
      "Ġnorm": 3504,
      "Ġnetwork": 3505,
      "ĠIts": 3506,
      "ĠHel": 3507,
      "Ġjob": 3508,
      "Ġproducer": 3509,
      "Ġcountries": 3510,
      "tt": 3511,
      "Ġsch": 3512,
      "Ġattend": 3513,
      "orning": 3514,
      "Ġchall": 3515,
      "ections": 3516,
      "Ġupper": 3517,
      "uf": 3518,
      "Ġbad": 3519,
      "Ġlocation": 3520,
      "Ġimmediately": 3521,
      "ĠVietn": 3522,
      "ãĥ": 3523,
      "ona": 3524,
      "Ġgra": 3525,
      "Ġmodel": 3526,
      "Ġsmaller": 3527,
      "ties": 3528,
      "Ġrights": 3529,
      "vin": 3530,
      "Ġcm": 3531,
      "oint": 3532,
      "onna": 3533,
      "uments": 3534,
      "Ġexam": 3535,
      "ounted": 3536,
      "Ġprimary": 3537,
      "ĠTV": 3538,
      "Ġcentre": 3539,
      "Ġmajority": 3540,
      "Ġindividual": 3541,
      "Ġrespectively": 3542,
      "rate": 3543,
      "Ġconsist": 3544,
      "Ġincrease": 3545,
      "thur": 3546,
      "izing": 3547,
      "Ġmach": 3548,
      "ĠEnter": 3549,
      "Ġsem": 3550,
      "Ġcause": 3551,
      "anded": 3552,
      "ĠInter": 3553,
      "Ġinspired": 3554,
      "Ġuns": 3555,
      "Ġ+": 3556,
      "ĠTor": 3557,
      "ĠTour": 3558,
      "ĠFlorida": 3559,
      "Ġfans": 3560,
      "Ġintern": 3561,
      "Ġmission": 3562,
      "Ġgot": 3563,
      "Ġservices": 3564,
      "isions": 3565,
      "ĠGil": 3566,
      "ĠJackson": 3567,
      "cy": 3568,
      "Ġeducation": 3569,
      "Ġ90": 3570,
      "Ġsomething": 3571,
      "Ġelected": 3572,
      "Ġlisted": 3573,
      "Ġdomin": 3574,
      "ĠDel": 3575,
      "uated": 3576,
      "Ġreach": 3577,
      "Ġgrand": 3578,
      "Ġstra": 3579,
      "Ġmeth": 3580,
      "ension": 3581,
      "Ġtracks": 3582,
      "Ġplot": 3583,
      "Ġbattles": 3584,
      "Ġtax": 3585,
      "not": 3586,
      "Ġhour": 3587,
      "Ġreally": 3588,
      "urt": 3589,
      "ĠGames": 3590,
      "Ġ49": 3591,
      "ibr": 3592,
      "Ġvillage": 3593,
      "ĠPri": 3594,
      "Ġscient": 3595,
      "ĠHighway": 3596,
      "ĠMa": 3597,
      "Ġrate": 3598,
      "ĠItalian": 3599,
      "Ġportray": 3600,
      "Ġindustry": 3601,
      "Ġnotes": 3602,
      "Ġmovement": 3603,
      "aught": 3604,
      "ironment": 3605,
      "ĠCrit": 3606,
      "Ġ179": 3607,
      "Ġreferred": 3608,
      "ĠBattalion": 3609,
      "Ġscript": 3610,
      "Ġburn": 3611,
      "Ġ42": 3612,
      "Ġdepart": 3613,
      "Ġremoved": 3614,
      "Ã¼": 3615,
      "Ġsaf": 3616,
      "Ġcontains": 3617,
      "umed": 3618,
      "Ġ2016": 3619,
      "Ġconfir": 3620,
      "hood": 3621,
      "Ġselected": 3622,
      "Ġcollect": 3623,
      "Ġissues": 3624,
      "Ġwalk": 3625,
      "order": 3626,
      "Ġassigned": 3627,
      "Ġsubsequently": 3628,
      "Ġcommented": 3629,
      "ees": 3630,
      "Ġfinally": 3631,
      "Ġdefeat": 3632,
      "Ġsuggest": 3633,
      "ĠTur": 3634,
      "ĠWood": 3635,
      "Ġpolic": 3636,
      "At": 3637,
      "ado": 3638,
      "Ġclosed": 3639,
      "Ġ1940": 3640,
      "ĠCentral": 3641,
      "riage": 3642,
      "ify": 3643,
      "Ġquestion": 3644,
      "Ġlink": 3645,
      "ĠHaw": 3646,
      "andon": 3647,
      "Ġearned": 3648,
      "Ġattempted": 3649,
      "Ġmention": 3650,
      "Ġdig": 3651,
      "Ġang": 3652,
      "ĠJe": 3653,
      "Ġ1950": 3654,
      "ĠEarth": 3655,
      "Ġ180": 3656,
      "Ġneeded": 3657,
      "Ġbirds": 3658,
      "lo": 3659,
      "ĠBoth": 3660,
      "ria": 3661,
      "Ġvir": 3662,
      "lled": 3663,
      "Ġinstr": 3664,
      "Ġslight": 3665,
      "ĠFinal": 3666,
      "Ġ34": 3667,
      "inese": 3668,
      "Ġrare": 3669,
      "ares": 3670,
      "ĠSir": 3671,
      "aily": 3672,
      "Ġminute": 3673,
      "Ġstandard": 3674,
      "che": 3675,
      "Ġcand": 3676,
      "Ġbirth": 3677,
      "Ġsettle": 3678,
      "atre": 3679,
      "ĠSouthern": 3680,
      "Ġcontem": 3681,
      "Ġmoving": 3682,
      "Ġtheme": 3683,
      "Ġbelow": 3684,
      "ylv": 3685,
      "urity": 3686,
      "ota": 3687,
      "ĠNort": 3688,
      "ounts": 3689,
      "Ġwhole": 3690,
      "Ġaccount": 3691,
      "Ġgoals": 3692,
      "ĠRhodes": 3693,
      "Ġreligious": 3694,
      "ĠTrans": 3695,
      "ĠChinese": 3696,
      "Ġaccomp": 3697,
      "Ġconditions": 3698,
      "ault": 3699,
      "iled": 3700,
      "well": 3701,
      "ĠWal": 3702,
      "Ġincor": 3703,
      "Ġmom": 3704,
      "ĠRam": 3705,
      "Ġplans": 3706,
      "Ġactive": 3707,
      "Ġaw": 3708,
      "Ġyet": 3709,
      "Ġunivers": 3710,
      "Ġoperation": 3711,
      "Ġschools": 3712,
      "Ġdeclared": 3713,
      "Ġword": 3714,
      "ĠCare": 3715,
      "Ġgre": 3716,
      "Ġofficer": 3717,
      "Ġnature": 3718,
      "Ġhealth": 3719,
      "Ġplant": 3720,
      "Ġfinanc": 3721,
      "ros": 3722,
      "ighter": 3723,
      "icated": 3724,
      "Ġcritical": 3725,
      "Ġreason": 3726,
      "ĠJohnson": 3727,
      "ĠAdm": 3728,
      "Ġdouble": 3729,
      "Ġrat": 3730,
      "Ġmeant": 3731,
      "Ġexpected": 3732,
      "ods": 3733,
      "Ġ47": 3734,
      "Ġoffered": 3735,
      "Ġprincip": 3736,
      "ĠLand": 3737,
      "adium": 3738,
      "illa": 3739,
      "la": 3740,
      "ĠPo": 3741,
      "tainment": 3742,
      "Ġkind": 3743,
      "Ġending": 3744,
      "Ġamb": 3745,
      "Ġcombat": 3746,
      "Ġtalk": 3747,
      "itation": 3748,
      "oud": 3749,
      "ĠGo": 3750,
      "Ġanal": 3751,
      "ĠOff": 3752,
      "Ġunable": 3753,
      "Ġfriends": 3754,
      "ĠBook": 3755,
      "Ġunit": 3756,
      "Ġdisapp": 3757,
      "Ġ1995": 3758,
      "ĠSaint": 3759,
      "ĠLord": 3760,
      "ĠLaw": 3761,
      "Ġ1994": 3762,
      "ervation": 3763,
      "ĠEdward": 3764,
      "Ġfighting": 3765,
      "use": 3766,
      "Ġcompl": 3767,
      "Ġsched": 3768,
      "Ġmax": 3769,
      "ĠGroup": 3770,
      "isher": 3771,
      "Ġbene": 3772,
      "Ġconstit": 3773,
      "ken": 3774,
      "Ġgiving": 3775,
      "Ġnumerous": 3776,
      "Ġrecords": 3777,
      "Ġattacked": 3778,
      "Ġfarm": 3779,
      "ĠMany": 3780,
      "ĠDem": 3781,
      "Ġcle": 3782,
      "ĠRev": 3783,
      "Ġrevealed": 3784,
      "Ġstating": 3785,
      "antasy": 3786,
      "VD": 3787,
      "thlet": 3788,
      "Ġcomposed": 3789,
      "fect": 3790,
      "ĠForm": 3791,
      "osen": 3792,
      "ĠYear": 3793,
      "Ġmeans": 3794,
      "ĠSol": 3795,
      "Ġforest": 3796,
      "Ġtourn": 3797,
      "Ġtext": 3798,
      "Ġleader": 3799,
      "Ġcounter": 3800,
      "ortun": 3801,
      "Ġassociated": 3802,
      "ĠCarolina": 3803,
      "Ġhorse": 3804,
      "rier": 3805,
      "Ġabandon": 3806,
      "Ġmetres": 3807,
      "arents": 3808,
      "Ġ1996": 3809,
      "ĠCle": 3810,
      "ĠSuper": 3811,
      "ĠIrish": 3812,
      "ĠAcad": 3813,
      "enant": 3814,
      "Ġattention": 3815,
      "ĠMajor": 3816,
      "ĠManc": 3817,
      "ĠHard": 3818,
      "ĠDes": 3819,
      "Ġmeaning": 3820,
      "ĠGreek": 3821,
      "Ġqual": 3822,
      "icted": 3823,
      "Ġpoet": 3824,
      "Ġheart": 3825,
      "umber": 3826,
      "ĠAnt": 3827,
      "Ġprec": 3828,
      "Ġneigh": 3829,
      "ĠAngeles": 3830,
      "ĠRo": 3831,
      "ĠLight": 3832,
      "ĠKn": 3833,
      "Ġenj": 3834,
      "Ġnearby": 3835,
      "MS": 3836,
      "Ġbooks": 3837,
      "Ġpurp": 3838,
      "ibly": 3839,
      "Ġtakes": 3840,
      "Ġmetal": 3841,
      "ĠTre": 3842,
      "ective": 3843,
      "Ġmiddle": 3844,
      "Ġlog": 3845,
      "ĠMatt": 3846,
      "Ġrefused": 3847,
      "quar": 3848,
      "Ġrecover": 3849,
      "Ġnecess": 3850,
      "force": 3851,
      "ĠDepartment": 3852,
      "ulations": 3853,
      "ĠBell": 3854,
      "Ġchap": 3855,
      "Ġserious": 3856,
      "ĠPan": 3857,
      "ĠCongress": 3858,
      "ĠFoot": 3859,
      "Ġperformances": 3860,
      "Ġartist": 3861,
      "Ġtraditional": 3862,
      "anes": 3863,
      "Ġdu": 3864,
      "ĠLatin": 3865,
      "Ġaltern": 3866,
      "ĠGar": 3867,
      "Ġresulted": 3868,
      "Ġdocument": 3869,
      "sw": 3870,
      "Ġspir": 3871,
      "Ġhundred": 3872,
      "oura": 3873,
      "Ġthr": 3874,
      "ĠDVD": 3875,
      "ocr": 3876,
      "Ġletter": 3877,
      "ĠTem": 3878,
      "ĠEmp": 3879,
      "aped": 3880,
      "Ġ41": 3881,
      "ĠAnn": 3882,
      "Ġforms": 3883,
      "Ġcommander": 3884,
      "Ġri": 3885,
      "ĠHa": 3886,
      "astic": 3887,
      "itz": 3888,
      "Ġchief": 3889,
      "Ġ1992": 3890,
      "ĠManchester": 3891,
      "ĠCr": 3892,
      "estival": 3893,
      "udd": 3894,
      "ita": 3895,
      "Ġtried": 3896,
      "ĠScotland": 3897,
      "gl": 3898,
      "Ġ39": 3899,
      "ounded": 3900,
      "Ġpresented": 3901,
      "osh": 3902,
      "Ġ1930": 3903,
      "Ġpair": 3904,
      "Ġsecret": 3905,
      "like": 3906,
      "ĠMass": 3907,
      "Ġhighly": 3908,
      "ises": 3909,
      "ĠChina": 3910,
      "Ġhar": 3911,
      "ĠHurricane": 3912,
      "Ġprep": 3913,
      "Ġwant": 3914,
      "ingu": 3915,
      "Ġinches": 3916,
      "ails": 3917,
      "Ġsides": 3918,
      "Ġuses": 3919,
      "Ġlegisl": 3920,
      "Ġreduced": 3921,
      "lict": 3922,
      "ĠBrigade": 3923,
      "illed": 3924,
      "hips": 3925,
      "Ġcontinue": 3926,
      "ĠNot": 3927,
      "ĠCont": 3928,
      "Ġrein": 3929,
      "Ġseem": 3930,
      "bour": 3931,
      "Ġdut": 3932,
      "Ġreject": 3933,
      "ĠPre": 3934,
      "ĠFore": 3935,
      "Ġpractice": 3936,
      "isation": 3937,
      "Ġbank": 3938,
      "Ġ181": 3939,
      "Ġvariety": 3940,
      "ĠMartin": 3941,
      "Ġsister": 3942,
      "ĠCons": 3943,
      "ether": 3944,
      "Ġnewsp": 3945,
      "Ġobserved": 3946,
      "Ġinnings": 3947,
      "ĠEver": 3948,
      "yr": 3949,
      "Ġannual": 3950,
      "Ġcompetition": 3951,
      "AA": 3952,
      "ĠBrad": 3953,
      "utch": 3954,
      "Ġattempts": 3955,
      "Ġscience": 3956,
      "ĠDun": 3957,
      "Ġsevent": 3958,
      "Ġimpact": 3959,
      "Ġeffort": 3960,
      "Ġdirectly": 3961,
      "Ġseparate": 3962,
      "Ġ1991": 3963,
      "Ġbegins": 3964,
      "vement": 3965,
      "Ġpick": 3966,
      "ĠLong": 3967,
      "odies": 3968,
      "Ġrid": 3969,
      "irection": 3970,
      "orses": 3971,
      "ĠMinister": 3972,
      "Ġaccepted": 3973,
      "Ġrapid": 3974,
      "Ġconstructed": 3975,
      "road": 3976,
      "ĠUnder": 3977,
      "Ġproduce": 3978,
      "Ġcounty": 3979,
      "ogue": 3980,
      "Ġtwenty": 3981,
      "ĠSo": 3982,
      "Ġ44": 3983,
      "Ġ400": 3984,
      "Ġshowed": 3985,
      "ellow": 3986,
      "Ġextrem": 3987,
      "Ġhouses": 3988,
      "Ġattended": 3989,
      "ĠArm": 3990,
      "Ġaudience": 3991,
      "Ġox": 3992,
      "ening": 3993,
      "oses": 3994,
      "ĠChris": 3995,
      "Ġrecomm": 3996,
      "icip": 3997,
      "Ġasp": 3998,
      "icient": 3999,
      "ims": 4000,
      "ector": 4001,
      "Ġcandid": 4002,
      "Ġefforts": 4003,
      "shire": 4004,
      "Ġenjoy": 4005,
      "Ġarrest": 4006,
      "Ġpositions": 4007,
      "ĠDo": 4008,
      "Ġwing": 4009,
      "Ġinch": 4010,
      "Ġpath": 4011,
      "ellig": 4012,
      "Ġ48": 4013,
      "ĠTest": 4014,
      "Ġlevels": 4015,
      "Ġstories": 4016,
      "Ġ1993": 4017,
      "Ġcaptain": 4018,
      "Ġcovered": 4019,
      "ĠWales": 4020,
      "under": 4021,
      "Ġwriters": 4022,
      "Ġmarked": 4023,
      "echan": 4024,
      "ĠCath": 4025,
      "ĠJenn": 4026,
      "Ġmatches": 4027,
      "Ġtrial": 4028,
      "Ġbox": 4029,
      "Ġallowing": 4030,
      "ĠParliament": 4031,
      "Ġfigure": 4032,
      "awn": 4033,
      "oper": 4034,
      "Ġspecific": 4035,
      "Ġdrum": 4036,
      "Ġschol": 4037,
      "onic": 4038,
      "Ġavoid": 4039,
      "Ġhero": 4040,
      "Ġsquare": 4041,
      "Ġthick": 4042,
      "ĠChe": 4043,
      "olk": 4044,
      "Ġfounded": 4045,
      "Ġdepression": 4046,
      "ĠMount": 4047,
      "ĠAnother": 4048,
      "Ġsinger": 4049,
      "ux": 4050,
      "Ġi": 4051,
      "Ġstarting": 4052,
      "Ġpurs": 4053,
      "ĠDar": 4054,
      "ishop": 4055,
      "Ġ55": 4056,
      "Ġsource": 4057,
      "Ġvehicles": 4058,
      "Ġhot": 4059,
      "cle": 4060,
      "Ġthings": 4061,
      "ieut": 4062,
      "rical": 4063,
      "Ġge": 4064,
      "Ġplat": 4065,
      "ittle": 4066,
      "Ġrule": 4067,
      "Ġedition": 4068,
      "iro": 4069,
      "Ġir": 4070,
      "ada": 4071,
      "cend": 4072,
      "arts": 4073,
      "Ġ182": 4074,
      "Ġculture": 4075,
      "Ġwatch": 4076,
      "Ġrough": 4077,
      "Ġtransferred": 4078,
      "itect": 4079,
      "ĠDou": 4080,
      "Ġsymb": 4081,
      "Ġ1945": 4082,
      "mark": 4083,
      "ĠBre": 4084,
      "Ġpresence": 4085,
      "venue": 4086,
      "sen": 4087,
      "Ġcompanies": 4088,
      "eds": 4089,
      "Ġnation": 4090,
      "Ġcas": 4091,
      "Ġbeat": 4092,
      "istics": 4093,
      "ĠVan": 4094,
      "Ġtraffic": 4095,
      "adel": 4096,
      "Ġactually": 4097,
      "Ġwrite": 4098,
      "Ġenvironment": 4099,
      "alle": 4100,
      "Ġinside": 4101,
      "Ġtorped": 4102,
      "Ġcit": 4103,
      "Ġmorning": 4104,
      "utions": 4105,
      "Ġshare": 4106,
      "Ġchampionship": 4107,
      "Ġability": 4108,
      "Ġperm": 4109,
      "Ġtouchdown": 4110,
      "Ġconcluded": 4111,
      "Ġincorpor": 4112,
      "Ġamount": 4113,
      "Ġconducted": 4114,
      "Ġkilomet": 4115,
      "kin": 4116,
      "Äĩ": 4117,
      "Ġlif": 4118,
      "ĠHo": 4119,
      "teg": 4120,
      "Ġdistinct": 4121,
      "Ġdemonst": 4122,
      "Ġgreater": 4123,
      "Ġgas": 4124,
      "ĠWork": 4125,
      "Ġresidents": 4126,
      "Ġdirection": 4127,
      "illery": 4128,
      "ĠKar": 4129,
      "ĠVer": 4130,
      "ĠLeg": 4131,
      "ĠNorthern": 4132,
      "Ar": 4133,
      "pe": 4134,
      "perial": 4135,
      "Ġmaintain": 4136,
      "Ġkept": 4137,
      "Ġvocals": 4138,
      "Ġresponsible": 4139,
      "ĠService": 4140,
      "AS": 4141,
      "band": 4142,
      "Ġroy": 4143,
      "ceeded": 4144,
      "Ġmor": 4145,
      "lection": 4146,
      "Ġscoring": 4147,
      "Ġenemy": 4148,
      "Ġterritory": 4149,
      "Ġcyclone": 4150,
      "oration": 4151,
      "ĠBet": 4152,
      "Ġgirl": 4153,
      "Ġcontrast": 4154,
      "annel": 4155,
      "Ġdistance": 4156,
      "Ġparents": 4157,
      "ĠBost": 4158,
      "ĠFe": 4159,
      "Ġactions": 4160,
      "Ġresulting": 4161,
      "ĠCroat": 4162,
      "track": 4163,
      "Ġsn": 4164,
      "ĠSur": 4165,
      "ĠEmpire": 4166,
      "Äģ": 4167,
      "rol": 4168,
      "ype": 4169,
      "Ġlegal": 4170,
      "Ġwild": 4171,
      "ĠCamb": 4172,
      "ĠKore": 4173,
      "ĠRussian": 4174,
      "Ġvocal": 4175,
      "hy": 4176,
      "Ġlot": 4177,
      "ĠJose": 4178,
      "Ġjournal": 4179,
      "Ġmanaged": 4180,
      "ĠSeries": 4181,
      "Ġstrength": 4182,
      "Ġinters": 4183,
      "Ġcoach": 4184,
      "ĠCommittee": 4185,
      "ieutenant": 4186,
      "ĠPenns": 4187,
      "ping": 4188,
      "Ġrating": 4189,
      "Ġcollection": 4190,
      "anna": 4191,
      "Ġdoub": 4192,
      "Ġspl": 4193,
      "mas": 4194,
      "Ġinterp": 4195,
      "Ġrepe": 4196,
      "Ġadvance": 4197,
      "ĠSecret": 4198,
      "Ġonto": 4199,
      "ĠRegiment": 4200,
      "Ġdom": 4201,
      "Ġtower": 4202,
      "Ġded": 4203,
      "Ġdism": 4204,
      "Ġcalling": 4205,
      "Ġcerem": 4206,
      "ĠMiddle": 4207,
      "Ġsociety": 4208,
      "Ġpeaked": 4209,
      "Ġstrugg": 4210,
      "Ġfast": 4211,
      "Ġmess": 4212,
      "irm": 4213,
      "Ġtur": 4214,
      "ero": 4215,
      "Ġfr": 4216,
      "Ġcompos": 4217,
      "Ġ64": 4218,
      "Ġtransl": 4219,
      "Ġslightly": 4220,
      "ĠLuc": 4221,
      "Ġcho": 4222,
      "Ġbackground": 4223,
      "ĠPennsylv": 4224,
      "peror": 4225,
      "Ġscale": 4226,
      "ĠFrancis": 4227,
      "ĠQueen": 4228,
      "Ġmaximum": 4229,
      "uge": 4230,
      "Ġple": 4231,
      "ĠSum": 4232,
      "ĠZeal": 4233,
      "Ġ43": 4234,
      "Ġdefend": 4235,
      "Ġera": 4236,
      "Ġwidely": 4237,
      "rong": 4238,
      "Ġtheory": 4239,
      "Ġcust": 4240,
      "ĠWin": 4241,
      "Ġolder": 4242,
      "Ġbecomes": 4243,
      "Ġmultiple": 4244,
      "Ġwa": 4245,
      "acher": 4246,
      "ĠMic": 4247,
      "ĠMel": 4248,
      "ecause": 4249,
      "Ġ1944": 4250,
      "ĠClass": 4251,
      "Ġcollabor": 4252,
      "bur": 4253,
      "ady": 4254,
      "ĠBu": 4255,
      "ĠHal": 4256,
      "Ġsets": 4257,
      "iny": 4258,
      "Ġcell": 4259,
      "ĠThree": 4260,
      "ĠTeam": 4261,
      "Ġpotential": 4262,
      "Ġindependent": 4263,
      "ĠTheir": 4264,
      "Ġrelatively": 4265,
      "ĠBey": 4266,
      "Ġcontrovers": 4267,
      "Ġapproach": 4268,
      "ĠTime": 4269,
      "ĠPost": 4270,
      "ĠSever": 4271,
      "oe": 4272,
      "Ġowned": 4273,
      "Ġpiece": 4274,
      "bon": 4275,
      "Ġwords": 4276,
      "ĠTay": 4277,
      "Ġgraph": 4278,
      "Ġconver": 4279,
      "aging": 4280,
      "Ġris": 4281,
      "Ġsearch": 4282,
      "ansion": 4283,
      "lers": 4284,
      "Ġcorn": 4285,
      "Ġweaken": 4286,
      "ibrary": 4287,
      "ĠZealand": 4288,
      "ĠPit": 4289,
      "istry": 4290,
      "ĠKent": 4291,
      "ĠArch": 4292,
      "ĠAmericans": 4293,
      "Ġconflict": 4294,
      "Ġtitled": 4295,
      "burg": 4296,
      "ican": 4297,
      "ĠSociety": 4298,
      "ĠCreek": 4299,
      "ĠBond": 4300,
      "ĠFer": 4301,
      "Ġweight": 4302,
      "Ġacting": 4303,
      "Ġ1942": 4304,
      "Ġcompletely": 4305,
      "ien": 4306,
      "iated": 4307,
      "Ġchem": 4308,
      "ĠBoston": 4309,
      "gu": 4310,
      "ĠBoy": 4311,
      "Ġexpressed": 4312,
      "vention": 4313,
      "hew": 4314,
      "Ġrecent": 4315,
      "Ġ65": 4316,
      "ĠDef": 4317,
      "house": 4318,
      "ĠField": 4319,
      "Ġblood": 4320,
      "Ġemot": 4321,
      "Ġrespond": 4322,
      "Ġtournament": 4323,
      "Ġkick": 4324,
      "ĠDen": 4325,
      "ĠDam": 4326,
      "ĠWall": 4327,
      "Ġ1941": 4328,
      "Ġsituation": 4329,
      "Ġprimarily": 4330,
      "rowd": 4331,
      "Ġencoun": 4332,
      "een": 4333,
      "grad": 4334,
      "oured": 4335,
      "ĠHomer": 4336,
      "ĠRy": 4337,
      "Ġsuppl": 4338,
      "Ġextra": 4339,
      "ategory": 4340,
      "racted": 4341,
      "ĠOx": 4342,
      "ecting": 4343,
      "Ġhands": 4344,
      "ĠRecords": 4345,
      "ricket": 4346,
      "Ġroyal": 4347,
      "writ": 4348,
      "Ġresc": 4349,
      "Ġofficials": 4350,
      "emorial": 4351,
      "rael": 4352,
      "Ġtend": 4353,
      "BA": 4354,
      "ras": 4355,
      "Ġopt": 4356,
      "Ġmarriage": 4357,
      "stitute": 4358,
      "Ġdropped": 4359,
      "Ġultimately": 4360,
      "ĠJeff": 4361,
      "Ġopportun": 4362,
      "Ġess": 4363,
      "ĠBridge": 4364,
      "ĠChief": 4365,
      "Ġplays": 4366,
      "Ġcontinues": 4367,
      "Ġrepresented": 4368,
      "Ġactivity": 4369,
      "Ġhyd": 4370,
      "Ġsources": 4371,
      "bury": 4372,
      "za": 4373,
      "Ġsense": 4374,
      "ĠNin": 4375,
      "Ġexped": 4376,
      "Ġgreatest": 4377,
      "ĠMuseum": 4378,
      "ĠMurray": 4379,
      "Ġsought": 4380,
      "Ġthous": 4381,
      "Ġ52": 4382,
      "hens": 4383,
      "Ġpowerful": 4384,
      "Ġ51": 4385,
      "Ġsequence": 4386,
      "quarters": 4387,
      "Ġx": 4388,
      "Ġreaching": 4389,
      "amer": 4390,
      "Ġdesignated": 4391,
      "ĠColon": 4392,
      "wide": 4393,
      "iral": 4394,
      "ĠIll": 4395,
      "Ġbroke": 4396,
      "Ġviewers": 4397,
      "Ġbehav": 4398,
      "gar": 4399,
      "kn": 4400,
      "load": 4401,
      "rative": 4402,
      "Ġbatter": 4403,
      "Ġhospital": 4404,
      "Ġpeace": 4405,
      "Ġstruck": 4406,
      "Ġstations": 4407,
      "ĠFox": 4408,
      "Ġtrain": 4409,
      "ĠLu": 4410,
      "ĠStep": 4411,
      "Ġquality": 4412,
      "ĠNews": 4413,
      "ĠLittle": 4414,
      "Ġinfluenced": 4415,
      "Ġhomes": 4416,
      "Ġmechan": 4417,
      "ĠMat": 4418,
      "Ġsuc": 4419,
      "ruit": 4420,
      "Ġprogress": 4421,
      "Ġcombined": 4422,
      "avalry": 4423,
      "Ġcollege": 4424,
      "gian": 4425,
      "Ġpun": 4426,
      "ĠTech": 4427,
      "Ġmainly": 4428,
      "Ġstudies": 4429,
      "Ġforeign": 4430,
      "pool": 4431,
      "ols": 4432,
      "Ġweather": 4433,
      "Ġseconds": 4434,
      "ĠGuard": 4435,
      "Ġfinancial": 4436,
      "ĠAcademy": 4437,
      "Ġmem": 4438,
      "Ġpassing": 4439,
      "Ġfeaturing": 4440,
      "Ġheight": 4441,
      "ighth": 4442,
      "rug": 4443,
      "Ġweapons": 4444,
      "ĠPennsylvania": 4445,
      "while": 4446,
      "ented": 4447,
      "ledge": 4448,
      "Ġmatter": 4449,
      "Ġsubsequent": 4450,
      "ĠInfantry": 4451,
      "ĠSince": 4452,
      "Ġcastle": 4453,
      "ĠCivil": 4454,
      "aki": 4455,
      "ysis": 4456,
      "Ġhorses": 4457,
      "Ġvess": 4458,
      "Ġmovie": 4459,
      "Ġsixth": 4460,
      "Ġplanet": 4461,
      "Ġeconomic": 4462,
      "town": 4463,
      "ĠDi": 4464,
      "ĠIsrael": 4465,
      "ĠParis": 4466,
      "Ġproblem": 4467,
      "ication": 4468,
      "Ġconcent": 4469,
      "aire": 4470,
      "Ġbound": 4471,
      "Ġtoday": 4472,
      "aby": 4473,
      "Ġpremi": 4474,
      "bed": 4475,
      "Ġselling": 4476,
      "Ġproved": 4477,
      "ips": 4478,
      "Ġpilot": 4479,
      "ĠFootball": 4480,
      "Ġfuel": 4481,
      "ĠSom": 4482,
      "Ġnin": 4483,
      "ĠHon": 4484,
      "Ġ46": 4485,
      "Ġtrue": 4486,
      "Ġformation": 4487,
      "Ġexhib": 4488,
      "Ġspread": 4489,
      "Ġuniversity": 4490,
      "iano": 4491,
      "Ġcontent": 4492,
      "ĠColumb": 4493,
      "ĠCaptain": 4494,
      "onents": 4495,
      "Ġwit": 4496,
      "Ġdoll": 4497,
      "Ġgar": 4498,
      "ĠRom": 4499,
      "Ġspot": 4500,
      "ordin": 4501,
      "Ġcharge": 4502,
      "ĠSwed": 4503,
      "ĠTaylor": 4504,
      "An": 4505,
      "Ġsquadron": 4506,
      "ĠBus": 4507,
      "Ġactor": 4508,
      "embly": 4509,
      "ĠWilliams": 4510,
      "Ġfigures": 4511,
      "Ġpromoted": 4512,
      "uous": 4513,
      "zy": 4514,
      "Ġyour": 4515,
      "Ġoffer": 4516,
      "ĠGall": 4517,
      "ĠKenn": 4518,
      "Ġproperty": 4519,
      "cel": 4520,
      "ola": 4521,
      "ĠGal": 4522,
      "Ġofficially": 4523,
      "itting": 4524,
      "ĠMore": 4525,
      "ĠGard": 4526,
      "Ġcoming": 4527,
      "Ġwebs": 4528,
      "Ġwinter": 4529,
      "Ġorganization": 4530,
      "Ġsays": 4531,
      "Ġcore": 4532,
      "Ġhus": 4533,
      "etts": 4534,
      "ĠJul": 4535,
      "ĠDis": 4536,
      "Ġalone": 4537,
      "Ġreception": 4538,
      "Ġguest": 4539,
      "Ġpaid": 4540,
      "Ġpaper": 4541,
      "Ġhun": 4542,
      "Ġnews": 4543,
      "Ġrequire": 4544,
      "Ġcriticized": 4545,
      "ĠSil": 4546,
      "olved": 4547,
      "formula": 4548,
      "Ġgrowth": 4549,
      "Ġarchitect": 4550,
      "ety": 4551,
      "ourney": 4552,
      "Ġbrown": 4553,
      "Ġconcert": 4554,
      "ĠWeek": 4555,
      "stein": 4556,
      "Ġmountain": 4557,
      "ĠJer": 4558,
      "ports": 4559,
      "Ġ150": 4560,
      "ĠCommission": 4561,
      "Ġancient": 4562,
      "Ġmel": 4563,
      "ĠTri": 4564,
      "ĠRome": 4565,
      "emic": 4566,
      "istan": 4567,
      "Ġadj": 4568,
      "ĠSpec": 4569,
      "Ġalongside": 4570,
      "ĠLife": 4571,
      "ĠHead": 4572,
      "ĠAlbert": 4573,
      "Ġreports": 4574,
      "ev": 4575,
      "Ġboy": 4576,
      "ĠBob": 4577,
      "Ġexec": 4578,
      "Ġkg": 4579,
      "Ġearth": 4580,
      "Ġnortheast": 4581,
      "ĠÎ": 4582,
      "ĠCub": 4583,
      "Ġoperated": 4584,
      "Ġcontemporary": 4585,
      "Ġobserv": 4586,
      "Ġstone": 4587,
      "Ġseasons": 4588,
      "Ġimage": 4589,
      "Ġdoct": 4590,
      "Ġmedical": 4591,
      "aling": 4592,
      "ĠJud": 4593,
      "Ġnorthwest": 4594,
      "Ġresults": 4595,
      "Ġheavily": 4596,
      "Ġmanuf": 4597,
      "Ġsupp": 4598,
      "ĠDistrict": 4599,
      "Ġmanufact": 4600,
      "TV": 4601,
      "ãĤ": 4602,
      "Ġwick": 4603,
      "unction": 4604,
      "Ġrang": 4605,
      "Ġattract": 4606,
      "Ġsingles": 4607,
      "Ġanimals": 4608,
      "Ġtarget": 4609,
      "inus": 4610,
      "onc": 4611,
      "Ġlosing": 4612,
      "ĠPers": 4613,
      "ĠNorm": 4614,
      "Ġinstit": 4615,
      "Ġ1920": 4616,
      "Ġgenus": 4617,
      "sych": 4618,
      "Ġhabit": 4619,
      "Ġthir": 4620,
      "Ġexecutive": 4621,
      "ĠAdd": 4622,
      "ĠCommun": 4623,
      "Ġconfirmed": 4624,
      "known": 4625,
      "When": 4626,
      "eption": 4627,
      "Ġmis": 4628,
      "Ġmind": 4629,
      "ĠTw": 4630,
      "aming": 4631,
      "ĠPop": 4632,
      "Ġdivided": 4633,
      "rupt": 4634,
      "Ġcouple": 4635,
      "Ġtoward": 4636,
      "ams": 4637,
      "ĠWay": 4638,
      "Ġserve": 4639,
      "Ġcoal": 4640,
      "Ġtransform": 4641,
      "ĠGulf": 4642,
      "earing": 4643,
      "Ġnegot": 4644,
      "Ġnaval": 4645,
      "agn": 4646,
      "Ġemph": 4647,
      "Ġstudent": 4648,
      "Ġcases": 4649,
      "ĠBurn": 4650,
      "Ġalbums": 4651,
      "Ġliterature": 4652,
      "lines": 4653,
      "mond": 4654,
      "ĠCard": 4655,
      "Ġpoem": 4656,
      "Ġinteg": 4657,
      "Ġ85": 4658,
      "Ġportion": 4659,
      "Ġfederal": 4660,
      "Ġversions": 4661,
      "Ġinh": 4662,
      "ote": 4663,
      "Ġplants": 4664,
      "Ġartillery": 4665,
      "Ġsenior": 4666,
      "Ġrom": 4667,
      "Ġahead": 4668,
      "iance": 4669,
      "ograp": 4670,
      "ancy": 4671,
      "Ġnominated": 4672,
      "Ġstraight": 4673,
      "Ġflying": 4674,
      "ĠEastern": 4675,
      "Ġsend": 4676,
      "Ġdise": 4677,
      "ĠItaly": 4678,
      "ĠLo": 4679,
      "Ġsust": 4680,
      "Ġblue": 4681,
      "Ġmurder": 4682,
      "enger": 4683,
      "Ġstep": 4684,
      "Ġletters": 4685,
      "Ġargued": 4686,
      "acter": 4687,
      "ersey": 4688,
      "ĠConf": 4689,
      "Ġshortly": 4690,
      "ova": 4691,
      "Ġphysical": 4692,
      "Ã¸": 4693,
      "ora": 4694,
      "rown": 4695,
      "Ġreform": 4696,
      "ĠUN": 4697,
      "Ġdoing": 4698,
      "Ġsystems": 4699,
      "ĠBackground": 4700,
      "ĠCatholic": 4701,
      "ĠAp": 4702,
      "ĠFred": 4703,
      "ocked": 4704,
      "Ġphil": 4705,
      "vest": 4706,
      "Ġice": 4707,
      "ette": 4708,
      "Ġchosen": 4709,
      "Ġvalue": 4710,
      "ĠWilson": 4711,
      "cers": 4712,
      "Ġpack": 4713,
      "Ġgrew": 4714,
      "ĠJones": 4715,
      "ĠStone": 4716,
      "duction": 4717,
      "Ġ1986": 4718,
      "ĠSeveral": 4719,
      "ampion": 4720,
      "Ġ95": 4721,
      "Ġpric": 4722,
      "Ġgained": 4723,
      "Ġcompar": 4724,
      "Ġappearances": 4725,
      "ĠOxford": 4726,
      "rect": 4727,
      "Ġbit": 4728,
      "Ġsoundtrack": 4729,
      "Ġut": 4730,
      "omy": 4731,
      "Ġcontained": 4732,
      "izes": 4733,
      "Ġelement": 4734,
      "By": 4735,
      "chest": 4736,
      "Ġpan": 4737,
      "Ġaired": 4738,
      "Ġfully": 4739,
      "ĠMod": 4740,
      "irls": 4741,
      "Ġapparent": 4742,
      "Ġ600": 4743,
      "Ġoccasion": 4744,
      "Ġreference": 4745,
      "Ġactivities": 4746,
      "Ġwalls": 4747,
      "Ġcrowd": 4748,
      "iced": 4749,
      "ushed": 4750,
      "velopment": 4751,
      "Ġartists": 4752,
      "ĠEntertainment": 4753,
      "appen": 4754,
      "Ġsetting": 4755,
      "Ġadvant": 4756,
      "Ġexplained": 4757,
      "Ġcapture": 4758,
      "Ġescape": 4759,
      "Ġnuclear": 4760,
      "Ġseek": 4761,
      "Ġtypically": 4762,
      "Ġinjury": 4763,
      "Ġdegree": 4764,
      "uct": 4765,
      "itan": 4766,
      "Ġborder": 4767,
      "Ġseg": 4768,
      "ĠâĪ": 4769,
      "Ġaccident": 4770,
      "Ġmagn": 4771,
      "heless": 4772,
      "Ġregarded": 4773,
      "ĠArab": 4774,
      "Ġremark": 4775,
      "Ġcausing": 4776,
      "Ġincident": 4777,
      "Ġprepar": 4778,
      "Ã¤": 4779,
      "Ġsout": 4780,
      "acity": 4781,
      "Ġdefense": 4782,
      "Ġmaintained": 4783,
      "Ġlaunch": 4784,
      "Ġemphas": 4785,
      "aver": 4786,
      "resp": 4787,
      "Ġattrib": 4788,
      "ĠConference": 4789,
      "Ġfiction": 4790,
      "Ġhor": 4791,
      "ĠMain": 4792,
      "ĠHan": 4793,
      "ĠConn": 4794,
      "Ġprominent": 4795,
      "Ġidentified": 4796,
      "Ġeye": 4797,
      "Ġadopted": 4798,
      "Ġhusband": 4799,
      "TC": 4800,
      "ĠTod": 4801,
      "ura": 4802,
      "Ġequipment": 4803,
      "Ġfollows": 4804,
      "thes": 4805,
      "Ġspect": 4806,
      "Ġleaders": 4807,
      "Ġswe": 4808,
      "Ġharm": 4809,
      "Ġ54": 4810,
      "ĠExp": 4811,
      "tar": 4812,
      "Ġserving": 4813,
      "ĠChristmas": 4814,
      "urban": 4815,
      "lam": 4816,
      "ĠHome": 4817,
      "ĠDutch": 4818,
      "ĠWild": 4819,
      "ĠOh": 4820,
      "Ġsupply": 4821,
      "ĠGovernment": 4822,
      "Ġtells": 4823,
      "Ġcities": 4824,
      "ube": 4825,
      "Ġ53": 4826,
      "ronic": 4827,
      "azz": 4828,
      "Ġiron": 4829,
      "Ġherself": 4830,
      "Ġ62": 4831,
      "ĠAllied": 4832,
      "Ġindividuals": 4833,
      "ĠGovernor": 4834,
      "Ġarmed": 4835,
      "ĠCarl": 4836,
      "Ġagreement": 4837,
      "Ġtrees": 4838,
      "ĠTim": 4839,
      "add": 4840,
      "acement": 4841,
      "Ġ56": 4842,
      "Ġstrike": 4843,
      "Ġunknown": 4844,
      "Ġgrowing": 4845,
      "roph": 4846,
      "Ġdrug": 4847,
      "unte": 4848,
      "ĠLive": 4849,
      "osaur": 4850,
      "ĠOrig": 4851,
      "ĠOcean": 4852,
      "ricult": 4853,
      "ĠAlbum": 4854,
      "Ġinvasion": 4855,
      "Ġfrequently": 4856,
      "ners": 4857,
      "elve": 4858,
      "Ġlaid": 4859,
      "Ġload": 4860,
      "ivity": 4861,
      "ĠWater": 4862,
      "Ġreturning": 4863,
      "Ġorders": 4864,
      "Ġspirit": 4865,
      "haps": 4866,
      "ĠSa": 4867,
      "Ġaffected": 4868,
      "Ġachieved": 4869,
      "ĠVictoria": 4870,
      "ĠRailway": 4871,
      "eler": 4872,
      "Ġeas": 4873,
      "aded": 4874,
      "ĠFre": 4875,
      "essions": 4876,
      "Ġ1989": 4877,
      "ĠHistor": 4878,
      "Ġtrying": 4879,
      "Ġast": 4880,
      "Ġfan": 4881,
      "Ġbul": 4882,
      "Ġreign": 4883,
      "ĠBlue": 4884,
      "Ġvisited": 4885,
      "Ġtwice": 4886,
      "Ġnarrow": 4887,
      "Ġnative": 4888,
      "antly": 4889,
      "Ġbasis": 4890,
      "ilies": 4891,
      "imens": 4892,
      "Ġconvers": 4893,
      "Ġtrail": 4894,
      "Ġmuseum": 4895,
      "Ġhistorical": 4896,
      "Ġfired": 4897,
      "Ġpal": 4898,
      "ĠFam": 4899,
      "Ġconsisted": 4900,
      "Ġfloor": 4901,
      "Ġintellig": 4902,
      "Ġsurre": 4903,
      "Ġdistrict": 4904,
      "Ġpossibly": 4905,
      "ware": 4906,
      "ĠTop": 4907,
      "Ġlives": 4908,
      "ĠFar": 4909,
      "resh": 4910,
      "Ġnegative": 4911,
      "ĠFin": 4912,
      "Ġcomedy": 4913,
      "Ġ1943": 4914,
      "ĠSat": 4915,
      "ĠSant": 4916,
      "ĠPublic": 4917,
      "Ġring": 4918,
      "ĠUs": 4919,
      "Ġ66": 4920,
      "ocks": 4921,
      "aith": 4922,
      "ients": 4923,
      "enge": 4924,
      "Ġthrow": 4925,
      "Ġrival": 4926,
      "Ġsurrounding": 4927,
      "ĠAdmiral": 4928,
      "Ġschedul": 4929,
      "burgh": 4930,
      "inem": 4931,
      "Ġdata": 4932,
      "ĠFeder": 4933,
      "ĠLiber": 4934,
      "Ġ76": 4935,
      "Ġcolumn": 4936,
      "Ġexplos": 4937,
      "Ġmeasure": 4938,
      "ĠFantasy": 4939,
      "ĠLew": 4940,
      "ables": 4941,
      "Ġworkers": 4942,
      "Ġdebuted": 4943,
      "Ġauthorities": 4944,
      "Ġsilver": 4945,
      "Ġcert": 4946,
      "ĠTenn": 4947,
      "ĠAut": 4948,
      "Ġbey": 4949,
      "Ġroles": 4950,
      "onent": 4951,
      "orship": 4952,
      "Ġ177": 4953,
      "Ġtable": 4954,
      "Ġsens": 4955,
      "Ġ97": 4956,
      "Ġadvanced": 4957,
      "Ġdelay": 4958,
      "ĠHMS": 4959,
      "Ġgranted": 4960,
      "Ġmanagement": 4961,
      "Ġbeyond": 4962,
      "Ġbat": 4963,
      "Ġpet": 4964,
      "ĠEll": 4965,
      "Ġpasses": 4966,
      "Ġsimply": 4967,
      "Ġfaced": 4968,
      "ĠGood": 4969,
      "Ġparalle": 4970,
      "Ġcondition": 4971,
      "Ġplatform": 4972,
      "Ġdang": 4973,
      "ĠDet": 4974,
      "ĠFour": 4975,
      "ĠOs": 4976,
      "Ġweak": 4977,
      "fully": 4978,
      "ĠOperation": 4979,
      "cript": 4980,
      "uate": 4981,
      "Ġsle": 4982,
      "ĠMountain": 4983,
      "Ġleaves": 4984,
      "Ġshell": 4985,
      "Ġeditor": 4986,
      "Ġroads": 4987,
      "Ġabandoned": 4988,
      "lie": 4989,
      "Ġdog": 4990,
      "Ġdyn": 4991,
      "ĠSub": 4992,
      "ĠBecause": 4993,
      "Ġgreen": 4994,
      "utation": 4995,
      "Ġpieces": 4996,
      "ĠJoseph": 4997,
      "eed": 4998,
      "gress": 4999,
      "ĠMov": 5000,
      "Ġpros": 5001,
      "Ġsexual": 5002,
      "Ġlabel": 5003,
      "ĠFleet": 5004,
      "Ġcolor": 5005,
      "Ġdescribes": 5006,
      "Ġpropos": 5007,
      "Ġtorpedo": 5008,
      "ĠOpen": 5009,
      "There": 5010,
      "ager": 5011,
      "ĠJoe": 5012,
      "Ġgovernor": 5013,
      "Ġhistorian": 5014,
      "ĠDream": 5015,
      "ĠShow": 5016,
      "Ġcampus": 5017,
      "ĠPrince": 5018,
      "ĠSystem": 5019,
      "Ġparticipated": 5020,
      "ĠOlympics": 5021,
      "ker": 5022,
      "ĠGi": 5023,
      "rance": 5024,
      "Ġ1988": 5025,
      "Ġvisual": 5026,
      "ĠBarb": 5027,
      "Ġpattern": 5028,
      "Ġadministration": 5029,
      "Ġnewspaper": 5030,
      "Ġspring": 5031,
      "Ġopposed": 5032,
      "ĠReception": 5033,
      "Ġhere": 5034,
      "Ġplaces": 5035,
      "Ġresist": 5036,
      "Ġperman": 5037,
      "Ġprin": 5038,
      "Ġdrive": 5039,
      "Ġrailway": 5040,
      "Ã¨": 5041,
      "Ġwounded": 5042,
      "itable": 5043,
      "ĠTropical": 5044,
      "Ġrear": 5045,
      "ĠDirect": 5046,
      "ĠGra": 5047,
      "sey": 5048,
      "ĠCommon": 5049,
      "Ġwor": 5050,
      "ĠHy": 5051,
      "Ġ1939": 5052,
      "ĠOliv": 5053,
      "Ġwebsite": 5054,
      "Ġur": 5055,
      "Ġadapt": 5056,
      "Ġoffensive": 5057,
      "Ġsoft": 5058,
      "Ġguard": 5059,
      "ĠBrook": 5060,
      "Ġhonor": 5061,
      "Ġillust": 5062,
      "Ġawards": 5063,
      "ĠEnd": 5064,
      "ĠUl": 5065,
      "Ġadvert": 5066,
      "Ġacquired": 5067,
      "Ġaccompan": 5068,
      "ifying": 5069,
      "Ġsports": 5070,
      "ordan": 5071,
      "Ġcontact": 5072,
      "Ġcannot": 5073,
      "Ġends": 5074,
      "ĠLee": 5075,
      "Ġclaims": 5076,
      "Ġmoment": 5077,
      "Ġtru": 5078,
      "Ġfer": 5079,
      "Ġmaster": 5080,
      "ĠThough": 5081,
      "Ġnewly": 5082,
      "Ġdepth": 5083,
      "Ġdeliver": 5084,
      "Ġideas": 5085,
      "RA": 5086,
      "ental": 5087,
      "ĠOtt": 5088,
      "Ġlaws": 5089,
      "ĠHolly": 5090,
      "Ġnecessary": 5091,
      "Ġdraft": 5092,
      "ĠTower": 5093,
      "ĠCat": 5094,
      "Although": 5095,
      "ias": 5096,
      "Ġtail": 5097,
      "ĠRoss": 5098,
      "aka": 5099,
      "Ġconsecutive": 5100,
      "ottom": 5101,
      "born": 5102,
      "Ġfair": 5103,
      "Ġ1987": 5104,
      "Ġelev": 5105,
      "Ġkilling": 5106,
      "Ġmachine": 5107,
      "Ġcenturies": 5108,
      "Ġexpansion": 5109,
      "Ġmentioned": 5110,
      "oncÃ©": 5111,
      "iy": 5112,
      "Ġtask": 5113,
      "Ġbud": 5114,
      "ĠTurn": 5115,
      "Ġnothing": 5116,
      "Ġrow": 5117,
      "awa": 5118,
      "Ġglob": 5119,
      "ĠOlympic": 5120,
      "Ġinstrument": 5121,
      "Ġpig": 5122,
      "Ġhol": 5123,
      "ĠCa": 5124,
      "apore": 5125,
      "Ġboat": 5126,
      "Ġsolo": 5127,
      "Ġbillion": 5128,
      "orter": 5129,
      "isters": 5130,
      "ĠSar": 5131,
      "ĠRow": 5132,
      "Ġprote": 5133,
      "eller": 5134,
      "Ġ57": 5135,
      "Ġextensive": 5136,
      "Ġsurvey": 5137,
      "Ġauthority": 5138,
      "fort": 5139,
      "ĠStorm": 5140,
      "isers": 5141,
      "Ġdeploy": 5142,
      "iverpool": 5143,
      "Ġpersonnel": 5144,
      "Station": 5145,
      "Ġbodies": 5146,
      "ĠVol": 5147,
      "Ġimag": 5148,
      "Ġinfantry": 5149,
      "Ġlosses": 5150,
      "Ġsail": 5151,
      "Ġmob": 5152,
      "ĠBBC": 5153,
      "Ġevac": 5154,
      "Ġproducers": 5155,
      "Ġexpress": 5156,
      "ĠShak": 5157,
      "ĠProv": 5158,
      "Ġarrival": 5159,
      "rog": 5160,
      "Ġhappen": 5161,
      "ĠRog": 5162,
      "Ġcomes": 5163,
      "Ġextend": 5164,
      "ĠInst": 5165,
      "iana": 5166,
      "Ġinteract": 5167,
      "Ġfamilies": 5168,
      "appy": 5169,
      "Ġpolicy": 5170,
      "Ġexpedition": 5171,
      "bit": 5172,
      "iate": 5173,
      "Ġchose": 5174,
      "ights": 5175,
      "Ġunique": 5176,
      "ifications": 5177,
      "Ġpowers": 5178,
      "ba": 5179,
      "Ġdance": 5180,
      "ĠBush": 5181,
      "ĠChart": 5182,
      "yph": 5183,
      "edd": 5184,
      "Ġfix": 5185,
      "ĠBank": 5186,
      "Ġ178": 5187,
      "Ġcapacity": 5188,
      "Ġbenef": 5189,
      "Ġphilos": 5190,
      "rin": 5191,
      "illy": 5192,
      "iments": 5193,
      "ĠRet": 5194,
      "Ġcontaining": 5195,
      "Ġ1985": 5196,
      "ĠSenate": 5197,
      "Ġbriefly": 5198,
      "Ġcitiz": 5199,
      "cul": 5200,
      "iÄĩ": 5201,
      "ala": 5202,
      "Ġmile": 5203,
      "Ġhair": 5204,
      "ĠWind": 5205,
      "ĠBoard": 5206,
      "Ġrejected": 5207,
      "ĠSund": 5208,
      "ĠCra": 5209,
      "ĠMike": 5210,
      "Ġconference": 5211,
      "ĠOf": 5212,
      "ĠProt": 5213,
      "ĠSingapore": 5214,
      "Ġcasual": 5215,
      "ĠBeyoncÃ©": 5216,
      "Ġbranch": 5217,
      "Ġheard": 5218,
      "estic": 5219,
      "asty": 5220,
      "pping": 5221,
      "Ġrecently": 5222,
      "min": 5223,
      "ĠPak": 5224,
      "uls": 5225,
      "ĠLine": 5226,
      "Ġexperiment": 5227,
      "ĠElect": 5228,
      "Ġchoice": 5229,
      "Ġtherefore": 5230,
      "ĠAndrew": 5231,
      "Ġfreeway": 5232,
      "ĠCoast": 5233,
      "Ġtun": 5234,
      "Ġunp": 5235,
      "Ġretired": 5236,
      "Ġcreation": 5237,
      "rations": 5238,
      "Ġathlet": 5239,
      "Ġorganized": 5240,
      "Ġanalysis": 5241,
      "Ġseventh": 5242,
      "ĠNBA": 5243,
      "Ġthemes": 5244,
      "Ġ1984": 5245,
      "Ġheadquarters": 5246,
      "ĠPhill": 5247,
      "ĠDuke": 5248,
      "Ġadvantage": 5249,
      "ĠSound": 5250,
      "ĠBrian": 5251,
      "umes": 5252,
      "Ġrac": 5253,
      "Ġworldwide": 5254,
      "Ġtowns": 5255,
      "Ġlooking": 5256,
      "Ġknowledge": 5257,
      "ocated": 5258,
      "Ġfeed": 5259,
      "Ġcontrolled": 5260,
      "ĠBroad": 5261,
      "20": 5262,
      "oted": 5263,
      "ĠWars": 5264,
      "ĠLike": 5265,
      "ĠKey": 5266,
      "Ġrules": 5267,
      "Ġwaters": 5268,
      "BS": 5269,
      "Following": 5270,
      "reets": 5271,
      "Ġbelieve": 5272,
      "Ġopin": 5273,
      "Ġrainfall": 5274,
      "Ġhall": 5275,
      "ĠSpain": 5276,
      "Ġbelong": 5277,
      "Ġtechnology": 5278,
      "Ġfellow": 5279,
      "Ġroughly": 5280,
      "Ġhydro": 5281,
      "lusion": 5282,
      "Ġfought": 5283,
      "anda": 5284,
      "Ġvac": 5285,
      "ĠKa": 5286,
      "Ġ800": 5287,
      "Ġsuggests": 5288,
      "Ġbass": 5289,
      "ĠAre": 5290,
      "aven": 5291,
      "Ġactors": 5292,
      "Ġreflect": 5293,
      "mosp": 5294,
      "uting": 5295,
      "ĠHum": 5296,
      "ĠLes": 5297,
      "ĠLiverpool": 5298,
      "Ġroof": 5299,
      "Ġreceive": 5300,
      "eanwhile": 5301,
      "ĠScottish": 5302,
      "Ġdrama": 5303,
      "Ġnormal": 5304,
      "Ġsac": 5305,
      "Ġmic": 5306,
      "lement": 5307,
      "Ġexcl": 5308,
      "ĠStan": 5309,
      "onym": 5310,
      "Ġeffective": 5311,
      "Ġsuccessfully": 5312,
      "Ġentirely": 5313,
      "Ġprompt": 5314,
      "Ġcommonly": 5315,
      "iences": 5316,
      "atures": 5317,
      "Ġhousehold": 5318,
      "ca": 5319,
      "Ġdefined": 5320,
      "roll": 5321,
      "ĠBol": 5322,
      "Ġ120": 5323,
      "ĠPolish": 5324,
      "set": 5325,
      "ĠMax": 5326,
      "ĠJon": 5327,
      "Ġcontain": 5328,
      "ĠWhat": 5329,
      "Ġfamous": 5330,
      "Ġtypes": 5331,
      "uan": 5332,
      "pton": 5333,
      "Ġcomputer": 5334,
      "Ġprovides": 5335,
      "ĠJewish": 5336,
      "ĠâĪĴ": 5337,
      "break": 5338,
      "Ġpsych": 5339,
      "illing": 5340,
      "Ġchor": 5341,
      "Ġsport": 5342,
      "ounger": 5343,
      "ĠAsh": 5344,
      "Ġopposition": 5345,
      "va": 5346,
      "ĠThrough": 5347,
      "Ġ175": 5348,
      "Ġlands": 5349,
      "Ġcultural": 5350,
      "ĠJes": 5351,
      "rif": 5352,
      "Ġtwelve": 5353,
      "Ġrecognized": 5354,
      "ographer": 5355,
      "pass": 5356,
      "ini": 5357,
      "isf": 5358,
      "ĠStew": 5359,
      "inals": 5360,
      "ologist": 5361,
      "ĠValley": 5362,
      "ayer": 5363,
      "Ġacad": 5364,
      "Ġexpanded": 5365,
      "Ġfailure": 5366,
      "imal": 5367,
      "ĠWrit": 5368,
      "ĠEach": 5369,
      "Ġtrav": 5370,
      "brid": 5371,
      "ket": 5372,
      "more": 5373,
      "ĠNH": 5374,
      "Ġappl": 5375,
      "Ġapplic": 5376,
      "Ġvari": 5377,
      "ĠBowl": 5378,
      "Ġarrang": 5379,
      "Ġsplit": 5380,
      "Ġmist": 5381,
      "Ġbelief": 5382,
      "Ġcriticism": 5383,
      "stitution": 5384,
      "Ġrepeated": 5385,
      "respond": 5386,
      "rons": 5387,
      "Ġcaught": 5388,
      "Ġfict": 5389,
      "ĠMas": 5390,
      "ylan": 5391,
      "ĠRadio": 5392,
      "ĠAddition": 5393,
      "Ġbudget": 5394,
      "arian": 5395,
      "ĠMid": 5396,
      "ĠFestival": 5397,
      "Ġprefer": 5398,
      "Ġstanding": 5399,
      "Ã¡n": 5400,
      "ĠVietnam": 5401,
      "ĠRevolution": 5402,
      "ĠSand": 5403,
      "eline": 5404,
      "Ġdecre": 5405,
      "Ġrequest": 5406,
      "ĠIS": 5407,
      "ĠJac": 5408,
      "Ġbattalion": 5409,
      "Ġpurpose": 5410,
      "Ġrisk": 5411,
      "otic": 5412,
      "mann": 5413,
      "ĠIndiana": 5414,
      "Ġexperienced": 5415,
      "ĠCambridge": 5416,
      "Ġtim": 5417,
      "Ġcars": 5418,
      "ĠMen": 5419,
      "ĠNight": 5420,
      "abeth": 5421,
      "ĠSpring": 5422,
      "Ġcouncil": 5423,
      "ĠAvenue": 5424,
      "ĠBan": 5425,
      "Ġsubm": 5426,
      "Ġpublication": 5427,
      "ĠPlayStation": 5428,
      "Ġwithdraw": 5429,
      "Ġdismiss": 5430,
      "With": 5431,
      "Ġmouth": 5432,
      "ĠBase": 5433,
      "hol": 5434,
      "Ġfat": 5435,
      "Ġvo": 5436,
      "Ġshark": 5437,
      "Ġtreatment": 5438,
      "jan": 5439,
      "Ġ73": 5440,
      "Ġdidn": 5441,
      "Ġarticle": 5442,
      "Ġcreating": 5443,
      "Ġmethod": 5444,
      "rel": 5445,
      "Ġlocations": 5446,
      "Ġviewed": 5447,
      "Ġflooding": 5448,
      "Ġpiano": 5449,
      "Ġgives": 5450,
      "Ġadvent": 5451,
      "Ġcalls": 5452,
      "ancing": 5453,
      "prise": 5454,
      "ĠEliz": 5455,
      "Ġstructures": 5456,
      "ĠColonel": 5457,
      "uses": 5458,
      "ĠJordan": 5459,
      "Ġseat": 5460,
      "Ġyellow": 5461,
      "Ġperfect": 5462,
      "Ġsecurity": 5463,
      "Ġtitles": 5464,
      "Ġprograms": 5465,
      "ophy": 5466,
      "ocratic": 5467,
      "Ġfirm": 5468,
      "Ġdrop": 5469,
      "abin": 5470,
      "Ġunus": 5471,
      "Ġsteel": 5472,
      "Ġneut": 5473,
      "Ġfilming": 5474,
      "Ġintensity": 5475,
      "laim": 5476,
      "uccess": 5477,
      "standing": 5478,
      "gend": 5479,
      "Ġfinish": 5480,
      "Ġfavour": 5481,
      "ĠCastle": 5482,
      "Ġsave": 5483,
      "acted": 5484,
      "ĠMot": 5485,
      "Ġperhaps": 5486,
      "Ġquite": 5487,
      "ĠAtt": 5488,
      "ĠDevelopment": 5489,
      "ĠCommand": 5490,
      "Ġmotor": 5491,
      "Ġcontributed": 5492,
      "Ġpurchased": 5493,
      "Ġsettlement": 5494,
      "ĠDrag": 5495,
      "Ġfinds": 5496,
      "Ġfacilities": 5497,
      "ĠStudios": 5498,
      "While": 5499,
      "ua": 5500,
      "Ġpict": 5501,
      "room": 5502,
      "ĠBor": 5503,
      "Ġgod": 5504,
      "ira": 5505,
      "ctions": 5506,
      "Ġunf": 5507,
      "Ġ94": 5508,
      "da": 5509,
      "Ġtree": 5510,
      "ipl": 5511,
      "phia": 5512,
      "Ġdefin": 5513,
      "Ġbaseball": 5514,
      "ĠSteve": 5515,
      "ĠWalter": 5516,
      "ii": 5517,
      "inity": 5518,
      "apers": 5519,
      "Ġencoura": 5520,
      "Ġcommissioned": 5521,
      "agonist": 5522,
      "ĠOffice": 5523,
      "eg": 5524,
      "ingly": 5525,
      "Ġjourney": 5526,
      "Ġ67": 5527,
      "Ġbroken": 5528,
      "Ġcorrespond": 5529,
      "Ġdetermined": 5530,
      "Ġdedicated": 5531,
      "Ġdisease": 5532,
      "Ġnest": 5533,
      "unc": 5534,
      "ĠFurther": 5535,
      "Ġarms": 5536,
      "Ġhighlight": 5537,
      "Ġdistingu": 5538,
      "Ġmerch": 5539,
      "adelphia": 5540,
      "Ġcricket": 5541,
      "ĠSk": 5542,
      "Ġactress": 5543,
      "ĠDev": 5544,
      "ĠBefore": 5545,
      "ishes": 5546,
      "Ġpitch": 5547,
      "ĠAlb": 5548,
      "ĠRepublican": 5549,
      "eor": 5550,
      "Ġtry": 5551,
      "ĠAst": 5552,
      "Ġstreet": 5553,
      "ĠLy": 5554,
      "Ġshall": 5555,
      "Ġundert": 5556,
      "Ġregions": 5557,
      "Ġclosely": 5558,
      "Ġincreasingly": 5559,
      "ĠCarey": 5560,
      "Ġsun": 5561,
      "omic": 5562,
      "Ġcarry": 5563,
      "Ġ1964": 5564,
      "Ġimproved": 5565,
      "iner": 5566,
      "ĠSS": 5567,
      "Ġgal": 5568,
      "ĠInstitute": 5569,
      "ĠYoung": 5570,
      "Ġsecondary": 5571,
      "Ġ1975": 5572,
      "Ġeconomy": 5573,
      "Ġbreeding": 5574,
      "ĠSecretary": 5575,
      "har": 5576,
      "Ġthing": 5577,
      "Ġcontest": 5578,
      "Ġrelief": 5579,
      "Ġreceiving": 5580,
      "Ġearliest": 5581,
      "Ġconnected": 5582,
      "Ġkilometres": 5583,
      "Ġchair": 5584,
      "Ġevolution": 5585,
      "Ġdeclined": 5586,
      "Ġexisting": 5587,
      "Ġtall": 5588,
      "Ġaid": 5589,
      "Ġcavalry": 5590,
      "osa": 5591,
      "ĠChap": 5592,
      "ĠMarsh": 5593,
      "Ġleadership": 5594,
      "Ġauth": 5595,
      "Ġmedal": 5596,
      "Ġhumans": 5597,
      "Ġcrossing": 5598,
      "Ġshooting": 5599,
      "Ġscheduled": 5600,
      "Ġcomic": 5601,
      "Ġ1982": 5602,
      "Ġboats": 5603,
      "He": 5604,
      "heim": 5605,
      "Ġcam": 5606,
      "Ġmounted": 5607,
      "ĠLenn": 5608,
      "ĠNC": 5609,
      "Ġselection": 5610,
      "Ġresemb": 5611,
      "Ġenl": 5612,
      "istered": 5613,
      "ĠPhiladelphia": 5614,
      "Ġdistribution": 5615,
      "Ġbal": 5616,
      "Ġdiam": 5617,
      "ĠPrime": 5618,
      "ĠLewis": 5619,
      "Ġworth": 5620,
      "ĠCD": 5621,
      "och": 5622,
      "Ġcold": 5623,
      "Ġlic": 5624,
      "Ġbeaut": 5625,
      "Ġalle": 5626,
      "Ġsupporting": 5627,
      "Ġvote": 5628,
      "uzz": 5629,
      "ĠGilbert": 5630,
      "ĠStephen": 5631,
      "gal": 5632,
      "itled": 5633,
      "Ġhip": 5634,
      "ĠMos": 5635,
      "lyn": 5636,
      "aved": 5637,
      "Ġshape": 5638,
      "ĠMarine": 5639,
      "Ġperforming": 5640,
      "Ġ1973": 5641,
      "Ġsites": 5642,
      "ĠPress": 5643,
      "iful": 5644,
      "range": 5645,
      "Ġdetails": 5646,
      "ĠSyd": 5647,
      "Ġoccupied": 5648,
      "Ġmart": 5649,
      "ĠTen": 5650,
      "ĠAri": 5651,
      "ĠBon": 5652,
      "ĠBern": 5653,
      "ĠDylan": 5654,
      "Ġatmosp": 5655,
      "ĠNations": 5656,
      "Ġ59": 5657,
      "izations": 5658,
      "Ġ700": 5659,
      "Ġ160": 5660,
      "Ġfresh": 5661,
      "agan": 5662,
      "onder": 5663,
      "Ġ1947": 5664,
      "Ġsimple": 5665,
      "Ġwave": 5666,
      "verse": 5667,
      "ĠAlso": 5668,
      "ĠHarrison": 5669,
      "Ġmount": 5670,
      "ĠLar": 5671,
      "Ġrise": 5672,
      "outs": 5673,
      "ibb": 5674,
      "Ġ72": 5675,
      "ĠAirport": 5676,
      "Ġelimin": 5677,
      "GN": 5678,
      "ja": 5679,
      "mn": 5680,
      "rete": 5681,
      "ĠAD": 5682,
      "Ġegg": 5683,
      "olves": 5684,
      "irk": 5685,
      "ceived": 5686,
      "Ġven": 5687,
      "ĠConst": 5688,
      "Ġengaged": 5689,
      "Ġspeak": 5690,
      "Ġspeech": 5691,
      "Arthur": 5692,
      "Ġwhy": 5693,
      "ilding": 5694,
      "Ġ99": 5695,
      "Ġlanding": 5696,
      "Ġdrawn": 5697,
      "Ġaccompanied": 5698,
      "imet": 5699,
      "Ġagricult": 5700,
      "Ġ63": 5701,
      "ĠShort": 5702,
      "Ġ1968": 5703,
      "Ġ1914": 5704,
      "ushing": 5705,
      "Ġsteam": 5706,
      "ĠDaniel": 5707,
      "ĠSR": 5708,
      "ĠSix": 5709,
      "ĠRay": 5710,
      "ĠChild": 5711,
      "Ġdeck": 5712,
      "Ġdefence": 5713,
      "Ġescort": 5714,
      "Ġprepared": 5715,
      "yphoon": 5716,
      "According": 5717,
      "ãģ": 5718,
      "Ġtact": 5719,
      "Ġrend": 5720,
      "stream": 5721,
      "ĠDown": 5722,
      "ĠVar": 5723,
      "Ġsinging": 5724,
      "ĠProduction": 5725,
      "ographic": 5726,
      "reme": 5727,
      "Ġanimal": 5728,
      "ĠHawai": 5729,
      "ĠBand": 5730,
      "ĠFair": 5731,
      "Ġdescend": 5732,
      "Ġadding": 5733,
      "Ġdescription": 5734,
      "Ġsand": 5735,
      "Ġhired": 5736,
      "ĠRod": 5737,
      "ĠLady": 5738,
      "ranean": 5739,
      "ashion": 5740,
      "Ġeyes": 5741,
      "Ġign": 5742,
      "Ġ1948": 5743,
      "Ġtemperature": 5744,
      "Ġceremony": 5745,
      "Ġcited": 5746,
      "Ġhyp": 5747,
      "Ġlb": 5748,
      "igation": 5749,
      "ĠNic": 5750,
      "Ġoccas": 5751,
      "Ġfictional": 5752,
      "FL": 5753,
      "rant": 5754,
      "Ġster": 5755,
      "oma": 5756,
      "achus": 5757,
      "Ġ87": 5758,
      "Ġ1974": 5759,
      "ĠPrinc": 5760,
      "Ġvolume": 5761,
      "ĠSummer": 5762,
      "ato": 5763,
      "ĠLab": 5764,
      "Ġsuppor": 5765,
      "ĠAbout": 5766,
      "Ġproducts": 5767,
      "hat": 5768,
      "wise": 5769,
      "Ġaim": 5770,
      "inary": 5771,
      "ĠEp": 5772,
      "essed": 5773,
      "Ġroutes": 5774,
      "Ġgoes": 5775,
      "Ġinstruct": 5776,
      "Ġenjoyed": 5777,
      "yer": 5778,
      "Ġsom": 5779,
      "ĠWalk": 5780,
      "Ġ71": 5781,
      "Ġsubstant": 5782,
      "Ġ176": 5783,
      "Ġprotection": 5784,
      "Ġholding": 5785,
      "ĠColumbia": 5786,
      "gent": 5787,
      "amber": 5788,
      "rence": 5789,
      "ĠOnce": 5790,
      "ĠIndust": 5791,
      "Ġturns": 5792,
      "Ġprotected": 5793,
      "Ġcurrently": 5794,
      "Ġexistence": 5795,
      "Ġwitness": 5796,
      "othes": 5797,
      "Ġ1946": 5798,
      "Ġ1976": 5799,
      "espread": 5800,
      "Ġheaded": 5801,
      "Ġindustrial": 5802,
      "Ġstages": 5803,
      "Ġshared": 5804,
      "Ġdefensive": 5805,
      "Ġproviding": 5806,
      "ĠIslands": 5807,
      "gers": 5808,
      "ĠCape": 5809,
      "ĠPen": 5810,
      "ĠDom": 5811,
      "ults": 5812,
      "Ġrated": 5813,
      "Ġexact": 5814,
      "Ġyounger": 5815,
      "Ġagent": 5816,
      "Ġ61": 5817,
      "ĠSydney": 5818,
      "BI": 5819,
      "For": 5820,
      "gr": 5821,
      "Ġnor": 5822,
      "iration": 5823,
      "Ġstadium": 5824,
      "ulate": 5825,
      "Ġresident": 5826,
      "Ġislands": 5827,
      "ĠRobin": 5828,
      "ouri": 5829,
      "ĠJane": 5830,
      "Ġnotable": 5831,
      "athan": 5832,
      "Ġdeveloping": 5833,
      "Ġconstitution": 5834,
      "stone": 5835,
      "achel": 5836,
      "ĠDie": 5837,
      "Ġisol": 5838,
      "Ġ81": 5839,
      "Ġconsists": 5840,
      "Ġ1983": 5841,
      "Ġ1969": 5842,
      "ĠHarry": 5843,
      "Ġsurvived": 5844,
      "ĠImperial": 5845,
      "Ġfish": 5846,
      "ĠHun": 5847,
      "eman": 5848,
      "Ġorchest": 5849,
      "ockey": 5850,
      "Ġcommittee": 5851,
      "Ġproducing": 5852,
      "Ġsevere": 5853,
      "ĠAsia": 5854,
      "Ġsignificantly": 5855,
      "Ġemployed": 5856,
      "Ġbrand": 5857,
      "Ġgain": 5858,
      "ĠWell": 5859,
      "ewhere": 5860,
      "Ġ1916": 5861,
      "Ġreligion": 5862,
      "Ġfilled": 5863,
      "Ġdial": 5864,
      "ĠEven": 5865,
      "ĠKen": 5866,
      "Ġ1981": 5867,
      "Ġarchae": 5868,
      "Ġindicated": 5869,
      "ĠRel": 5870,
      "Ġchance": 5871,
      "Ġclimb": 5872,
      "ĠProf": 5873,
      "Ġtrip": 5874,
      "Ġprotect": 5875,
      "Ġprojects": 5876,
      "Ġlearned": 5877,
      "gest": 5878,
      "Ġdrew": 5879,
      "Ġstore": 5880,
      "Ġstoryline": 5881,
      "Ġcharts": 5882,
      "chers": 5883,
      "ĠLieutenant": 5884,
      "Ġfilmed": 5885,
      "Ġdepend": 5886,
      "Ġways": 5887,
      "ĠHardy": 5888,
      "Ġopportunity": 5889,
      "achusetts": 5890,
      "war": 5891,
      "ĠMir": 5892,
      "ĠBat": 5893,
      "Ġadult": 5894,
      "Ġ58": 5895,
      "Ġgameplay": 5896,
      "Ġknew": 5897,
      "Ġinterchange": 5898,
      "Ġintroduction": 5899,
      "Ġmotion": 5900,
      "ĠMissouri": 5901,
      "Ġcredited": 5902,
      "Ġsafety": 5903,
      "Ġscholars": 5904,
      "Ġ1972": 5905,
      "Ġ1979": 5906,
      "Ġ1918": 5907,
      "ĠUpon": 5908,
      "mouth": 5909,
      "Ġhits": 5910,
      "ucky": 5911,
      "Ġsumm": 5912,
      "Ġfocused": 5913,
      "Ġdigital": 5914,
      "wick": 5915,
      "Ġshaped": 5916,
      "Ġintercept": 5917,
      "Ġ1971": 5918,
      "Ġweakened": 5919,
      "Ġpul": 5920,
      "Ġmales": 5921,
      "Ġdens": 5922,
      "Ġdaily": 5923,
      "ĠTheatre": 5924,
      "Ġproceed": 5925,
      "ensus": 5926,
      "Ġanything": 5927,
      "Ġparliament": 5928,
      "Ġimportance": 5929,
      "Ġvolunte": 5930,
      "Ġfly": 5931,
      "ĠRol": 5932,
      "ĠUTC": 5933,
      "Ġ69": 5934,
      "Ġviews": 5935,
      "Ġrenamed": 5936,
      "Ġregarding": 5937,
      "Ġprisoners": 5938,
      "Ġburied": 5939,
      "ĠMassachusetts": 5940,
      "oir": 5941,
      "Ġtanks": 5942,
      "Ġsections": 5943,
      "ĠFA": 5944,
      "Ġrob": 5945,
      "ĠArmen": 5946,
      "ĠGeorg": 5947,
      "Ġmissing": 5948,
      "Ġinjured": 5949,
      "Ġsort": 5950,
      "ĠSquare": 5951,
      "ĠMah": 5952,
      "Ġstarts": 5953,
      "Ġ1953": 5954,
      "Ġcells": 5955,
      "Ġpip": 5956,
      "Ġeth": 5957,
      "Ġresour": 5958,
      "Ġadap": 5959,
      "Ġwrites": 5960,
      "Ġreputation": 5961,
      "Ġequal": 5962,
      "Ġrebu": 5963,
      "Ġsustained": 5964,
      "greg": 5965,
      "lik": 5966,
      "ĠRA": 5967,
      "unicip": 5968,
      "Ġnote": 5969,
      "Ġoverl": 5970,
      "Ġsymbol": 5971,
      "Ġexclus": 5972,
      "ĠConstant": 5973,
      "ĠZh": 5974,
      "Ġgrass": 5975,
      "Ġdeaths": 5976,
      "Ġcrime": 5977,
      "Ġstrengt": 5978,
      "ĠAlexander": 5979,
      "Ġconverted": 5980,
      "Ġalt": 5981,
      "Ġexer": 5982,
      "Ġsubmar": 5983,
      "ĠEngine": 5984,
      "Ġoperating": 5985,
      "iterranean": 5986,
      "kins": 5987,
      "mes": 5988,
      "Ġtheat": 5989,
      "ĠAmong": 5990,
      "rell": 5991,
      "Ġcatch": 5992,
      "Ġfruit": 5993,
      "Ġreasons": 5994,
      "ĠAy": 5995,
      "Ġknots": 5996,
      "Ġassault": 5997,
      "Ġclasses": 5998,
      "Ġfemales": 5999,
      "Ġwidespread": 6000,
      "Ġscientific": 6001,
      "Ġurban": 6002,
      "Ġmole": 6003,
      "Ġhang": 6004,
      "Ġgross": 6005,
      "Ġfranch": 6006,
      "ĠNap": 6007,
      "ighters": 6008,
      "Ġroll": 6009,
      "ieval": 6010,
      "ĠReview": 6011,
      "tendo": 6012,
      "Ġlandfall": 6013,
      "Ġidentity": 6014,
      "ĠElizabeth": 6015,
      "ĠLow": 6016,
      "iege": 6017,
      "Ġgenre": 6018,
      "Ġgradually": 6019,
      "bar": 6020,
      "kes": 6021,
      "isa": 6022,
      "ĠWW": 6023,
      "Ġseems": 6024,
      "Ġshel": 6025,
      "Ġ77": 6026,
      "Ġlimit": 6027,
      "Ġkingdom": 6028,
      "Ġrapidly": 6029,
      "emies": 6030,
      "ĠClark": 6031,
      "ĠMediterranean": 6032,
      "ĠIV": 6033,
      "Ġ98": 6034,
      "Ġallows": 6035,
      "water": 6036,
      "Ġfrag": 6037,
      "ĠHou": 6038,
      "agement": 6039,
      "Ġ250": 6040,
      "box": 6041,
      "Ġgetting": 6042,
      "ĠNorway": 6043,
      "ĠNintendo": 6044,
      "ĠHollywood": 6045,
      "worth": 6046,
      "Ġtorn": 6047,
      "entially": 6048,
      "iform": 6049,
      "ĠAndy": 6050,
      "ĠRoberts": 6051,
      "ĠRussia": 6052,
      "ĠBal": 6053,
      "ĠBos": 6054,
      "ĠPrem": 6055,
      "Ġcomposition": 6056,
      "ĠIndepend": 6057,
      "Ġ1956": 6058,
      "Ġextremely": 6059,
      "ĠWat": 6060,
      "opher": 6061,
      "ĠVi": 6062,
      "ivalent": 6063,
      "Ġsufficient": 6064,
      "Ġresponded": 6065,
      "Ġow": 6066,
      "arp": 6067,
      "Ġ130": 6068,
      "ĠAnderson": 6069,
      "ĠMacArthur": 6070,
      "vey": 6071,
      "Ġtank": 6072,
      "amin": 6073,
      "Ġnob": 6074,
      "otype": 6075,
      "ĠLith": 6076,
      "ifically": 6077,
      "Ġ86": 6078,
      "Ġestate": 6079,
      "Ġ1965": 6080,
      "Ġparallel": 6081,
      "come": 6082,
      "Ġwars": 6083,
      "ician": 6084,
      "eless": 6085,
      "uration": 6086,
      "ching": 6087,
      "apse": 6088,
      "Ġoffers": 6089,
      "issance": 6090,
      "ĠOnly": 6091,
      "Ġstopped": 6092,
      "Ġvirt": 6093,
      "Ġcasualties": 6094,
      "ĠCorn": 6095,
      "Ġnick": 6096,
      "oli": 6097,
      "ivered": 6098,
      "Ġpopulations": 6099,
      "ĠHero": 6100,
      "ĠGolden": 6101,
      "ashed": 6102,
      "Ġlabor": 6103,
      "ĠMul": 6104,
      "igg": 6105,
      "Ġconqu": 6106,
      "ĠUr": 6107,
      "Ġflat": 6108,
      "ĠParker": 6109,
      "Ã³n": 6110,
      "Ġsemi": 6111,
      "Ġunsuccess": 6112,
      "ĠDougl": 6113,
      "ez": 6114,
      "Ġaer": 6115,
      "Ġfaith": 6116,
      "leton": 6117,
      "ĠIGN": 6118,
      "ĠHung": 6119,
      "ĠJun": 6120,
      "Ġteacher": 6121,
      "Ġcollected": 6122,
      "Ġshowing": 6123,
      "Ġposted": 6124,
      "ĠPeople": 6125,
      "friend": 6126,
      "gn": 6127,
      "Ġcool": 6128,
      "Ġfashion": 6129,
      "Ġselect": 6130,
      "Ġ68": 6131,
      "ĠAnth": 6132,
      "Ġobtained": 6133,
      "Ġoccurs": 6134,
      "Ġintelligence": 6135,
      "bey": 6136,
      "tical": 6137,
      "uther": 6138,
      "agues": 6139,
      "Ġexchange": 6140,
      "Ġretire": 6141,
      "rising": 6142,
      "inking": 6143,
      "ĠAssembly": 6144,
      "Ġpopularity": 6145,
      "Ġfit": 6146,
      "ĠId": 6147,
      "ĠPC": 6148,
      "Ġ74": 6149,
      "Ġdelivered": 6150,
      "Ġaspects": 6151,
      "rates": 6152,
      "ications": 6153,
      "ĠFall": 6154,
      "ĠJean": 6155,
      "Ġsubs": 6156,
      "Ġapproached": 6157,
      "Ġbasket": 6158,
      "Ġsucceeded": 6159,
      "lim": 6160,
      "met": 6161,
      "Ġsell": 6162,
      "ĠLi": 6163,
      "aga": 6164,
      "Ġemp": 6165,
      "Ġplanning": 6166,
      "ĠEarl": 6167,
      "PA": 6168,
      "aun": 6169,
      "á»": 6170,
      "Ġ#": 6171,
      "oln": 6172,
      "Ġsecure": 6173,
      "hetic": 6174,
      "Ġconsisting": 6175,
      "Ġuniverse": 6176,
      "rich": 6177,
      "Ġgall": 6178,
      "ĠOp": 6179,
      "Ġ93": 6180,
      "ĠColl": 6181,
      "ĠProject": 6182,
      "Ġedge": 6183,
      "Ġlasted": 6184,
      "Ġvehicle": 6185,
      "Ġcustom": 6186,
      "han": 6187,
      "edom": 6188,
      "ĠLind": 6189,
      "ĠOffic": 6190,
      "pper": 6191,
      "ĠArthur": 6192,
      "western": 6193,
      "Ġsquad": 6194,
      "ader": 6195,
      "Ġarc": 6196,
      "Ġ82": 6197,
      "amese": 6198,
      "Ġentitled": 6199,
      "Ġserves": 6200,
      "Ġappeal": 6201,
      "ommod": 6202,
      "Ġappoint": 6203,
      "nest": 6204,
      "itage": 6205,
      "Ġdated": 6206,
      "Ġdry": 6207,
      "Ġrhy": 6208,
      "ella": 6209,
      "Ġpassenger": 6210,
      "engers": 6211,
      "ĠOrder": 6212,
      "math": 6213,
      "Ġeighth": 6214,
      "ridges": 6215,
      "ĠLennon": 6216,
      "ĠBart": 6217,
      "ima": 6218,
      "ĠNever": 6219,
      "ĠJr": 6220,
      "Ġschem": 6221,
      "Ġadmitted": 6222,
      "Ġmessage": 6223,
      "ĠSpecial": 6224,
      "Ġopinion": 6225,
      "iat": 6226,
      "Ġbottom": 6227,
      "ĠDer": 6228,
      "riers": 6229,
      "Ġdownload": 6230,
      "ĠGermans": 6231,
      "FA": 6232,
      "vis": 6233,
      "ading": 6234,
      "ĠBalt": 6235,
      "ĠLet": 6236,
      "ordon": 6237,
      "Ġ78": 6238,
      "Ġdepartment": 6239,
      "Ġconcer": 6240,
      "Ġmoder": 6241,
      "Ġconvoy": 6242,
      "Ġtechnical": 6243,
      "Ġfunds": 6244,
      "ĠRyan": 6245,
      "mph": 6246,
      "elle": 6247,
      "icks": 6248,
      "obi": 6249,
      "ropri": 6250,
      "Ġacres": 6251,
      "Ġdoor": 6252,
      "psons": 6253,
      "ĠSimpsons": 6254,
      "ĠVietnamese": 6255,
      "Ġsupplies": 6256,
      "ĠNorman": 6257,
      "Ġcitizens": 6258,
      "AT": 6259,
      "lav": 6260,
      "ĠHay": 6261,
      "ĠRang": 6262,
      "Ġdecade": 6263,
      "Ġfinding": 6264,
      "Ġnomination": 6265,
      "rets": 6266,
      "Ġbought": 6267,
      "Ġdates": 6268,
      "urches": 6269,
      "irt": 6270,
      "Ġconsequ": 6271,
      "kee": 6272,
      "Ġ96": 6273,
      "Ġ110": 6274,
      "Ġreplace": 6275,
      "Ġliterary": 6276,
      "Ġinternal": 6277,
      "Ġpermanent": 6278,
      "ĠInstead": 6279,
      "Ġbrigade": 6280,
      "Ġpaint": 6281,
      "ĠSu": 6282,
      "Ġsole": 6283,
      "Ġphase": 6284,
      "Ġ1958": 6285,
      "Ġclassic": 6286,
      "Ġtypical": 6287,
      "ĠMedal": 6288,
      "iling": 6289,
      "ĠAk": 6290,
      "Ġoldest": 6291,
      "ĠMcG": 6292,
      "Ġsouthwest": 6293,
      "ĠMoore": 6294,
      "Ġreaction": 6295,
      "lan": 6296,
      "theless": 6297,
      "ĠDaily": 6298,
      "ĠAnton": 6299,
      "Ġcapable": 6300,
      "ĠPlan": 6301,
      "poration": 6302,
      "Ġbattery": 6303,
      "gency": 6304,
      "ela": 6305,
      "ĠPerson": 6306,
      "ĠDue": 6307,
      "ĠJersey": 6308,
      "ĠKat": 6309,
      "ender": 6310,
      "Ġdecades": 6311,
      "Ġ1966": 6312,
      "Ġclassification": 6313,
      "Ġreferences": 6314,
      "ĠSongs": 6315,
      "Ġarranged": 6316,
      "Ġapplied": 6317,
      "olph": 6318,
      "ava": 6319,
      "Ġ88": 6320,
      "ĠArts": 6321,
      "Ġentrance": 6322,
      "Ġcarbon": 6323,
      "Ġwinner": 6324,
      "Ġengines": 6325,
      "Ġimprove": 6326,
      "Ġmissions": 6327,
      "ĠSus": 6328,
      "state": 6329,
      "Ġvary": 6330,
      "Ġshif": 6331,
      "ogen": 6332,
      "Ġcommanded": 6333,
      "Ġcorrect": 6334,
      "Ġconnection": 6335,
      "ĠMexican": 6336,
      "king": 6337,
      "olt": 6338,
      "Ġpoll": 6339,
      "iami": 6340,
      "Ã©e": 6341,
      "Ġstrateg": 6342,
      "Ġapproved": 6343,
      "Ġdriving": 6344,
      "idden": 6345,
      "Ġwatched": 6346,
      "Ġones": 6347,
      "ĠLyn": 6348,
      "Ġcarrying": 6349,
      "Ġsolar": 6350,
      "Ġbrothers": 6351,
      "Ġthreatened": 6352,
      "Ġdomestic": 6353,
      "ĠPot": 6354,
      "ĠGreg": 6355,
      "ĠNel": 6356,
      "Ġ79": 6357,
      "Ġ1967": 6358,
      "Ġjoint": 6359,
      "Ġeverything": 6360,
      "Ġreading": 6361,
      "ĠBraz": 6362,
      "iques": 6363,
      "Ġeasily": 6364,
      "Ġansw": 6365,
      "ĠInc": 6366,
      "hedral": 6367,
      "Ġpreced": 6368,
      "elsh": 6369,
      "Ġpoly": 6370,
      "incoln": 6371,
      "Ġzone": 6372,
      "Ġsoutheast": 6373,
      "ĠFamily": 6374,
      "Ġtied": 6375,
      "iva": 6376,
      "ulpt": 6377,
      "apes": 6378,
      "Ġ1977": 6379,
      "Ġturning": 6380,
      "Ġpromotion": 6381,
      "ĠPhilipp": 6382,
      "Ġalternative": 6383,
      "Sp": 6384,
      "eer": 6385,
      "heastern": 6386,
      "Ġbra": 6387,
      "omot": 6388,
      "Ġ1915": 6389,
      "ĠDouglas": 6390,
      "ĠPict": 6391,
      "ĠDark": 6392,
      "ĠGer": 6393,
      "Ġnoting": 6394,
      "Ġ1919": 6395,
      "Ġmyth": 6396,
      "Ġapart": 6397,
      "Ġduty": 6398,
      "Ġthousands": 6399,
      "ĠOhio": 6400,
      "ĠSn": 6401,
      "Ġlov": 6402,
      "ĠBas": 6403,
      "ansas": 6404,
      "Ġdiscovery": 6405,
      "Ġviolence": 6406,
      "ĠMeanwhile": 6407,
      "ĠLincoln": 6408,
      "Ġshut": 6409,
      "ĠVen": 6410,
      "Ġrot": 6411,
      "Ġupgrad": 6412,
      "aware": 6413,
      "ropol": 6414,
      "Ġminister": 6415,
      "ĠMinnes": 6416,
      "ĠMilitary": 6417,
      "ĠMatthew": 6418,
      "Ġcandidate": 6419,
      "Ġcorner": 6420,
      "BN": 6421,
      "One": 6422,
      "ĠMiami": 6423,
      "ĠDest": 6424,
      "Ġspin": 6425,
      "Ġoverse": 6426,
      "Ġwealth": 6427,
      "Ġ91": 6428,
      "Ġentry": 6429,
      "isms": 6430,
      "Ġ1955": 6431,
      "Ġ1917": 6432,
      "ĠEmperor": 6433,
      "Ġarrested": 6434,
      "ĠSunday": 6435,
      "ĠMinnesota": 6436,
      "eing": 6437,
      "time": 6438,
      "Ġbats": 6439,
      "Ġmig": 6440,
      "Ġmut": 6441,
      "urst": 6442,
      "olished": 6443,
      "ĠJay": 6444,
      "Ġimpl": 6445,
      "Ġaddress": 6446,
      "It": 6447,
      "itors": 6448,
      "Ġfoss": 6449,
      "Ġdivers": 6450,
      "ĠBad": 6451,
      "ĠWhe": 6452,
      "ĠNaz": 6453,
      "iller": 6454,
      "ĠVideo": 6455,
      "Ġcommitted": 6456,
      "Ġ1978": 6457,
      "Ġgeneration": 6458,
      "Ġreduce": 6459,
      "ĠMagazine": 6460,
      "Ġconcerns": 6461,
      "asa": 6462,
      "ĠBears": 6463,
      "aked": 6464,
      "Ġclust": 6465,
      "ĠTrack": 6466,
      "ĠEgyptian": 6467,
      "Ġratings": 6468,
      "bro": 6469,
      "Ġonline": 6470,
      "ĠPower": 6471,
      "ĠWelsh": 6472,
      "Ġchampion": 6473,
      "ĠStaff": 6474,
      "Ġparties": 6475,
      "Ġaccounts": 6476,
      "ĠSingles": 6477,
      "Ġpainting": 6478,
      "Ġrecommended": 6479,
      "Ġsam": 6480,
      "Ġdream": 6481,
      "ĠRa": 6482,
      "ĠChannel": 6483,
      "Ġimages": 6484,
      "Ġneither": 6485,
      "Ġbands": 6486,
      "Ġassistant": 6487,
      "Ġmort": 6488,
      "Ġham": 6489,
      "ĠFI": 6490,
      "okes": 6491,
      "Ġ1957": 6492,
      "Ġpenal": 6493,
      "Ġclean": 6494,
      "Ġpoetry": 6495,
      "wen": 6496,
      "ygen": 6497,
      "Ġtal": 6498,
      "Ġlibrary": 6499,
      "osite": 6500,
      "Ġcommunities": 6501,
      "ĠCastro": 6502,
      "Ġconsiderable": 6503,
      "ĠFrancisco": 6504,
      "Ġastron": 6505,
      "hi": 6506,
      "Ġpup": 6507,
      "ĠBang": 6508,
      "ĠJam": 6509,
      "Ġrum": 6510,
      "Ġrural": 6511,
      "wealth": 6512,
      "insula": 6513,
      "Ġstudied": 6514,
      "Ġhosted": 6515,
      "Ġremainder": 6516,
      "Ġfranchise": 6517,
      "ĠRos": 6518,
      "ĠRose": 6519,
      "ĠEdu": 6520,
      "Ġspons": 6521,
      "ĠVill": 6522,
      "Ġrecalled": 6523,
      "Ġmeters": 6524,
      "Ġinstalled": 6525,
      "Ġbasic": 6526,
      "Ġbegun": 6527,
      "Ġduties": 6528,
      "Ġsupposed": 6529,
      "ĠBrand": 6530,
      "Ġvon": 6531,
      "Ġmanner": 6532,
      "Ġactual": 6533,
      "ĠColor": 6534,
      "Ġvictims": 6535,
      "ĠPoland": 6536,
      "Ġtick": 6537,
      "ĠAv": 6538,
      "abled": 6539,
      "Ġrose": 6540,
      "Ġenemies": 6541,
      "Ġaccur": 6542,
      "ervative": 6543,
      "ĠPlot": 6544,
      "Ġ1954": 6545,
      "ĠMedia": 6546,
      "Ġderived": 6547,
      "Ġpurchase": 6548,
      "Ġod": 6549,
      "Ġliber": 6550,
      "acts": 6551,
      "ĠDE": 6552,
      "ĠKim": 6553,
      "Ġtrust": 6554,
      "Ġdesigns": 6555,
      "Ġcoastal": 6556,
      "Ġprincipal": 6557,
      "ĠJennings": 6558,
      "ĠAdditionally": 6559,
      "19": 6560,
      "gon": 6561,
      "oard": 6562,
      "rees": 6563,
      "orial": 6564,
      "Ġcart": 6565,
      "ĠGram": 6566,
      "Ġretained": 6567,
      "Ġ1963": 6568,
      "Ġcrossed": 6569,
      "oen": 6570,
      "Ġsty": 6571,
      "ĠNBC": 6572,
      "Ġitems": 6573,
      "Ġ1962": 6574,
      "Ġ140": 6575,
      "vements": 6576,
      "Ġbed": 6577,
      "asure": 6578,
      "ĠMTV": 6579,
      "ĠPoint": 6580,
      "Ġplug": 6581,
      "ĠHeart": 6582,
      "Ġattached": 6583,
      "Ġentering": 6584,
      "ĠScully": 6585,
      "Ġ1952": 6586,
      "ĠMadonna": 6587,
      "Ġancest": 6588,
      "oly": 6589,
      "zen": 6590,
      "Ġhope": 6591,
      "ĠMit": 6592,
      "ĠHug": 6593,
      "ĠFive": 6594,
      "Ġ89": 6595,
      "Ġskin": 6596,
      "Ġvoted": 6597,
      "Ġimmig": 6598,
      "ĠKentucky": 6599,
      "ji": 6600,
      "rating": 6601,
      "Ġcrop": 6602,
      "ads": 6603,
      "ĠBull": 6604,
      "ĠPow": 6605,
      "essee": 6606,
      "Ġsculpt": 6607,
      "orney": 6608,
      "Ġaccommod": 6609,
      "Ġacid": 6610,
      "ĠPortug": 6611,
      "monton": 6612,
      "rec": 6613,
      "Ġsession": 6614,
      "ĠMoon": 6615,
      "aph": 6616,
      "ĠStation": 6617,
      "Ġtrains": 6618,
      "Ġhybrid": 6619,
      "ĠIllino": 6620,
      "Ġoccasionally": 6621,
      "ĠCommonwealth": 6622,
      "Ġadapted": 6623,
      "after": 6624,
      "Ġouter": 6625,
      "uty": 6626,
      "ĠWing": 6627,
      "ignment": 6628,
      "aret": 6629,
      "Ġconsum": 6630,
      "ructure": 6631,
      "pet": 6632,
      "rot": 6633,
      "ilation": 6634,
      "eld": 6635,
      "ĠNFL": 6636,
      "ĠInt": 6637,
      "Ġretreat": 6638,
      "Ġaccused": 6639,
      "Ġowner": 6640,
      "Ġconvin": 6641,
      "ĠConfeder": 6642,
      "Ch": 6643,
      "Sh": 6644,
      "Ġtheatre": 6645,
      "roit": 6646,
      "ĠHospital": 6647,
      "Ġdecline": 6648,
      "Ġ1937": 6649,
      "Ġheads": 6650,
      "Ġportrayed": 6651,
      "gus": 6652,
      "know": 6653,
      "Ġfur": 6654,
      "ĠTrib": 6655,
      "ĠCult": 6656,
      "ivals": 6657,
      "ĠDNA": 6658,
      "ocal": 6659,
      "ĠStadium": 6660,
      "weight": 6661,
      "Ġ84": 6662,
      "ĠNorwe": 6663,
      "Ġseemed": 6664,
      "Ġinterpret": 6665,
      "ĠWeekly": 6666,
      "Ġcamera": 6667,
      "eke": 6668,
      "Ġ*": 6669,
      "Ġtell": 6670,
      "ĠAz": 6671,
      "urrent": 6672,
      "Ġreserve": 6673,
      "Ġcharges": 6674,
      "rams": 6675,
      "Ġdowntown": 6676,
      "Ġevening": 6677,
      "encies": 6678,
      "Ġsounds": 6679,
      "Ġdenied": 6680,
      "Ġequipped": 6681,
      "ĠTennessee": 6682,
      "Å¡": 6683,
      "eral": 6684,
      "eno": 6685,
      "iger": 6686,
      "ĠHit": 6687,
      "ĠWright": 6688,
      "ĠGordon": 6689,
      "opes": 6690,
      "Ġprey": 6691,
      "Ġcolour": 6692,
      "Ġinvited": 6693,
      "Ġprovince": 6694,
      "Ġautom": 6695,
      "Ġterminus": 6696,
      "Ġmassive": 6697,
      "Ġnarrative": 6698,
      "Ġassistance": 6699,
      "Ġsynthes": 6700,
      "ĠHoward": 6701,
      "ĠTransport": 6702,
      "Ġincorporated": 6703,
      "ĠPitts": 6704,
      "Ġnegoti": 6705,
      "ĠOttoman": 6706,
      "30": 6707,
      "ĠEs": 6708,
      "Ġago": 6709,
      "anny": 6710,
      "Ġdescribing": 6711,
      "Ġstatement": 6712,
      "Ġsolid": 6713,
      "Ġmissed": 6714,
      "Ġwooden": 6715,
      "ĠBrazil": 6716,
      "fire": 6717,
      "ĠCop": 6718,
      "Ġconvent": 6719,
      "othing": 6720,
      "Ġequivalent": 6721,
      "Ġoxygen": 6722,
      "Å«": 6723,
      "Ġstret": 6724,
      "ĠRain": 6725,
      "Ġobjects": 6726,
      "Ġabsor": 6727,
      "Ġproposal": 6728,
      "oh": 6729,
      "ompl": 6730,
      "ĠBall": 6731,
      "ĠKel": 6732,
      "Ġotherwise": 6733,
      "Ġflu": 6734,
      "Ġfled": 6735,
      "Ġbreaking": 6736,
      "Ġpossibility": 6737,
      "Ġcombination": 6738,
      "Ġchallenge": 6739,
      "aya": 6740,
      "Ġcharged": 6741,
      "Ġneeds": 6742,
      "Ġglass": 6743,
      "Ġcircum": 6744,
      "Ġdifficulty": 6745,
      "Ġsettled": 6746,
      "Ġsegment": 6747,
      "ĠISBN": 6748,
      "Ġstreets": 6749,
      "ĠOd": 6750,
      "Ġdisturb": 6751,
      "Ġcrim": 6752,
      "Ġstrongly": 6753,
      "Ġrevolution": 6754,
      "ĠSerb": 6755,
      "Ġcompletion": 6756,
      "ĠPakistan": 6757,
      "ĠIllinois": 6758,
      "organ": 6759,
      "aints": 6760,
      "Ġsomeone": 6761,
      "Ġimplement": 6762,
      "ĠClin": 6763,
      "Ġseparated": 6764,
      "Ġbringing": 6765,
      "Ġfolk": 6766,
      "ĠTs": 6767,
      "ĠSel": 6768,
      "Ġmedieval": 6769,
      "Ġeffectively": 6770,
      "Ġcrash": 6771,
      "Ġvalley": 6772,
      "Ġneighbor": 6773,
      "Ġvessels": 6774,
      "rum": 6775,
      "hered": 6776,
      "erted": 6777,
      "icit": 6778,
      "ĠTreat": 6779,
      "ĠFame": 6780,
      "ĠIntern": 6781,
      "Ġcloud": 6782,
      "Ġacclaim": 6783,
      "Ġopera": 6784,
      "Ġ1936": 6785,
      "Ġprotagonist": 6786,
      "Ġauthors": 6787,
      "bound": 6788,
      "ÅĤ": 6789,
      "Ġcategory": 6790,
      "Ġraces": 6791,
      "ĠUt": 6792,
      "Ġremix": 6793,
      "Ġaccompl": 6794,
      "Ġspecifically": 6795,
      "Ġgrant": 6796,
      "Ġcauses": 6797,
      "Ġpitched": 6798,
      "ati": 6799,
      "Ġmode": 6800,
      "Ġnav": 6801,
      "ĠRoy": 6802,
      "Ġdestruction": 6803,
      "ĠManning": 6804,
      "Ġclubs": 6805,
      "Ġindependence": 6806,
      "Ġestablishment": 6807,
      "Ġattributed": 6808,
      "aired": 6809,
      "Ġcard": 6810,
      "Ġcinem": 6811,
      "anth": 6812,
      "Ġmine": 6813,
      "ĠCirc": 6814,
      "ĠHor": 6815,
      "Ġheat": 6816,
      "Ġvent": 6817,
      "akers": 6818,
      "Ġshop": 6819,
      "Ġdebate": 6820,
      "ĠPlayer": 6821,
      "Ġcruiser": 6822,
      "Ġstayed": 6823,
      "bridge": 6824,
      "icians": 6825,
      "ĠSher": 6826,
      "ĠIra": 6827,
      "umin": 6828,
      "abe": 6829,
      "Ġintention": 6830,
      "Ġoutbreak": 6831,
      "iversary": 6832,
      "Ġpromote": 6833,
      "Ġdissip": 6834,
      "Ġcolonial": 6835,
      "ĠDetroit": 6836,
      "enz": 6837,
      "ĠBa": 6838,
      "ĠYe": 6839,
      "Ġmodels": 6840,
      "Ġclassified": 6841,
      "Ġspeaking": 6842,
      "Ġinvolving": 6843,
      "Ġsurviving": 6844,
      "Ġfeeling": 6845,
      "ĠCroatia": 6846,
      "Ġprice": 6847,
      "Ġresistance": 6848,
      "ĠUlt": 6849,
      "cation": 6850,
      "Ġsnow": 6851,
      "ĠSpok": 6852,
      "Ġfunctions": 6853,
      "Ġfields": 6854,
      "Ġslowly": 6855,
      "ĠShakesp": 6856,
      "Ġbacter": 6857,
      "Ġpage": 6858,
      "ĠTam": 6859,
      "rior": 6860,
      "ĠObs": 6861,
      "Ġresear": 6862,
      "Ġpolitics": 6863,
      "ĠNorwegian": 6864,
      "Ġsons": 6865,
      "Ġinner": 6866,
      "Ġgiant": 6867,
      "Ġplayoff": 6868,
      "Ġregiment": 6869,
      "ĠDeath": 6870,
      "ĠUSA": 6871,
      "Ġreplacement": 6872,
      "Ġvolcan": 6873,
      "Ġfunding": 6874,
      "Ġemerged": 6875,
      "Ġninth": 6876,
      "ĠDirector": 6877,
      "adow": 6878,
      "ĠFire": 6879,
      "ĠArgent": 6880,
      "Ġflank": 6881,
      "ĠCarter": 6882,
      "Ġrestaur": 6883,
      "Ġtemporary": 6884,
      "Ġcomposer": 6885,
      "Ġrescue": 6886,
      "wall": 6887,
      "Ġtie": 6888,
      "ĠTar": 6889,
      "ĠCy": 6890,
      "ĠRon": 6891,
      "rage": 6892,
      "agle": 6893,
      "upt": 6894,
      "Ġseed": 6895,
      "ĠAlan": 6896,
      "Ġsongwrit": 6897,
      "ĠScience": 6898,
      "Ġmathem": 6899,
      "Ġpassengers": 6900,
      "risis": 6901,
      "Ġ1910": 6902,
      "ĠDavis": 6903,
      "ĠSimilar": 6904,
      "Ġrenew": 6905,
      "Ġfighter": 6906,
      "Ġhal": 6907,
      "ĠMemorial": 6908,
      "ĠBird": 6909,
      "ĠOb": 6910,
      "Ġplane": 6911,
      "Ġshots": 6912,
      "Ġyouth": 6913,
      "ĠUnivers": 6914,
      "Ġattracted": 6915,
      "Ġdecor": 6916,
      "Ġwarm": 6917,
      "Ġtransm": 6918,
      "Ġoffices": 6919,
      "Ġ1938": 6920,
      "Ġcopy": 6921,
      "Ġworst": 6922,
      "Ġalleged": 6923,
      "ooth": 6924,
      "put": 6925,
      "onia": 6926,
      "Ġfear": 6927,
      "ĠImp": 6928,
      "udden": 6929,
      "ĠVII": 6930,
      "ogether": 6931,
      "Ġtransition": 6932,
      "Ġstands": 6933,
      "Ġsequel": 6934,
      "Ġinhabit": 6935,
      "Ġble": 6936,
      "ilton": 6937,
      "ĠAcc": 6938,
      "ĠNether": 6939,
      "ĠInit": 6940,
      "Ġassemb": 6941,
      "Ġcargo": 6942,
      "ĠBeat": 6943,
      "scape": 6944,
      "Ġinvestigation": 6945,
      "osaurus": 6946,
      "ador": 6947,
      "ĠLanc": 6948,
      "ibl": 6949,
      "Ġgreatly": 6950,
      "Ġarmor": 6951,
      "Ġsatisf": 6952,
      "ĠCritical": 6953,
      "Ġresources": 6954,
      "Ġcul": 6955,
      "Ġet": 6956,
      "char": 6957,
      "ĠFront": 6958,
      "Ġteen": 6959,
      "Ġformal": 6960,
      "ĠSpace": 6961,
      "Ġfinishing": 6962,
      "Ġinvolvement": 6963,
      "This": 6964,
      "Ġgraphics": 6965,
      "ĠCuba": 6966,
      "Ġec": 6967,
      "Ġgard": 6968,
      "andy": 6969,
      "ĠKap": 6970,
      "Ġraise": 6971,
      "Ġreinforce": 6972,
      "Ġcertified": 6973,
      "Ġunusual": 6974,
      "amm": 6975,
      "acent": 6976,
      "iders": 6977,
      "ĠRAF": 6978,
      "ĠEy": 6979,
      "Ġshore": 6980,
      "ĠChron": 6981,
      "Ġjump": 6982,
      "Ġregional": 6983,
      "ika": 6984,
      "Ġ1961": 6985,
      "Ġextension": 6986,
      "ĠGuy": 6987,
      "Ġreality": 6988,
      "Ġswim": 6989,
      "ĠForest": 6990,
      "ĠEvery": 6991,
      "Ġille": 6992,
      "asaki": 6993,
      "ĠHin": 6994,
      "osm": 6995,
      "ĠJan": 6996,
      "riors": 6997,
      "rang": 6998,
      "ĠYour": 6999,
      "Ġ1959": 7000,
      "Ġpole": 7001,
      "Ġ1935": 7002,
      "Ġseeing": 7003,
      "Ġbasketball": 7004,
      "CC": 7005,
      "Ê»": 7006,
      "ĠBul": 7007,
      "uble": 7008,
      "Ġacts": 7009,
      "ĠEdmonton": 7010,
      "Ġopposite": 7011,
      "Ġflew": 7012,
      "Ġrecognition": 7013,
      "Ġromantic": 7014,
      "ĠColorado": 7015,
      "oral": 7016,
      "ĠRem": 7017,
      "ewhat": 7018,
      "Ġunion": 7019,
      "Ġinterested": 7020,
      "Ġrelative": 7021,
      "Ġinstall": 7022,
      "going": 7023,
      "Ġchapter": 7024,
      "ĠBetween": 7025,
      "ano": 7026,
      "Ġstream": 7027,
      "ĠRun": 7028,
      "Ġjun": 7029,
      "Ġlongest": 7030,
      "Ġobtain": 7031,
      "ĠWho": 7032,
      "ĠRecording": 7033,
      "Ġcosts": 7034,
      "Ġassociation": 7035,
      "Ġresponsibility": 7036,
      "Ġsuperior": 7037,
      "Ġexception": 7038,
      "Ġsailed": 7039,
      "Ġpound": 7040,
      "ĠAround": 7041,
      "Ġeat": 7042,
      "ĠJournal": 7043,
      "Ġacknow": 7044,
      "ĠScient": 7045,
      "Ġwarning": 7046,
      "Ġpassage": 7047,
      "Ġruled": 7048,
      "Ġdistributed": 7049,
      "ĠMontana": 7050,
      "Ġsupporters": 7051,
      "Ġfal": 7052,
      "Ġban": 7053,
      "Ġlob": 7054,
      "Ġash": 7055,
      "Ġstock": 7056,
      "ĠPier": 7057,
      "ĠNick": 7058,
      "Ġvide": 7059,
      "Ġassumed": 7060,
      "Ġcharacteristics": 7061,
      "Ġ1933": 7062,
      "Ġlowest": 7063,
      "Ġensure": 7064,
      "Ġchemical": 7065,
      "ĠCas": 7066,
      "ĠCook": 7067,
      "igen": 7068,
      "ivan": 7069,
      "Ġmusicians": 7070,
      "Ġmilit": 7071,
      "Ġtechniques": 7072,
      "Ġcollapse": 7073,
      "Ġinspiration": 7074,
      "Ġcontroversy": 7075,
      "Ġwickets": 7076,
      "wa": 7077,
      "Ġfine": 7078,
      "ĠAI": 7079,
      "Ġrich": 7080,
      "ugby": 7081,
      "Ġoperate": 7082,
      "ĠTelevision": 7083,
      "ĠResearch": 7084,
      "Ġdeparture": 7085,
      "Ġsomewhat": 7086,
      "eare": 7087,
      "nings": 7088,
      "Ġcra": 7089,
      "ĠMaster": 7090,
      "ĠWomen": 7091,
      "ĠNar": 7092,
      "Ġintense": 7093,
      "Ġtrained": 7094,
      "Ġdemand": 7095,
      "Ġfalling": 7096,
      "Ġbattleships": 7097,
      "ĠGeorgia": 7098,
      "MA": 7099,
      "reck": 7100,
      "Ġwearing": 7101,
      "Ġpure": 7102,
      "Ġdress": 7103,
      "ĠTok": 7104,
      "agre": 7105,
      "veland": 7106,
      "Ġrestored": 7107,
      "ĠGuitar": 7108,
      "ĠHarris": 7109,
      "ĠCentre": 7110,
      "Ġgrounds": 7111,
      "Ġhoped": 7112,
      "Ġgarrison": 7113,
      "Ġpenalty": 7114,
      "Ġwings": 7115,
      "Ġray": 7116,
      "ĠAlf": 7117,
      "ĠMarc": 7118,
      "Ġmeets": 7119,
      "ĠReal": 7120,
      "Ġobl": 7121,
      "ĠAdam": 7122,
      "Ġskills": 7123,
      "ĠOrgan": 7124,
      "Ġpersu": 7125,
      "Ġexperiences": 7126,
      "Ġrecovered": 7127,
      "ĠTemple": 7128,
      "ban": 7129,
      "rine": 7130,
      "ĠAge": 7131,
      "idge": 7132,
      "abil": 7133,
      "Ġready": 7134,
      "Ġcirculation": 7135,
      "Ġcheck": 7136,
      "ĠJustice": 7137,
      "Ġbehavior": 7138,
      "orough": 7139,
      "Ġmunicip": 7140,
      "ĠTy": 7141,
      "ĠSports": 7142,
      "ĠBuff": 7143,
      "ĠHorn": 7144,
      "ĠNative": 7145,
      "ĠHeb": 7146,
      "Ġcanc": 7147,
      "ronze": 7148,
      "Ġpointed": 7149,
      "Ġ1951": 7150,
      "spec": 7151,
      "Ġpraise": 7152,
      "Ġfacility": 7153,
      "Ġproperties": 7154,
      "borne": 7155,
      "aug": 7156,
      "Ġvan": 7157,
      "ĠOk": 7158,
      "Ġuniform": 7159,
      "Ġmoves": 7160,
      "Ġdifference": 7161,
      "Ġrepresenting": 7162,
      "Ġholds": 7163,
      "Ġconcerned": 7164,
      "Ġweapon": 7165,
      "gets": 7166,
      "ĠMD": 7167,
      "Ġbear": 7168,
      "Ġru": 7169,
      "ĠStand": 7170,
      "Ġremn": 7171,
      "Ġflo": 7172,
      "rett": 7173,
      "Ġbatting": 7174,
      "fare": 7175,
      "inger": 7176,
      "ĠNash": 7177,
      "agher": 7178,
      "ĠThird": 7179,
      "Ġ1949": 7180,
      "ĠConstitution": 7181,
      "Ġdriven": 7182,
      "ĠÃĹ": 7183,
      "Ġdetermine": 7184,
      "ĠMiller": 7185,
      "Ġhabitat": 7186,
      "ĠShakespeare": 7187,
      "oslav": 7188,
      "ĠThus": 7189,
      "Ġ83": 7190,
      "ographical": 7191,
      "Ġflights": 7192,
      "Ġnucle": 7193,
      "Ġpige": 7194,
      "ĠNHL": 7195,
      "hr": 7196,
      "ture": 7197,
      "ËĪ": 7198,
      "Ġdating": 7199,
      "sole": 7200,
      "Ġcann": 7201,
      "arsh": 7202,
      "ĠMcK": 7203,
      "ĠKevin": 7204,
      "Ġhotel": 7205,
      "ĠToday": 7206,
      "eenth": 7207,
      "Ġwins": 7208,
      "Ġocean": 7209,
      "Ġmap": 7210,
      "Ġnone": 7211,
      "Ġ06": 7212,
      "encing": 7213,
      "Ġdiscussed": 7214,
      "Ġmethods": 7215,
      "Ġdocumentary": 7216,
      "Ġhundreds": 7217,
      "Ġemotional": 7218,
      "Ġatmosphere": 7219,
      "ĠRolling": 7220,
      "Ġscheme": 7221,
      "bell": 7222,
      "dy": 7223,
      "iot": 7224,
      "ĠDal": 7225,
      "ultane": 7226,
      "Ġsuperv": 7227,
      "Ġanimated": 7228,
      "Ġcalc": 7229,
      "Ġchalleng": 7230,
      "Ġintersection": 7231,
      "Ġathletes": 7232,
      "don": 7233,
      "Äĥ": 7234,
      "Ġmo": 7235,
      "Ġdiver": 7236,
      "Ġgone": 7237,
      "Ġstood": 7238,
      "ĠLim": 7239,
      "Ġincome": 7240,
      "Ġcrest": 7241,
      "Ġeleven": 7242,
      "Ġski": 7243,
      "Ġeveryone": 7244,
      "regon": 7245,
      "ĠSupreme": 7246,
      "Ġpredecess": 7247,
      "Ġdipl": 7248,
      "Ġstead": 7249,
      "Ġreconst": 7250,
      "Ġafterwards": 7251,
      "Ġdesire": 7252,
      "Ġformally": 7253,
      "Ġattacking": 7254,
      "Ġcourts": 7255,
      "Ġelse": 7256,
      "Ġranking": 7257,
      "Ġcycle": 7258,
      "ĠPortland": 7259,
      "ĠKorea": 7260,
      "ĠSpokane": 7261,
      "chen": 7262,
      "Ġsudden": 7263,
      "irates": 7264,
      "ryst": 7265,
      "aws": 7266,
      "Ġcanal": 7267,
      "Ġmining": 7268,
      "Ġdepict": 7269,
      "Ġowners": 7270,
      "Ġdifferences": 7271,
      "ĠChampionships": 7272,
      "ĠMaryland": 7273,
      "Ġlegislation": 7274,
      "ĠKorean": 7275,
      "Ġdelayed": 7276,
      "ĠPremier": 7277,
      "Be": 7278,
      "hus": 7279,
      "Ġdub": 7280,
      "ĠSky": 7281,
      "using": 7282,
      "emed": 7283,
      "ĠDomin": 7284,
      "oyd": 7285,
      "ribed": 7286,
      "viation": 7287,
      "Ġlocomot": 7288,
      "Ġhistorians": 7289,
      "ĠCleveland": 7290,
      "ĠCroatian": 7291,
      "Ġmemory": 7292,
      "edding": 7293,
      "Ġstere": 7294,
      "ãĢ": 7295,
      "osure": 7296,
      "usted": 7297,
      "ĠSega": 7298,
      "Ġreviewer": 7299,
      "ĠHonor": 7300,
      "Ġthirty": 7301,
      "Ġchorus": 7302,
      "ĠWWE": 7303,
      "ĠãĢ": 7304,
      "ĠNaval": 7305,
      "atton": 7306,
      "Ġconclusion": 7307,
      "ĠDean": 7308,
      "Ġdominated": 7309,
      "ĠModern": 7310,
      "ĠRoger": 7311,
      "ĠPittsburgh": 7312,
      "Ġbright": 7313,
      "ĠTechn": 7314,
      "ĠCE": 7315,
      "ĠBir": 7316,
      "eton": 7317,
      "Ġregistered": 7318,
      "Ġcontinuing": 7319,
      "Ġappearing": 7320,
      "Ġsuffering": 7321,
      "Ġmaterials": 7322,
      "Ġjournalist": 7323,
      "Ġpremiere": 7324,
      "ĠDisney": 7325,
      "Ġexecuted": 7326,
      "ĠAlbums": 7327,
      "icts": 7328,
      "ĠCole": 7329,
      "ĠWard": 7330,
      "ĠNow": 7331,
      "ĠOregon": 7332,
      "Ġreserv": 7333,
      "Ġverse": 7334,
      "Ġassass": 7335,
      "Ġ08": 7336,
      "Ġterritories": 7337,
      "Ġvisitors": 7338,
      "SP": 7339,
      "mun": 7340,
      "icate": 7341,
      "ĠSab": 7342,
      "stances": 7343,
      "ĠKnow": 7344,
      "ĠâĢĿ": 7345,
      "Ġaboard": 7346,
      "onds": 7347,
      "Ġanyone": 7348,
      "Ġgrade": 7349,
      "Ġhanded": 7350,
      "Ġinjuries": 7351,
      "Ġregularly": 7352,
      "Ġderiv": 7353,
      "Ġpremiered": 7354,
      "Ġstrengthen": 7355,
      "ropolitan": 7356,
      "ĠIraq": 7357,
      "Ġwrest": 7358,
      "Ġlat": 7359,
      "Ġloyal": 7360,
      "Ġneck": 7361,
      "Ġalleg": 7362,
      "ĠLabor": 7363,
      "Ġchannel": 7364,
      "Ġdispl": 7365,
      "Ġ900": 7366,
      "Ġinterests": 7367,
      "ĠRele": 7368,
      "Ġ1931": 7369,
      "Ġvisible": 7370,
      "Ġclaiming": 7371,
      "Ġnovels": 7372,
      "Ġacademic": 7373,
      "ĠClinton": 7374,
      "Ġsale": 7375,
      "Ġdin": 7376,
      "Ġdie": 7377,
      "ĠBudd": 7378,
      "ĠPass": 7379,
      "ĠRap": 7380,
      "Ġveter": 7381,
      "Ġ92": 7382,
      "Ġforming": 7383,
      "Ġ1932": 7384,
      "ĠCorporation": 7385,
      "ĠAgain": 7386,
      "Ġcruisers": 7387,
      "Ġemergency": 7388,
      "ĠSweden": 7389,
      "ĠNetherlands": 7390,
      "Ġsiege": 7391,
      "Ġcrown": 7392,
      "ĠCategory": 7393,
      "ĠHop": 7394,
      "ĠGun": 7395,
      "ĠGirl": 7396,
      "ctor": 7397,
      "rait": 7398,
      "Ġsecured": 7399,
      "ugoslav": 7400,
      "ĠAdvent": 7401,
      "Ġdetailed": 7402,
      "Ġreviewers": 7403,
      "ĠAtlant": 7404,
      "Ġtribes": 7405,
      "Ġpreferred": 7406,
      "Ġsight": 7407,
      "Ġlake": 7408,
      "aste": 7409,
      "ubble": 7410,
      "Ġrecru": 7411,
      "Ġagree": 7412,
      "Ġsym": 7413,
      "tenance": 7414,
      "Ġdepicted": 7415,
      "Ġautobi": 7416,
      "Ġ1890": 7417,
      "iece": 7418,
      "Ġvillages": 7419,
      "Ġcreator": 7420,
      "Ġimmediate": 7421,
      "Ġtemperatures": 7422,
      "Ġbehavi": 7423,
      "ĠProfess": 7424,
      "hm": 7425,
      "Ġpin": 7426,
      "ĠDor": 7427,
      "Ġhear": 7428,
      "ĠâĢľ": 7429,
      "Ġcancer": 7430,
      "Ġ1921": 7431,
      "ĠMississ": 7432,
      "Ġinstruments": 7433,
      "ĠDemocratic": 7434,
      "ĠJesus": 7435,
      "Ġsessions": 7436,
      "Ġpull": 7437,
      "usic": 7438,
      "ĠRoll": 7439,
      "ĠDisc": 7440,
      "odia": 7441,
      "Ġexpect": 7442,
      "Ġsurviv": 7443,
      "Ġemployees": 7444,
      "Ġachieve": 7445,
      "atinum": 7446,
      "Ġridge": 7447,
      "ĠWinter": 7448,
      "ĠJacob": 7449,
      "Ne": 7450,
      "ali": 7451,
      "ĠIv": 7452,
      "text": 7453,
      "Ġconsp": 7454,
      "Ġconstant": 7455,
      "ĠWithin": 7456,
      "Ġ1880": 7457,
      "Ġindicate": 7458,
      "Ġexcav": 7459,
      "ĠRhodesia": 7460,
      "ĠExpress": 7461,
      "ĠMulder": 7462,
      "From": 7463,
      "cious": 7464,
      "pan": 7465,
      "Ġsalt": 7466,
      "icity": 7467,
      "ĠTony": 7468,
      "ĠCold": 7469,
      "ĠBishop": 7470,
      "ĠHu": 7471,
      "ĠEle": 7472,
      "ĠâĤ": 7473,
      "Ġinfluential": 7474,
      "Ġcollaps": 7475,
      "ĠGlen": 7476,
      "Ġcloser": 7477,
      "Ġfavorite": 7478,
      "Ġexamples": 7479,
      "ds": 7480,
      "Ġtaught": 7481,
      "Ġwrong": 7482,
      "Ġbes": 7483,
      "roe": 7484,
      "oust": 7485,
      "ĠRat": 7486,
      "Ġexcess": 7487,
      "ĠSeattle": 7488,
      "Ġleads": 7489,
      "Ġimpressed": 7490,
      "AR": 7491,
      "erick": 7492,
      "Ġbon": 7493,
      "ĠCer": 7494,
      "Ġgets": 7495,
      "sex": 7496,
      "Ġkid": 7497,
      "ennis": 7498,
      "Ġdetail": 7499,
      "Ġperiods": 7500,
      "ĠSimon": 7501,
      "Ġbombers": 7502,
      "Ġfalls": 7503,
      "ĠCrown": 7504,
      "ĠQueens": 7505,
      "Ġtreaty": 7506,
      "Ġbiggest": 7507,
      "Ġadaptation": 7508,
      "ĠNelson": 7509,
      "ĠÅ": 7510,
      "uscript": 7511,
      "osis": 7512,
      "ĠStr": 7513,
      "Ġadults": 7514,
      "ĠMario": 7515,
      "ĠNewton": 7516,
      "Ġpoems": 7517,
      "Ġrelationships": 7518,
      "Ġphotograph": 7519,
      "Ġfrequent": 7520,
      "Ġdegrees": 7521,
      "Ġsettlers": 7522,
      "ĠDesign": 7523,
      "Ġtruck": 7524,
      "ĠShortly": 7525,
      "ache": 7526,
      "ĠIron": 7527,
      "ĠWolf": 7528,
      "Ġspend": 7529,
      "Ġtele": 7530,
      "ĠYugoslav": 7531,
      "Ġquant": 7532,
      "Ġprogramme": 7533,
      "Ġtemple": 7534,
      "Ġtechnique": 7535,
      "aska": 7536,
      "Ġinformed": 7537,
      "Ġsurrounded": 7538,
      "ĠLegacy": 7539,
      "ĠAnthony": 7540,
      "gram": 7541,
      "Ġsqu": 7542,
      "ĠRaj": 7543,
      "ĠDog": 7544,
      "oked": 7545,
      "ĠLeon": 7546,
      "Ġmovements": 7547,
      "ĠForces": 7548,
      "Ġinfluences": 7549,
      "Ġfactors": 7550,
      "Ã±": 7551,
      "alions": 7552,
      "Ġmemorial": 7553,
      "ece": 7554,
      "ĠEst": 7555,
      "Ġvic": 7556,
      "Ġsupern": 7557,
      "Ġcolony": 7558,
      "Ġemperor": 7559,
      "ahir": 7560,
      "ossible": 7561,
      "ĠFlight": 7562,
      "Ġmagic": 7563,
      "Ġengineer": 7564,
      "Ġquestions": 7565,
      "ĠMichel": 7566,
      "ĠConstruction": 7567,
      "10": 7568,
      "noon": 7569,
      "Ġsan": 7570,
      "orrow": 7571,
      "ilst": 7572,
      "ĠRachel": 7573,
      "Ġ1900": 7574,
      "Ġcomments": 7575,
      "Ġdeleg": 7576,
      "ardine": 7577,
      "Ġsees": 7578,
      "ĠKong": 7579,
      "Ġrooms": 7580,
      "Ġtex": 7581,
      "phy": 7582,
      "Ġcommemor": 7583,
      "ĠMarg": 7584,
      "ĠEdge": 7585,
      "ĠBeach": 7586,
      "Ġorganizations": 7587,
      "ĠGiants": 7588,
      "Ġglobal": 7589,
      "Ġdeployed": 7590,
      "rim": 7591,
      "Ġgods": 7592,
      "agen": 7593,
      "ategy": 7594,
      "Ġthereafter": 7595,
      "Ġstrategy": 7596,
      "Ġdefeating": 7597,
      "Ġgenetic": 7598,
      "Ġstarred": 7599,
      "Ġlanguages": 7600,
      "Ġpresidential": 7601,
      "ĠTurk": 7602,
      "onymous": 7603,
      "Ġconvinced": 7604,
      "Ġturb": 7605,
      "Ġeasy": 7606,
      "ĠLibrary": 7607,
      "aba": 7608,
      "Ġreleases": 7609,
      "ologists": 7610,
      "ĠDead": 7611,
      "Ġsuccessor": 7612,
      "Ġtries": 7613,
      "Ġbelieves": 7614,
      "Ġvictories": 7615,
      "Ġcoins": 7616,
      "Ġdismissed": 7617,
      "Ġeggs": 7618,
      "ĠEducation": 7619,
      "ĠAzer": 7620,
      "ĠMack": 7621,
      "ĠGen": 7622,
      "ghan": 7623,
      "ĠHealth": 7624,
      "Ġovers": 7625,
      "Ġpartner": 7626,
      "overe": 7627,
      "issions": 7628,
      "ĠLev": 7629,
      "Ġ1911": 7630,
      "ĠCommander": 7631,
      "ĠHarper": 7632,
      "ĠRussell": 7633,
      "Ġobservations": 7634,
      "Ġarrangement": 7635,
      "Ġisolated": 7636,
      "ĠTit": 7637,
      "aine": 7638,
      "ĠEric": 7639,
      "Ġappropri": 7640,
      "Ġimpress": 7641,
      "Ġanniversary": 7642,
      "ĠCanal": 7643,
      "Ġlegs": 7644,
      "Ġcrosses": 7645,
      "Ġengineering": 7646,
      "Ġtraveled": 7647,
      "ĠGuardian": 7648,
      "Ġsubstantial": 7649,
      "overeign": 7650,
      "Ġtone": 7651,
      "itzer": 7652,
      "oster": 7653,
      "Ġattempting": 7654,
      "Ġopponents": 7655,
      "Ġlooked": 7656,
      "Ġunderstand": 7657,
      "Ġrarely": 7658,
      "ĠNapole": 7659,
      "ekend": 7660,
      "ĠTan": 7661,
      "ĠBaby": 7662,
      "Ġgather": 7663,
      "Ġvision": 7664,
      "Ġchain": 7665,
      "arked": 7666,
      "Ġreturns": 7667,
      "Ġtrials": 7668,
      "Ġelectron": 7669,
      "ĠSwedish": 7670,
      "jo": 7671,
      "wich": 7672,
      "where": 7673,
      "Ġfighters": 7674,
      "ĠSull": 7675,
      "ĠHart": 7676,
      "chang": 7677,
      "ĠGib": 7678,
      "Ġexisted": 7679,
      "Ġpartly": 7680,
      "Ġpublisher": 7681,
      "Ġconcrete": 7682,
      "Ġ1912": 7683,
      "Ġrailroad": 7684,
      "ĠPalest": 7685,
      "Ġjudge": 7686,
      "onnaissance": 7687,
      "Ġlinked": 7688,
      "Ġpicked": 7689,
      "Ġwatching": 7690,
      "Ġhappened": 7691,
      "Ġencouraged": 7692,
      "ĠWalker": 7693,
      "50": 7694,
      "book": 7695,
      "body": 7696,
      "icine": 7697,
      "ĠLast": 7698,
      "ĠNich": 7699,
      "Ġteaching": 7700,
      "Ġ170": 7701,
      "ucks": 7702,
      "Ġwithdrew": 7703,
      "ĠJews": 7704,
      "Ġunderstanding": 7705,
      "Ġscientists": 7706,
      "Ġaccompany": 7707,
      "Ġadjacent": 7708,
      "ĠThroughout": 7709,
      "cular": 7710,
      "onne": 7711,
      "ici": 7712,
      "ĠRaf": 7713,
      "Ġspoke": 7714,
      "Ġclimate": 7715,
      "iley": 7716,
      "Ġmanuscript": 7717,
      "Ġconsult": 7718,
      "Ġinstance": 7719,
      "Ġreportedly": 7720,
      "Ġmicro": 7721,
      "Ġretirement": 7722,
      "po": 7723,
      "pon": 7724,
      "yo": 7725,
      "Ġcateg": 7726,
      "aria": 7727,
      "Ġbridges": 7728,
      "Ġanime": 7729,
      "Ġrecre": 7730,
      "Ġformat": 7731,
      "Ġpossession": 7732,
      "Ġaffili": 7733,
      "Ġpainted": 7734,
      "ĠKhan": 7735,
      "ĠPersian": 7736,
      "Ġoccasions": 7737,
      "ĠHouston": 7738,
      "ĠTreaty": 7739,
      "nce": 7740,
      "icy": 7741,
      "Ġlap": 7742,
      "ĠBrig": 7743,
      "ĠDC": 7744,
      "ĠOt": 7745,
      "eyer": 7746,
      "Ġtruth": 7747,
      "Ġinterior": 7748,
      "obe": 7749,
      "Ġsymp": 7750,
      "Ġairport": 7751,
      "ĠWhit": 7752,
      "Ġtriang": 7753,
      "alford": 7754,
      "Ġdoesn": 7755,
      "Ġnormally": 7756,
      "ĠPhillies": 7757,
      "Ġchairman": 7758,
      "orous": 7759,
      "Ġfitted": 7760,
      "Ġbaby": 7761,
      "Ġment": 7762,
      "ĠDyn": 7763,
      "ĠJup": 7764,
      "Ġmodified": 7765,
      "Ġ1908": 7766,
      "rupted": 7767,
      "coming": 7768,
      "Ġfeelings": 7769,
      "Ġsafe": 7770,
      "Ġcontroversial": 7771,
      "Ġbulk": 7772,
      "Ġsubmarine": 7773,
      "Despite": 7774,
      "ti": 7775,
      "arning": 7776,
      "Ġpy": 7777,
      "icop": 7778,
      "Ġhill": 7779,
      "ĠAthlet": 7780,
      "oming": 7781,
      "ĠMort": 7782,
      "ĠPur": 7783,
      "ĠStory": 7784,
      "Ġpartially": 7785,
      "Ġafternoon": 7786,
      "Ġdefended": 7787,
      "Ġrequested": 7788,
      "Ġiniti": 7789,
      "Ġrounds": 7790,
      "ĠPolice": 7791,
      "Ġcredit": 7792,
      "ĠMississipp": 7793,
      "ko": 7794,
      "vens": 7795,
      "rep": 7796,
      "Ġsoul": 7797,
      "Ġworship": 7798,
      "Ġcabin": 7799,
      "Ġfishing": 7800,
      "Ġhappy": 7801,
      "ĠGh": 7802,
      "ifer": 7803,
      "aks": 7804,
      "Ġju": 7805,
      "Ġoutf": 7806,
      "Ġbelt": 7807,
      "Ġrestrict": 7808,
      "Ġ1905": 7809,
      "Ġencountered": 7810,
      "Ġvessel": 7811,
      "ĠGarden": 7812,
      "ĠBaseball": 7813,
      "Ġneighborhood": 7814,
      "ĠLisa": 7815,
      "uda": 7816,
      "Ġcommit": 7817,
      "Ġ1934": 7818,
      "Ġ1913": 7819,
      "Ġrefers": 7820,
      "Ġcompete": 7821,
      "Ġtrend": 7822,
      "Ġhunting": 7823,
      "Ġapparently": 7824,
      "ĠDragon": 7825,
      "species": 7826,
      "dale": 7827,
      "zz": 7828,
      "orage": 7829,
      "ĠSle": 7830,
      "Ġlies": 7831,
      "ĠBed": 7832,
      "ĠBru": 7833,
      "ivated": 7834,
      "uts": 7835,
      "Ġstable": 7836,
      "ĠDig": 7837,
      "ĠFederal": 7838,
      "ugu": 7839,
      "ĠSpe": 7840,
      "Ġsimultane": 7841,
      "Ġboil": 7842,
      "ĠMinistry": 7843,
      "Ġfacing": 7844,
      "Ġmeasures": 7845,
      "ĠTerrit": 7846,
      "Ġcollaboration": 7847,
      "Ġdollar": 7848,
      "ibbean": 7849,
      "Ġvideos": 7850,
      "power": 7851,
      "ĠBi": 7852,
      "Ġgirls": 7853,
      "ĠPed": 7854,
      "ĠDra": 7855,
      "Ġnotably": 7856,
      "pty": 7857,
      "Ġunn": 7858,
      "Ġunderw": 7859,
      "Ġwhereas": 7860,
      "Ġlanded": 7861,
      "Ġclassical": 7862,
      "Ġpersonality": 7863,
      "Ġdestroyers": 7864,
      "ĠPatrick": 7865,
      "Ġdeparted": 7866,
      "rator": 7867,
      "Ġinher": 7868,
      "Ġpool": 7869,
      "Ġmir": 7870,
      "ĠTun": 7871,
      "oto": 7872,
      "otes": 7873,
      "Ġrates": 7874,
      "Ġcomplic": 7875,
      "eping": 7876,
      "ĠMars": 7877,
      "ĠCaribbean": 7878,
      "ĠPhoen": 7879,
      "Ġprotest": 7880,
      "Ġrebels": 7881,
      "iliar": 7882,
      "ĠPanzer": 7883,
      "Ġdangerous": 7884,
      "ĠTurner": 7885,
      "Ġupgraded": 7886,
      "ĠHebrew": 7887,
      "bec": 7888,
      "hell": 7889,
      "Ġfiring": 7890,
      "Ġlane": 7891,
      "ĠHell": 7892,
      "Ġproport": 7893,
      "Ġlegend": 7894,
      "Ġresign": 7895,
      "Ġunderground": 7896,
      "Ġrecept": 7897,
      "Ġcarrier": 7898,
      "certain": 7899,
      "Ġannounce": 7900,
      "intin": 7901,
      "Ġdivisions": 7902,
      "Ġvotes": 7903,
      "Ġhousing": 7904,
      "ĠLouisiana": 7905,
      "Ġforests": 7906,
      "ois": 7907,
      "Ġthin": 7908,
      "ĠDa": 7909,
      "erset": 7910,
      "ĠNon": 7911,
      "Ġshale": 7912,
      "ricted": 7913,
      "Ġremember": 7914,
      "Ġmaintenance": 7915,
      "Ġ1924": 7916,
      "Ġlisting": 7917,
      "ĠPhilip": 7918,
      "Ġcrews": 7919,
      "Ġbombard": 7920,
      "Ġunsuccessful": 7921,
      "Ġacknowled": 7922,
      "ES": 7923,
      "Ġtenth": 7924,
      "itud": 7925,
      "Ġtoll": 7926,
      "ĠMills": 7927,
      "ĠDesc": 7928,
      "ques": 7929,
      "Ġresolution": 7930,
      "Ġbuy": 7931,
      "Ġgenerated": 7932,
      "ĠCountry": 7933,
      "Ġrepresentative": 7934,
      "Ġconvection": 7935,
      "Ġtreated": 7936,
      "Ġpercentage": 7937,
      "Ġdrawing": 7938,
      "yrus": 7939,
      "ĠFederer": 7940,
      "bra": 7941,
      "mith": 7942,
      "ta": 7943,
      "Ġdy": 7944,
      "ĠSax": 7945,
      "Ġthrew": 7946,
      "acon": 7947,
      "oles": 7948,
      "ĠRoc": 7949,
      "Ġchurches": 7950,
      "ogy": 7951,
      "Ġ164": 7952,
      "Ġimprison": 7953,
      "ĠWilf": 7954,
      "Ġsequences": 7955,
      "Ġutil": 7956,
      "Ġdiameter": 7957,
      "Ġdensity": 7958,
      "All": 7959,
      "wan": 7960,
      "alo": 7961,
      "ĠTel": 7962,
      "ĠMu": 7963,
      "Ġbeach": 7964,
      "ĠGirls": 7965,
      "Ġpartn": 7966,
      "enses": 7967,
      "axy": 7968,
      "ĠAdams": 7969,
      "Ġcovers": 7970,
      "Ġveget": 7971,
      "forced": 7972,
      "ĠRichardson": 7973,
      "ascar": 7974,
      "ĠGrammy": 7975,
      "Ġdiplom": 7976,
      "Ġsed": 7977,
      "Ġfestival": 7978,
      "ĠCru": 7979,
      "otyp": 7980,
      "ĠPy": 7981,
      "ĠRey": 7982,
      "ĠNob": 7983,
      "ĠNetwork": 7984,
      "oda": 7985,
      "Ġlearning": 7986,
      "Ġrecip": 7987,
      "Ġscen": 7988,
      "ternal": 7989,
      "Ġsoil": 7990,
      "Ġteamm": 7991,
      "Ġ09": 7992,
      "Ġpreserved": 7993,
      "Ġfounder": 7994,
      "Ġdescribe": 7995,
      "Ġ1870": 7996,
      "ĠSamuel": 7997,
      "ĠRhodesian": 7998,
      "Ġthrone": 7999,
      "Ġrecommend": 8000,
      "Ġscholar": 8001,
      "Ġnegotiations": 8002,
      "ĠJupiter": 8003,
      "Re": 8004,
      "Ãº": 8005,
      "Ġsunk": 8006,
      "ĠFound": 8007,
      "ĠJardine": 8008,
      "Ġride": 8009,
      "ĠThunder": 8010,
      "ĠUnlike": 8011,
      "Ġprime": 8012,
      "Ġnoir": 8013,
      "Ġenthus": 8014,
      "ĠJohnston": 8015,
      "ebe": 8016,
      "Ġchildhood": 8017,
      "helm": 8018,
      "Ġcriticised": 8019,
      "ĠHamilton": 8020,
      "nic": 8021,
      "rus": 8022,
      "tty": 8023,
      "entle": 8024,
      "urance": 8025,
      "ĠHere": 8026,
      "ĠDick": 8027,
      "ĠLate": 8028,
      "ĠJess": 8029,
      "Ġvul": 8030,
      "Ġcompounds": 8031,
      "ĠVice": 8032,
      "Ġsubt": 8033,
      "Ġcoordin": 8034,
      "Ġoperational": 8035,
      "Ġanticip": 8036,
      "alymp": 8037,
      "ĠSocial": 8038,
      "ĠConstantine": 8039,
      "Ġexerc": 8040,
      "OK": 8041,
      "Ġbid": 8042,
      "Ġha": 8043,
      "ĠNiel": 8044,
      "Ġdeemed": 8045,
      "ĠAlong": 8046,
      "ooking": 8047,
      "Ġrefuge": 8048,
      "Ġfreedom": 8049,
      "Ġdivor": 8050,
      "ĠSilver": 8051,
      "inction": 8052,
      "itter": 8053,
      "Ġcondom": 8054,
      "Ġsuit": 8055,
      "Ġspecimens": 8056,
      "ĠIndies": 8057,
      "Ġdesignation": 8058,
      "Ġ1926": 8059,
      "Ġgoods": 8060,
      "ĠGrant": 8061,
      "Ġnickn": 8062,
      "Ġtheore": 8063,
      "Ġcad": 8064,
      "ĠPA": 8065,
      "ĠFree": 8066,
      "Ġlem": 8067,
      "Ġclim": 8068,
      "Ġoffense": 8069,
      "ĠComb": 8070,
      "Ġelections": 8071,
      "Ġstorms": 8072,
      "ĠMadag": 8073,
      "Ġpowered": 8074,
      "Ġspiritual": 8075,
      "Ġcriminal": 8076,
      "Le": 8077,
      "iable": 8078,
      "uro": 8079,
      "Ġels": 8080,
      "Ġtests": 8081,
      "Ġwolf": 8082,
      "ĠCre": 8083,
      "Ġstem": 8084,
      "abama": 8085,
      "Ġplate": 8086,
      "Ġabund": 8087,
      "inder": 8088,
      "Ġpron": 8089,
      "ĠParalymp": 8090,
      "ĠMorgan": 8091,
      "Ġpermission": 8092,
      "ĠMississippi": 8093,
      "Ġelsewhere": 8094,
      "ns": 8095,
      "Ġwolves": 8096,
      "ĠHorse": 8097,
      "ema": 8098,
      "Ġanaly": 8099,
      "Ġhearing": 8100,
      "oken": 8101,
      "Ġintent": 8102,
      "Ġenh": 8103,
      "Ġfoundation": 8104,
      "Ġdiscip": 8105,
      "iveness": 8106,
      "sequently": 8107,
      "Ġhistoric": 8108,
      "ihanna": 8109,
      "ĠLawrence": 8110,
      "Ġthousand": 8111,
      "hatt": 8112,
      "ori": 8113,
      "itals": 8114,
      "Ġcode": 8115,
      "thm": 8116,
      "Ġrit": 8117,
      "Ġagents": 8118,
      "Ġsubspecies": 8119,
      "Ġdifficulties": 8120,
      "Ġabsol": 8121,
      "Ġabsence": 8122,
      "Ġprevented": 8123,
      "Ġpicture": 8124,
      "Ġstyles": 8125,
      "Ġjunior": 8126,
      "Ġtub": 8127,
      "Ġske": 8128,
      "orious": 8129,
      "lets": 8130,
      "idi": 8131,
      "ĠJin": 8132,
      "Ġpregn": 8133,
      "ĠSeven": 8134,
      "Ġmonument": 8135,
      "ĠAllen": 8136,
      "Ġwindow": 8137,
      "Ġ1909": 8138,
      "Ġtempor": 8139,
      "Ġreveals": 8140,
      "Ġquarterback": 8141,
      "Ġexplosion": 8142,
      "ĠHuman": 8143,
      "ĠIndustry": 8144,
      "Ġmathemat": 8145,
      "itated": 8146,
      "ĠCart": 8147,
      "Ġasks": 8148,
      "unch": 8149,
      "ĠKit": 8150,
      "Ġaged": 8151,
      "Ġdecomp": 8152,
      "Ġdepos": 8153,
      "ĠBlood": 8154,
      "gery": 8155,
      "Ġhelicop": 8156,
      "ĠAngelou": 8157,
      "ĠBuilding": 8158,
      "ĠSomerset": 8159,
      "bl": 8160,
      "iti": 8161,
      "ĠTintin": 8162,
      "Ġunlike": 8163,
      "Ġresigned": 8164,
      "Ġelectronic": 8165,
      "Ġdriver": 8166,
      "ĠAfghan": 8167,
      "Ġradar": 8168,
      "ĠCraig": 8169,
      "Ġtravelled": 8170,
      "Ġdialogue": 8171,
      "night": 8172,
      "Ġhuge": 8173,
      "urally": 8174,
      "Ġprol": 8175,
      "Ġrecognised": 8176,
      "borough": 8177,
      "ĠSullivan": 8178,
      "hire": 8179,
      "iac": 8180,
      "onica": 8181,
      "Ġpale": 8182,
      "Ġgang": 8183,
      "imen": 8184,
      "ĠGill": 8185,
      "agh": 8186,
      "Ġenters": 8187,
      "ĠZahir": 8188,
      "Ġcontroll": 8189,
      "Ġstandards": 8190,
      "Ġvalues": 8191,
      "ĠBerlin": 8192,
      "Ġintensified": 8193,
      "ĠOlivier": 8194,
      "ĠMadagascar": 8195,
      "IA": 8196,
      "ĠInn": 8197,
      "ounced": 8198,
      "Ġroots": 8199,
      "ĠAlabama": 8200,
      "Ġelabor": 8201,
      "Ġinteresting": 8202,
      "ĠSanta": 8203,
      "Ġphilosophy": 8204,
      "orph": 8205,
      "Ġca": 8206,
      "ĠHans": 8207,
      "osy": 8208,
      "ista": 8209,
      "ĠStrat": 8210,
      "Ġoverw": 8211,
      "Ġgrown": 8212,
      "Ġadvis": 8213,
      "Ġcovering": 8214,
      "Ġpurposes": 8215,
      "ĠGraham": 8216,
      "burn": 8217,
      "sk": 8218,
      "Ġic": 8219,
      "Ġboys": 8220,
      "Ġpushed": 8221,
      "Ġmines": 8222,
      "Ġforcing": 8223,
      "ĠVinc": 8224,
      "Ġjazz": 8225,
      "ĠYan": 8226,
      "ĠAsian": 8227,
      "Ġminimal": 8228,
      "ĠIndians": 8229,
      "Ġformerly": 8230,
      "Ġfootage": 8231,
      "Ġfriendly": 8232,
      "Ġkeeping": 8233,
      "Ġcrisis": 8234,
      "Ġphen": 8235,
      "ĠTro": 8236,
      "ĠRick": 8237,
      "resents": 8238,
      "ĠStef": 8239,
      "ĠAli": 8240,
      "Ġfeather": 8241,
      "Ġcarriers": 8242,
      "rows": 8243,
      "Ġ1922": 8244,
      "Ġaudio": 8245,
      "ĠHotel": 8246,
      "Ġaware": 8247,
      "ĠTrek": 8248,
      "ĠRAAF": 8249,
      "Ġbot": 8250,
      "Ġprohib": 8251,
      "antine": 8252,
      "Ġarts": 8253,
      "Ġimperial": 8254,
      "Ġweekend": 8255,
      "Ġacted": 8256,
      "Ġcooper": 8257,
      "Ġapproval": 8258,
      "Ġcondem": 8259,
      "Ġparticipate": 8260,
      "Ġrif": 8261,
      "Ġinhabitants": 8262,
      "fted": 8263,
      "gam": 8264,
      "Ġhull": 8265,
      "ĠTon": 8266,
      "ĠSud": 8267,
      "ĠRihanna": 8268,
      "una": 8269,
      "ĠGab": 8270,
      "Ġsure": 8271,
      "weet": 8272,
      "Ġimpossible": 8273,
      "Ġgray": 8274,
      "Ġpilots": 8275,
      "Ġdisplayed": 8276,
      "Ġbattleship": 8277,
      "Ġrebuilt": 8278,
      "Ġmoderate": 8279,
      "ĠTurkish": 8280,
      "12": 8281,
      "reted": 8282,
      "atus": 8283,
      "icide": 8284,
      "Ġlin": 8285,
      "olis": 8286,
      "imore": 8287,
      "unes": 8288,
      "Ġprosp": 8289,
      "Ġracing": 8290,
      "Ġuncertain": 8291,
      "Ġresidence": 8292,
      "ĠMaria": 8293,
      "Ġassists": 8294,
      "ception": 8295,
      "onto": 8296,
      "ĠBois": 8297,
      "Ġchanging": 8298,
      "Ġmulti": 8299,
      "Ġoccupation": 8300,
      "ĠBelg": 8301,
      "Ġdrums": 8302,
      "ĠNielsen": 8303,
      "pson": 8304,
      "var": 8305,
      "ilty": 8306,
      "Ġlock": 8307,
      "ĠPear": 8308,
      "ĠLl": 8309,
      "ĠStock": 8310,
      "Ġexpensive": 8311,
      "Ġcharacterized": 8312,
      "ĠBrother": 8313,
      "Ġ1925": 8314,
      "Ġbases": 8315,
      "Ġexcell": 8316,
      "Ġextreme": 8317,
      "Ġagricultural": 8318,
      "igenous": 8319,
      "uable": 8320,
      "inian": 8321,
      "ĠDiam": 8322,
      "uma": 8323,
      "Ġcharter": 8324,
      "Ġseverely": 8325,
      "Ġrepresents": 8326,
      "ĠBlues": 8327,
      "ĠBurton": 8328,
      "ĠDuncan": 8329,
      "ĠKennedy": 8330,
      "Un": 8331,
      "mers": 8332,
      "ĠÄ": 8333,
      "Ġori": 8334,
      "ĠDw": 8335,
      "Ġanth": 8336,
      "agu": 8337,
      "Ġresumed": 8338,
      "ixon": 8339,
      "Ġretail": 8340,
      "Ġreprodu": 8341,
      "Ġ166": 8342,
      "aza": 8343,
      "Ġsimpl": 8344,
      "Ġdeter": 8345,
      "Ġfactor": 8346,
      "Ġmeasured": 8347,
      "Ġdollars": 8348,
      "ĠBrooks": 8349,
      "ĠStanley": 8350,
      "ĠStewart": 8351,
      "cription": 8352,
      "gÃ©": 8353,
      "err": 8354,
      "atically": 8355,
      "ĠShip": 8356,
      "ĠAR": 8357,
      "Ġnom": 8358,
      "Ġnations": 8359,
      "Ġalter": 8360,
      "ĠGree": 8361,
      "teenth": 8362,
      "Ġ07": 8363,
      "Ġphr": 8364,
      "ĠAdv": 8365,
      "Ġextent": 8366,
      "Ġmedium": 8367,
      "ÃŃa": 8368,
      "Ġmurd": 8369,
      "chell": 8370,
      "Ġmoments": 8371,
      "Ġenvironmental": 8372,
      "Ġsoftware": 8373,
      "Ġpaintings": 8374,
      "ĠInternet": 8375,
      "Ġwet": 8376,
      "ester": 8377,
      "Ġremove": 8378,
      "Ġ05": 8379,
      "Ġdesigner": 8380,
      "Ġ1923": 8381,
      "ĠXbox": 8382,
      "Ġfifteen": 8383,
      "Ġdispute": 8384,
      "Ġtesting": 8385,
      "Ġturrets": 8386,
      "Ġbenefit": 8387,
      "Ġdistinguished": 8388,
      "ĠDiego": 8389,
      "face": 8390,
      "inally": 8391,
      "itian": 8392,
      "Ġpounds": 8393,
      "icial": 8394,
      "ĠKirk": 8395,
      "Ġaggress": 8396,
      "Ġparish": 8397,
      "Ġtwin": 8398,
      "Ġstrip": 8399,
      "Ġinnov": 8400,
      "ĠTownship": 8401,
      "ĠGreece": 8402,
      "Ġschedule": 8403,
      "Ġranging": 8404,
      "Ġresidential": 8405,
      "ĠRelease": 8406,
      "rants": 8407,
      "Ġtyphoon": 8408,
      "Ġinaug": 8409,
      "ĠAld": 8410,
      "sters": 8411,
      "Ġlose": 8412,
      "olas": 8413,
      "emeter": 8414,
      "Ġalien": 8415,
      "ĠERA": 8416,
      "rane": 8417,
      "Ġrelie": 8418,
      "restrial": 8419,
      "Ġsituated": 8420,
      "ĠMrs": 8421,
      "ingham": 8422,
      "aser": 8423,
      "Ġlists": 8424,
      "ĠCall": 8425,
      "ĠBou": 8426,
      "Ġgrey": 8427,
      "Ġreconnaissance": 8428,
      "ĠAlice": 8429,
      "Ġsynd": 8430,
      "Ġexplain": 8431,
      "Ġ1929": 8432,
      "Ġ1904": 8433,
      "Ġarriving": 8434,
      "ĠMonroe": 8435,
      "Ġhonour": 8436,
      "Ġlacked": 8437,
      "ĠPalace": 8438,
      "Ġtowers": 8439,
      "ĠOlivia": 8440,
      "Ġprotein": 8441,
      "Since": 8442,
      "gate": 8443,
      "ng": 8444,
      "arant": 8445,
      "ĠOak": 8446,
      "oven": 8447,
      "Ġsmooth": 8448,
      "Ġjoining": 8449,
      "elta": 8450,
      "attered": 8451,
      "ĠTrust": 8452,
      "Ġarchitecture": 8453,
      "Ġcomparison": 8454,
      "Ġpanel": 8455,
      "bird": 8456,
      "Ġhat": 8457,
      "ĠTal": 8458,
      "ĠIan": 8459,
      "ĠPu": 8460,
      "Ġconvention": 8461,
      "Ġproced": 8462,
      "Ġpartial": 8463,
      "overs": 8464,
      "Ġteeth": 8465,
      "ensis": 8466,
      "Ġmayor": 8467,
      "Ġartwork": 8468,
      "Ġadvice": 8469,
      "Ġdeliber": 8470,
      "lsen": 8471,
      "Ġclosing": 8472,
      "ĠMcCain": 8473,
      "Ġviolent": 8474,
      "avery": 8475,
      "Some": 8476,
      "rm": 8477,
      "ses": 8478,
      "Ġing": 8479,
      "ĠPam": 8480,
      "Ġrig": 8481,
      "Ġdisaster": 8482,
      "Ġupd": 8483,
      "Ġfinals": 8484,
      "Ġliked": 8485,
      "Ġmerchant": 8486,
      "ĠRangers": 8487,
      "Ġtonn": 8488,
      "Ġwedding": 8489,
      "Ġblow": 8490,
      "Ġdies": 8491,
      "etime": 8492,
      "ĠGray": 8493,
      "ĠJason": 8494,
      "ĠEvent": 8495,
      "Ġspan": 8496,
      "Ġscand": 8497,
      "Ġjunction": 8498,
      "Ġassisted": 8499,
      "Ġminimum": 8500,
      "ĠIndones": 8501,
      "Ġsoldier": 8502,
      "ĠMint": 8503,
      "Ġmyst": 8504,
      "Ġsurvive": 8505,
      "Ġasking": 8506,
      "racts": 8507,
      "Ġpersp": 8508,
      "Ġpoorly": 8509,
      "Ġdocuments": 8510,
      "Ġtargets": 8511,
      "ĠWriting": 8512,
      "Jo": 8513,
      "Ġwear": 8514,
      "aman": 8515,
      "acle": 8516,
      "ĠRen": 8517,
      "ĠRaw": 8518,
      "opp": 8519,
      "Ġshift": 8520,
      "Ġevil": 8521,
      "Ġ174": 8522,
      "Ġdiff": 8523,
      "incial": 8524,
      "ĠPerform": 8525,
      "Ġstruggle": 8526,
      "Ġhydrogen": 8527,
      "ĠArea": 8528,
      "yard": 8529,
      "zep": 8530,
      "Äį": 8531,
      "Ġtack": 8532,
      "Ġdimens": 8533,
      "ĠABC": 8534,
      "ĠBure": 8535,
      "ĠIce": 8536,
      "Ġcontext": 8537,
      "ĠKansas": 8538,
      "ĠVik": 8539,
      "Ġdecides": 8540,
      "Ġmeetings": 8541,
      "ĠMorris": 8542,
      "ĠOldham": 8543,
      "Ġtribute": 8544,
      "Ġelectricity": 8545,
      "ĠRobinson": 8546,
      "ĠBaltimore": 8547,
      "away": 8548,
      "bai": 8549,
      "eper": 8550,
      "je": 8551,
      "Ã§": 8552,
      "ĠSalford": 8553,
      "ĠBanks": 8554,
      "rome": 8555,
      "Ġrub": 8556,
      "Ġsuitable": 8557,
      "Ġapprec": 8558,
      "Ġraid": 8559,
      "Ġ173": 8560,
      "ĠMcD": 8561,
      "ĠAnglo": 8562,
      "ĠToronto": 8563,
      "Ġdelivery": 8564,
      "Ġsubmitted": 8565,
      "Ġadventure": 8566,
      "Ġneutral": 8567,
      "Ġmountains": 8568,
      "Ġeliminated": 8569,
      "Ġcircumstances": 8570,
      "Ġbehaviour": 8571,
      "aments": 8572,
      "ĠMik": 8573,
      "rapped": 8574,
      "ĠNag": 8575,
      "ĠJosh": 8576,
      "Ġspecimen": 8577,
      "ashi": 8578,
      "ĠProgram": 8579,
      "Ġadvoc": 8580,
      "plete": 8581,
      "Ġprofessor": 8582,
      "ĠPrior": 8583,
      "hill": 8584,
      "Ġtelling": 8585,
      "asters": 8586,
      "lee": 8587,
      "ĠRan": 8588,
      "ials": 8589,
      "Ġnoise": 8590,
      "Ġexposed": 8591,
      "azing": 8592,
      "Ġpublicly": 8593,
      "Ġrestricted": 8594,
      "ĠSimpson": 8595,
      "Ġcivilian": 8596,
      "ĠHowe": 8597,
      "Ġprecip": 8598,
      "Ġcandidates": 8599,
      "Ġwicket": 8600,
      "ĠFrederick": 8601,
      "Ġseeking": 8602,
      "Ġconversion": 8603,
      "Ġprompted": 8604,
      "Ġappointment": 8605,
      "CA": 8606,
      "life": 8607,
      "xis": 8608,
      "Ġwaves": 8609,
      "Ġped": 8610,
      "Ġhorn": 8611,
      "ĠType": 8612,
      "ĠBry": 8613,
      "idal": 8614,
      "usal": 8615,
      "ĠDave": 8616,
      "ateur": 8617,
      "Ġperceived": 8618,
      "oyage": 8619,
      "Ġprovision": 8620,
      "ĠManhatt": 8621,
      "Ġcoverage": 8622,
      "Ġescaped": 8623,
      "Ġ360": 8624,
      "ĠCampaign": 8625,
      "Ġsuggesting": 8626,
      "Ġsurvivors": 8627,
      "asi": 8628,
      "ĠAud": 8629,
      "ĠCur": 8630,
      "Ġplus": 8631,
      "Ġusual": 8632,
      "ĠMarines": 8633,
      "Ġshipping": 8634,
      "Ġdemolished": 8635,
      "ĠCharl": 8636,
      "ĠSteven": 8637,
      "Ġhosts": 8638,
      "Ġsuspended": 8639,
      "ĠErnest": 8640,
      "ĠManhattan": 8641,
      "Ġtight": 8642,
      "Ġtheater": 8643,
      "Ġbronze": 8644,
      "anium": 8645,
      "ĠTak": 8646,
      "Ġforty": 8647,
      "ĠHann": 8648,
      "ĠPope": 8649,
      "ĠLane": 8650,
      "ĠNav": 8651,
      "opy": 8652,
      "Ġprocl": 8653,
      "ĠConc": 8654,
      "ĠWarren": 8655,
      "Ġsigning": 8656,
      "plement": 8657,
      "Ġcommunication": 8658,
      "Ġgenes": 8659,
      "Ġaffair": 8660,
      "Ġaudiences": 8661,
      "Ġpredomin": 8662,
      "Ġtouchdowns": 8663,
      "Ġdemonstrated": 8664,
      "tario": 8665,
      "Ġvoiced": 8666,
      "utherford": 8667,
      "ĠKapoor": 8668,
      "EC": 8669,
      "pent": 8670,
      "áĥ": 8671,
      "onies": 8672,
      "Ġoption": 8673,
      "Ġfantasy": 8674,
      "Ġalco": 8675,
      "Ġhem": 8676,
      "Ġplatinum": 8677,
      "ĠOntario": 8678,
      "ĠArk": 8679,
      "Ġ112": 8680,
      "ĠJohnny": 8681,
      "ĠAbu": 8682,
      "Ġbombs": 8683,
      "Ġblocks": 8684,
      "Ġbadly": 8685,
      "ĠDelaware": 8686,
      "ĠHoly": 8687,
      "Ġsurrender": 8688,
      "Ġdynam": 8689,
      "Ġhouseholds": 8690,
      "Ġtexts": 8691,
      "father": 8692,
      "Ġsank": 8693,
      "Ġsector": 8694,
      "Ġfaster": 8695,
      "Ġvow": 8696,
      "Ġshares": 8697,
      "ellite": 8698,
      "ĠSheff": 8699,
      "ĠMaya": 8700,
      "ĠUSS": 8701,
      "ĠBox": 8702,
      "Ġbattalions": 8703,
      "Ġinstitutions": 8704,
      "Ġpreparation": 8705,
      "Ġdynasty": 8706,
      "Ġbeautiful": 8707,
      "ĠPeninsula": 8708,
      "Ġstrategic": 8709,
      "ĠPhilippines": 8710,
      "TA": 8711,
      "hurst": 8712,
      "nik": 8713,
      "onomy": 8714,
      "Ġcod": 8715,
      "Ġfil": 8716,
      "Ġstorage": 8717,
      "achment": 8718,
      "ologies": 8719,
      "Ġ168": 8720,
      "Ġrestoration": 8721,
      "ĠMcL": 8722,
      "Ġamongst": 8723,
      "raction": 8724,
      "Ġprofile": 8725,
      "Ġpractices": 8726,
      "Ġgrav": 8727,
      "Ġillegal": 8728,
      "cat": 8729,
      "Ġparent": 8730,
      "iday": 8731,
      "ĠHamp": 8732,
      "ĠPul": 8733,
      "cho": 8734,
      "ĠWrest": 8735,
      "ĠEP": 8736,
      "ĠkW": 8737,
      "Ġsurprise": 8738,
      "venge": 8739,
      "Ġdepending": 8740,
      "Ġ1927": 8741,
      "Ġanimation": 8742,
      "enesis": 8743,
      "Ġinstitution": 8744,
      "ĠNCAA": 8745,
      "Ġpulled": 8746,
      "li": 8747,
      "uv": 8748,
      "Ġtip": 8749,
      "ĠCam": 8750,
      "Ġstores": 8751,
      "Ġchamber": 8752,
      "Ġmonarch": 8753,
      "Ġ04": 8754,
      "Ġcontinuous": 8755,
      "Ġcamps": 8756,
      "Ġhelping": 8757,
      "Ġbombing": 8758,
      "Ġrebell": 8759,
      "Ġmarketing": 8760,
      "Ġchoose": 8761,
      "Ġencounter": 8762,
      "ĠBusiness": 8763,
      "ĠAlberta": 8764,
      "ĠAzerbai": 8765,
      "Ġtemporarily": 8766,
      "emetery": 8767,
      "TP": 8768,
      "lair": 8769,
      "ĠSem": 8770,
      "adier": 8771,
      "ĠBaker": 8772,
      "Ġgene": 8773,
      "Ġwhilst": 8774,
      "ĠFord": 8775,
      "ĠVilla": 8776,
      "atty": 8777,
      "ublin": 8778,
      "Ġartistic": 8779,
      "Ġguilty": 8780,
      "Ġwilling": 8781,
      "ĠBros": 8782,
      "apping": 8783,
      "Ġcontrols": 8784,
      "Ġerr": 8785,
      "ĠRepresent": 8786,
      "ĠFleming": 8787,
      "Ġcoinc": 8788,
      "Ġburning": 8789,
      "Ġneighb": 8790,
      "Ġsucceed": 8791,
      "ĠIndependent": 8792,
      "ĠSheffield": 8793,
      "sch": 8794,
      "Ġwel": 8795,
      "ĠTob": 8796,
      "ĠML": 8797,
      "ĠBenn": 8798,
      "Ġvast": 8799,
      "Ġrivers": 8800,
      "Ġclock": 8801,
      "Ġfeels": 8802,
      "ĠSpider": 8803,
      "Ġuseful": 8804,
      "Ġnorthward": 8805,
      "Ġskull": 8806,
      "Ġarmament": 8807,
      "Ġfallen": 8808,
      "Ġthinking": 8809,
      "Ġremarked": 8810,
      "Ġtiss": 8811,
      "rov": 8812,
      "Ġmand": 8813,
      "Ġdiet": 8814,
      "Ġrevers": 8815,
      "ĠMun": 8816,
      "ĠBorn": 8817,
      "ĠJos": 8818,
      "Ġseats": 8819,
      "Ġserial": 8820,
      "Ġrecordings": 8821,
      "aird": 8822,
      "Ġmainland": 8823,
      "Ġexplo": 8824,
      "Ġmarks": 8825,
      "Ġopponent": 8826,
      "Ġwindows": 8827,
      "ĠPerry": 8828,
      "ĠTrail": 8829,
      "ĠEvans": 8830,
      "ĠApple": 8831,
      "ĠAdminist": 8832,
      "Ġdistinctive": 8833,
      "Ġexecution": 8834,
      "lock": 8835,
      "Ġciting": 8836,
      "alities": 8837,
      "omber": 8838,
      "ĠMP": 8839,
      "olid": 8840,
      "ĠDj": 8841,
      "ĠGa": 8842,
      "ctic": 8843,
      "bery": 8844,
      "Ġkings": 8845,
      "ĠJoh": 8846,
      "Ġmonaster": 8847,
      "Ġartific": 8848,
      "ĠIslam": 8849,
      "Ġexplan": 8850,
      "Ġfuneral": 8851,
      "Ġwestward": 8852,
      "Ġyoungest": 8853,
      "ĠMeteor": 8854,
      "Ġangle": 8855,
      "ĠNevertheless": 8856,
      "ĠDwight": 8857,
      "To": 8858,
      "hu": 8859,
      "nt": 8860,
      "aron": 8861,
      "ouver": 8862,
      "ĠTub": 8863,
      "ĠTales": 8864,
      "olition": 8865,
      "ĠRing": 8866,
      "Ġbypass": 8867,
      "ectic": 8868,
      "Ġkiss": 8869,
      "Ġcompens": 8870,
      "Ġoffering": 8871,
      "active": 8872,
      "azines": 8873,
      "ahl": 8874,
      "ĠAustralians": 8875,
      "Ġexplains": 8876,
      "ĠCharlie": 8877,
      "Ġaffairs": 8878,
      "Ġranks": 8879,
      "Ġdiagn": 8880,
      "Ġadopt": 8881,
      "ĠInterstate": 8882,
      "Ġqualified": 8883,
      "ĠMitchell": 8884,
      "ĠInitially": 8885,
      "ito": 8886,
      "Ġcup": 8887,
      "ĠSav": 8888,
      "Ġwasn": 8889,
      "ĠThen": 8890,
      "Ġstress": 8891,
      "ĠFiles": 8892,
      "Ġvice": 8893,
      "quir": 8894,
      "oga": 8895,
      "ĠYam": 8896,
      "inding": 8897,
      "Ġrepair": 8898,
      "Ġfamiliar": 8899,
      "Ġ1928": 8900,
      "Ġvictim": 8901,
      "ĠRecord": 8902,
      "Ġ1860": 8903,
      "ĠJimmy": 8904,
      "ĠBrun": 8905,
      "Ġproteins": 8906,
      "uzzle": 8907,
      "lon": 8908,
      "Ġbran": 8909,
      "Ġtot": 8910,
      "ĠSnow": 8911,
      "aden": 8912,
      "Ġspending": 8913,
      "Ġdirectors": 8914,
      "Ġtriple": 8915,
      "Ġcompeted": 8916,
      "ĠMedical": 8917,
      "ĠOutstanding": 8918,
      "ĠAriz": 8919,
      "ĠKelly": 8920,
      "Ġpartnership": 8921,
      "FC": 8922,
      "à¤": 8923,
      "eda": 8924,
      "atz": 8925,
      "Ġfrig": 8926,
      "Ġstrict": 8927,
      "ĠNas": 8928,
      "allas": 8929,
      "Ġnotice": 8930,
      "elli": 8931,
      "ĠHeavy": 8932,
      "Ġ03": 8933,
      "Ġvisiting": 8934,
      "ĠByz": 8935,
      "Ġpatron": 8936,
      "Ġbowling": 8937,
      "Ġsurrend": 8938,
      "ĠAuthor": 8939,
      "Ġenlisted": 8940,
      "ĠWilfrid": 8941,
      "CL": 8942,
      "boy": 8943,
      "matic": 8944,
      "ellect": 8945,
      "ĠBoys": 8946,
      "Ġgust": 8947,
      "olia": 8948,
      "ĠDublin": 8949,
      "ĠNik": 8950,
      "Ġvs": 8951,
      "ishment": 8952,
      "Ġovert": 8953,
      "Ġoutl": 8954,
      "Ġguarant": 8955,
      "iddles": 8956,
      "Ġ1893": 8957,
      "Ġfifty": 8958,
      "ĠHistoric": 8959,
      "ĠChapel": 8960,
      "ĠPhoenix": 8961,
      "15": 8962,
      "24": 8963,
      "uations": 8964,
      "Ġbreat": 8965,
      "Ġreun": 8966,
      "ĠSoon": 8967,
      "ĠMes": 8968,
      "ĠMach": 8969,
      "Ġgat": 8970,
      "imony": 8971,
      "ĠWeb": 8972,
      "Ġcomfort": 8973,
      "Ġvig": 8974,
      "Ġrising": 8975,
      "Ġexecut": 8976,
      "Ġabilities": 8977,
      "Ġsurge": 8978,
      "rises": 8979,
      "Ġmagazines": 8980,
      "Ġ1906": 8981,
      "Ġarrive": 8982,
      "Ġcredits": 8983,
      "Ġprepare": 8984,
      "Ġboundary": 8985,
      "Ġdoctor": 8986,
      "ĠMargaret": 8987,
      "ĠNapoleon": 8988,
      "itudes": 8989,
      "ĠArizona": 8990,
      "pin": 8991,
      "idel": 8992,
      "ĠOm": 8993,
      "aku": 8994,
      "ensions": 8995,
      "ĠArn": 8996,
      "Ġflash": 8997,
      "ieties": 8998,
      "Ġ115": 8999,
      "Ġfinale": 9000,
      "Ġstrongest": 9001,
      "Ġcolleagues": 9002,
      "Ġdominant": 9003,
      "ĠMarshall": 9004,
      "ĠAlfred": 9005,
      "Ġphenomen": 9006,
      "ĠBelgium": 9007,
      "oz": 9008,
      "esley": 9009,
      "Ġlieutenant": 9010,
      "olve": 9011,
      "iman": 9012,
      "Ġstreak": 9013,
      "ĠWy": 9014,
      "ĠFull": 9015,
      "ĠGary": 9016,
      "Ġriding": 9017,
      "Ġspaces": 9018,
      "oking": 9019,
      "Ġprint": 9020,
      "Ġvertical": 9021,
      "Ġassess": 9022,
      "Ġsurgery": 9023,
      "Ġ1902": 9024,
      "ĠCooper": 9025,
      "Ġdevast": 9026,
      "Ġdevice": 9027,
      "Ġpredicted": 9028,
      "Ġobjective": 9029,
      "Ġcruc": 9030,
      "Ġburned": 9031,
      "Ġprosper": 9032,
      "Ġconventional": 9033,
      "Ġbacteria": 9034,
      "uits": 9035,
      "ĠChen": 9036,
      "ĠBab": 9037,
      "ĠPubl": 9038,
      "Ġvel": 9039,
      "ĠKes": 9040,
      "acks": 9041,
      "action": 9042,
      "Ġpublications": 9043,
      "inclair": 9044,
      "Ġslavery": 9045,
      "Ġportions": 9046,
      "Ġideal": 9047,
      "Ġhitting": 9048,
      "Ġarmored": 9049,
      "Ġbusinesses": 9050,
      "ĠSenator": 9051,
      "ĠReturn": 9052,
      "Ġbalance": 9053,
      "ĠPrincess": 9054,
      "ario": 9055,
      "Ġtouring": 9056,
      "ĠAff": 9057,
      "ĠBod": 9058,
      "ĠFriend": 9059,
      "Ġcongreg": 9060,
      "ĠLat": 9061,
      "ĠLock": 9062,
      "ifa": 9063,
      "ĠStu": 9064,
      "Ġcompilation": 9065,
      "ĠAustria": 9066,
      "ĠMuslim": 9067,
      "Ġcircle": 9068,
      "Ġcreative": 9069,
      "ucker": 9070,
      "Ġillness": 9071,
      "legraph": 9072,
      "Ġtransportation": 9073,
      "Ġattendance": 9074,
      "Ġchapel": 9075,
      "senal": 9076,
      "ĠFederation": 9077,
      "Ġapplication": 9078,
      "Ġrepeatedly": 9079,
      "ĠDestiny": 9080,
      "Ġremnants": 9081,
      "gs": 9082,
      "oom": 9083,
      "Ġinland": 9084,
      "otton": 9085,
      "ĠKu": 9086,
      "Ġrecur": 9087,
      "Ġencl": 9088,
      "uese": 9089,
      "Ġsimilarly": 9090,
      "Ġstarring": 9091,
      "Ġterror": 9092,
      "Ġcontributions": 9093,
      "Ġdramatic": 9094,
      "Ġjobs": 9095,
      "Ġstruggled": 9096,
      "Ġearthqu": 9097,
      "ĠCardiff": 9098,
      "Ġelevation": 9099,
      "eers": 9100,
      "iata": 9101,
      "Ġ<": 9102,
      "ĠMS": 9103,
      "Ġgate": 9104,
      "iri": 9105,
      "ĠPick": 9106,
      "ulating": 9107,
      "estone": 9108,
      "akh": 9109,
      "undy": 9110,
      "Ġagency": 9111,
      "Ġobst": 9112,
      "Ġcompleting": 9113,
      "Ġreflected": 9114,
      "ĠChristopher": 9115,
      "Ġorganisation": 9116,
      "Ġlisten": 9117,
      "Ġelder": 9118,
      "Ġdrove": 9119,
      "Ġunderstood": 9120,
      "Ġtunnel": 9121,
      "munition": 9122,
      "cribed": 9123,
      "eared": 9124,
      "rh": 9125,
      "rings": 9126,
      "Ġpion": 9127,
      "Ġpairs": 9128,
      "ĠHugh": 9129,
      "Ġatomic": 9130,
      "ĠJama": 9131,
      "ĠExt": 9132,
      "antastic": 9133,
      "amps": 9134,
      "ĠSee": 9135,
      "Ġ02": 9136,
      "aughters": 9137,
      "Ġbirthday": 9138,
      "Ġfrust": 9139,
      "Ġfixed": 9140,
      "ĠHindu": 9141,
      "John": 9142,
      "ĠBureau": 9143,
      "bre": 9144,
      "ĠPle": 9145,
      "ĠFlying": 9146,
      "Ġcomed": 9147,
      "Ġcomponents": 9148,
      "Ġclothing": 9149,
      "anger": 9150,
      "Ġpeaking": 9151,
      "ennium": 9152,
      "Ġpossess": 9153,
      "Ġcorpor": 9154,
      "Ġpatrol": 9155,
      "ĠDavies": 9156,
      "Ġreaders": 9157,
      "ĠWilhelm": 9158,
      "ĠLaure": 9159,
      "ĠLandis": 9160,
      "Ġdoubt": 9161,
      "Ġranges": 9162,
      "Ġadvertising": 9163,
      "ĠPortuguese": 9164,
      "cles": 9165,
      "lah": 9166,
      "mid": 9167,
      "tic": 9168,
      "real": 9169,
      "ĠAM": 9170,
      "urer": 9171,
      "ĠRutherford": 9172,
      "sea": 9173,
      "Ġconservation": 9174,
      "Ġexpression": 9175,
      "Ġcontinu": 9176,
      "ancouver": 9177,
      "Ġcounties": 9178,
      "Ġmargin": 9179,
[...]
