{
  "version": "1.0",
  "truncation": null,
  "padding": null,
  "added_tokens": [
    {
      "id": 0,
      "content": "<PAD>",
      "single_word": false,
      "lstrip": false,
      "rstrip": false,
      "normalized": false,
      "special": true
    },
    {
      "id": 1,
      "content": "<BOS>",
      "single_word": false,
      "lstrip": false,
      "rstrip": false,
      "normalized": false,
      "special": true
    },
    {
      "id": 2,
      "content": "<EOS>",
      "single_word": false,
      "lstrip": false,
      "rstrip": false,
      "normalized": false,
      "special": true
    },
    {
      "id": 3,
      "content": "<UNK>",
      "single_word": false,
      "lstrip": false,
      "rstrip": false,
      "normalized": false,
      "special": true
    },
    {
      "id": 4,
      "content": "<SEARCH>",
      "single_word": false,
      "lstrip": false,
      "rstrip": false,
      "normalized": false,
      "special": true
    },
    {
      "id": 5,
      "content": "<RESULT>",
      "single_word": false,
      "lstrip": false,
      "rstrip": false,
      "normalized": false,
      "special": true
    },
    {
      "id": 6,
      "content": "<TOOL>",
      "single_word": false,
      "lstrip": false,
      "rstrip": false,
      "normalized": false,
      "special": true
    },
    {
      "id": 7,
      "content": "<ANSWER>",
      "single_word": false,
      "lstrip": false,
      "rstrip": false,
      "normalized": false,
      "special": true
    }
  ],
  "normalizer": null,
  "pre_tokenizer": {
    "type": "ByteLevel",
    "add_prefix_space": false,
    "trim_offsets": true,
    "use_regex": true
  },
  "post_processor": {
    "type": "TemplateProcessing",
    "single": [
      {
        "SpecialToken": {
          "id": "<BOS>",
          "type_id": 0
        }
      },
      {
        "Sequence": {
          "id": "A",
          "type_id": 0
        }
      },
      {
        "SpecialToken": {
          "id": "<EOS>",
          "type_id": 0
        }
      }
    ],
    "pair": [
      {
        "Sequence": {
          "id": "A",
          "type_id": 0
        }
      },
      {
        "Sequence": {
          "id": "B",
          "type_id": 1
        }
      }
    ],
    "special_tokens": {
      "<BOS>": {
        "id": "<BOS>",
        "ids": [
          1
        ],
        "tokens": [
          "<BOS>"
        ]
      },
      "<EOS>": {
        "id": "<EOS>",
        "ids": [
          2
        ],
        "tokens": [
          "<EOS>"
        ]
      }
    }
  },
  "decoder": {
    "type": "ByteLevel",
    "add_prefix_space": true,
    "trim_offsets": true,
    "use_regex": true
  },
  "model": {
    "type": "BPE",
    "dropout": null,
    "unk_token": "<UNK>",
    "continuing_subword_prefix": null,
    "end_of_word_suffix": null,
    "fuse_unk": false,
    "byte_fallback": false,
    "ignore_merges": false,
    "vocab": {
      "<PAD>": 0,
      "<BOS>": 1,
      "<EOS>": 2,
      "<UNK>": 3,
      "<SEARCH>": 4,
      "<RESULT>": 5,
      "<TOOL>": 6,
      "<ANSWER>": 7,
      "!": 8,
      "\"": 9,
      "#": 10,
      "$": 11,
      "&": 12,
      "'": 13,
      "(": 14,
      ")": 15,
      "+": 16,
      ",": 17,
      "-": 18,
      ".": 19,
      "/": 20,
      "0": 21,
      "1": 22,
      "2": 23,
      "3": 24,
      "4": 25,
      "5": 26,
      "6": 27,
      "7": 28,
      "8": 29,
      "9": 30,
      ":": 31,
      ";": 32,
      "=": 33,
      "?": 34,
      "A": 35,
      "B": 36,
      "C": 37,
      "D": 38,
      "E": 39,
      "F": 40,
      "G": 41,
      "H": 42,
      "I": 43,
      "J": 44,
      "K": 45,
      "L": 46,
      "M": 47,
      "N": 48,
      "O": 49,
      "P": 50,
      "Q": 51,
      "R": 52,
      "S": 53,
      "T": 54,
      "U": 55,
      "V": 56,
      "W": 57,
      "X": 58,
      "Y": 59,
      "Z": 60,
      "[": 61,
      "]": 62,
      "a": 63,
      "b": 64,
      "c": 65,
      "d": 66,
      "e": 67,
      "f": 68,
      "g": 69,
      "h": 70,
      "i": 71,
      "j": 72,
      "k": 73,
      "l": 74,
      "m": 75,
      "n": 76,
      "o": 77,
      "p": 78,
      "q": 79,
      "r": 80,
      "s": 81,
      "t": 82,
      "u": 83,
      "v": 84,
      "w": 85,
      "x": 86,
      "y": 87,
      "z": 88,
      "|": 89,
      "¡": 90,
      "¢": 91,
      "£": 92,
      "¤": 93,
      "¥": 94,
      "¦": 95,
      "§": 96,
      "¨": 97,
      "©": 98,
      "ª": 99,
      "«": 100,
      "¬": 101,
      "®": 102,
      "¯": 103,
      "°": 104,
      "±": 105,
      "²": 106,
      "³": 107,
      "´": 108,
      "µ": 109,
      "¶": 110,
      "·": 111,
      "¸": 112,
      "¹": 113,
      "º": 114,
      "Â": 115,
      "Ã": 116,
      "Ä": 117,
      "Å": 118,
      "Ç": 119,
      "É": 120,
      "Ë": 121,
      "Ø": 122,
      "Ù": 123,
      "Ü": 124,
      "á": 125,
      "â": 126,
      "ĉ": 127,
      "Ċ": 128,
      "č": 129,
      "Ġ": 130,
      "Ģ": 131,
      "ģ": 132,
      "ĥ": 133,
      "Ħ": 134,
      "ħ": 135,
      "Ĩ": 136,
      "ĩ": 137,
      "Ī": 138,
      "ī": 139,
      "Ĭ": 140,
      "İ": 141,
      "ı": 142,
      "Ĳ": 143,
      "ĵ": 144,
      "Ķ": 145,
      "ķ": 146,
      "ĸ": 147,
      "Ļ": 148,
      "ŀ": 149,
      "ł": 150,
      "Ń": 151,
      "Ġt": 152,
      "he": 153,
      "in": 154,
      "an": 155,
      "er": 156,
      "on": 157,
      "Ġthe": 158,
      "ed": 159,
      "čĊ": 160,
      "or": 161,
      "at": 162,
      "en": 163,
      "es": 164,
      "ar": 165,
      "al": 166,
      "is": 167,
      "Ġw": 168,
      "it": 169,
      "Ġo": 170,
      "as": 171,
      "Ġc": 172,
      "and": 173,
      "Ġs": 174,
      "Ġp": 175,
      "re": 176,
      "Ġof": 177,
      "Ġ1": 178,
      "il": 179,
      "Ġin": 180,
      "ing": 181,
      "Ġ2": 182,
      "Ġb": 183,
      "ĠA": 184,
      "Ġf": 185,
      "Ġand": 186,
      "ĠT": 187,
      "le": 188,
      "Ġa": 189,
      "ic": 190,
      "om": 191,
      "ion": 192,
      "ou": 193,
      "Ġto": 194,
      "ĠS": 195,
      "ĠC": 196,
      "ri": 197,
      "Ġm": 198,
      "ĠM": 199,
      "Ġ20": 200,
      "ol": 201,
      "ac": 202,
      "ent": 203,
      "et": 204,
      "st": 205,
      "Ġd": 206,
      ".[": 207,
      "se": 208,
      "Ġ(": 209,
      "ĠN": 210,
      "ap": 211,
      "ĠI": 212,
      "ĠB": 213,
      "Ġh": 214,
      "Ġre": 215,
      "Ġ19": 216,
      "Ġon": 217,
      "ro": 218,
      "Ġl": 219,
      "iv": 220,
      "ur": 221,
      "ly": 222,
      "ers": 223,
      "Ġ202": 224,
      "ch": 225,
      "ĠR": 226,
      "ĠThe": 227,
      "ad": 228,
      "Ġn": 229,
      "ir": 230,
      "am": 231,
      "ĠP": 232,
      "Ġwas": 233,
      "ate": 234,
      "ĠH": 235,
      "ev": 236,
      "im": 237,
      "ct": 238,
      "nd": 239,
      "em": 240,
      "el": 241,
      "ĠJ": 242,
      "Ġst": 243,
      "id": 244,
      "est": 245,
      "ig": 246,
      "Ġ\"": 247,
      "th": 248,
      "ist": 249,
      "ĠD": 250,
      "Ġth": 251,
      "ation": 252,
      "ĠG": 253,
      "ra": 254,
      "nes": 255,
      "ĠW": 256,
      "âĢ": 257,
      "Ġg": 258,
      "ĠSt": 259,
      "all": 260,
      "ew": 261,
      "\".": 262,
      "ber": 263,
      "ary": 264,
      "apit": 265,
      "un": 266,
      "19": 267,
      "ennes": 268,
      "ennesse": 269,
      "Ġfor": 270,
      "apitol": 271,
      "ov": 272,
      "][": 273,
      "ĠO": 274,
      "ia": 275,
      "vil": 276,
      "ĠF": 277,
      "ĠL": 278,
      "Ġby": 279,
      "ord": 280,
      "eved": 281,
      "Ġar": 282,
      "ter": 283,
      "ĠE": 284,
      ").": 285,
      "ce": 286,
      "Ġcon": 287,
      "ss": 288,
      "etri": 289,
      "ĠRetri": 290,
      "ĠRetrieved": 291,
      "âĢĵ": 292,
      "00": 293,
      "ĠTennesse": 294,
      "res": 295,
      "ay": 296,
      "Ġe": 297,
      "Ġ2026": 298,
      "ow": 299,
      "Ġ18": 300,
      "'s": 301,
      "ith": 302,
      "Ġbe": 303,
      "ere": 304,
      "ville": 305,
      "ÂŃ": 306,
      "ash": 307,
      "Ġwith": 308,
      "rom": 309,
      "av": 310,
      "ot": 311,
      "ag": 312,
      "ut": 313,
      "Ġwere": 314,
      "Ġv": 315,
      "Ġat": 316,
      "ĠTennessee": 317,
      "ashville": 318,
      "yri": 319,
      "Ġas": 320,
      "ru": 321,
      "ĠNashville": 322,
      "ound": 323,
      "um": 324,
      "Ġ3": 325,
      "Ġis": 326,
      "ain": 327,
      "ry": 328,
      "omm": 329,
      "arch": 330,
      "ted": 331,
      "ish": 332,
      "ill": 333,
      "ak": 334,
      "qu": 335,
      "yrian": 336,
      "ĠAss": 337,
      "ec": 338,
      "Ġwh": 339,
      "ding": 340,
      "ust": 341,
      "oc": 342,
      "Ġfrom": 343,
      "ong": 344,
      "ĠCapitol": 345,
      "op": 346,
      "us": 347,
      "ff": 348,
      "Ġle": 349,
      "Ġor": 350,
      "ect": 351,
      "pp": 352,
      "ĠK": 353,
      "uil": 354,
      "her": 355,
      "ĠAssyrian": 356,
      "Ġan": 357,
      "com": 358,
      "ated": 359,
      "rew": 360,
      "),": 361,
      "ial": 362,
      "ug": 363,
      "ĠAr": 364,
      "ab": 365,
      "ul": 366,
      "Ġit": 367,
      "ember": 368,
      "ĠNew": 369,
      "ern": 370,
      "od": 371,
      "ht": 372,
      "raq": 373,
      "sp": 374,
      "eral": 375,
      "ĠMarch": 376,
      "Ġthat": 377,
      "Ġr": 378,
      "ĠâĢĵ": 379,
      "The": 380,
      "ort": 381,
      "ian": 382,
      "Ġch": 383,
      "Ġ5": 384,
      "our": 385,
      "ĠIraq": 386,
      "Ġrep": 387,
      "ĠState": 388,
      "uilding": 389,
      "ast": 390,
      "Ġpl": 391,
      "andrew": 392,
      "acandrew": 393,
      "Ġal": 394,
      "ĠU": 395,
      "ies": 396,
      "inal": 397,
      "ep": 398,
      "ĠIn": 399,
      "lo": 400,
      "ment": 401,
      "ard": 402,
      "art": 403,
      "Ġpro": 404,
      "ack": 405,
      "Ġvia": 406,
      "Ġex": 407,
      "ass": 408,
      "ich": 409,
      "ure": 410,
      "ear": 411,
      "uly": 412,
      "ĠCh": 413,
      "apers": 414,
      "10": 415,
      "Ġro": 416,
      "Ġcomm": 417,
      "ide": 418,
      "Ġorig": 419,
      "Ġhe": 420,
      "Ġbuilding": 421,
      "ugust": 422,
      "ng": 423,
      "end": 424,
      "spapers": 425,
      "Ġoriginal": 426,
      "round": 427,
      "ork": 428,
      "Ġhis": 429,
      "up": 430,
      "rit": 431,
      "ive": 432,
      "ĠAugust": 433,
      "ĠMacandrew": 434,
      "ĠNewspapers": 435,
      "Ġ$": 436,
      "eb": 437,
      "fic": 438,
      "og": 439,
      "Ġcapitol": 440,
      "Ġpp": 441,
      "os": 442,
      "Ġ4": 443,
      "Ġ6": 444,
      "Ġcont": 445,
      "ki": 446,
      "18": 447,
      "ĠJuly": 448,
      "20": 449,
      "ran": 450,
      "te": 451,
      "alry": 452,
      "avalry": 453,
      "ric": 454,
      "ine": 455,
      "ond": 456,
      "ision": 457,
      "omp": 458,
      "ous": 459,
      "istor": 460,
      "ruct": 461,
      "air": 462,
      "ld": 463,
      "eneral": 464,
      "Ġad": 465,
      "Ġwhich": 466,
      "Ġword": 467,
      "oun": 468,
      "ivision": 469,
      "sion": 470,
      "Ġ198": 471,
      "tt": 472,
      "ĠTh": 473,
      "oug": 474,
      "Ġstate": 475,
      "ĠUn": 476,
      "ight": 477,
      "Ġthis": 478,
      "overn": 479,
      "ĠArch": 480,
      "Ġ7": 481,
      "ore": 482,
      "ived": 483,
      "17": 484,
      "che": 485,
      "erv": 486,
      "Ġoffic": 487,
      "Ġhad": 488,
      "Ġnew": 489,
      "une": 490,
      "12": 491,
      "ge": 492,
      "Ġlong": 493,
      "lat": 494,
      "pr": 495,
      "Ġ9": 496,
      "ition": 497,
      "ress": 498,
      "ngl": 499,
      "ver": 500,
      "ity": 501,
      "ical": 502,
      "ritish": 503,
      "16": 504,
      "ell": 505,
      "Ġare": 506,
      "ost": 507,
      "ub": 508,
      "act": 509,
      "ĠInd": 510,
      "ational": 511,
      "anu": 512,
      "Ġcomp": 513,
      "ame": 514,
      "Ġ185": 515,
      "Ġ10": 516,
      "age": 517,
      "fter": 518,
      "ered": 519,
      "assac": 520,
      "rounds": 521,
      "anuary": 522,
      "aff": 523,
      "ll": 524,
      "ant": 525,
      "one": 526,
      "Ġ200": 527,
      "irst": 528,
      "land": 529,
      "so": 530,
      "Ġy": 531,
      "enc": 532,
      "15": 533,
      "az": 534,
      "ok": 535,
      "son": 536,
      "Ġun": 537,
      "ater": 538,
      "ice": 539,
      "ents": 540,
      "ade": 541,
      "ey": 542,
      "ue": 543,
      "und": 544,
      "int": 545,
      "Ġnot": 546,
      "ĠOn": 547,
      "ĠAssyrians": 548,
      "pril": 549,
      "13": 550,
      "cl": 551,
      "low": 552,
      "ime": 553,
      "ign": 554,
      "my": 555,
      "ober": 556,
      "ther": 557,
      "att": 558,
      "ark": 559,
      "ission": 560,
      "ict": 561,
      "ĠBritish": 562,
      "loor": 563,
      "14": 564,
      "ib": 565,
      "ited": 566,
      "ree": 567,
      "Ġinst": 568,
      "Ġde": 569,
      "gan": 570,
      "mer": 571,
      "oh": 572,
      "edia": 573,
      "uring": 574,
      "78": 575,
      "pt": 576,
      "ace": 577,
      "struct": 578,
      "amp": 579,
      "alls": 580,
      "ruary": 581,
      "ebruary": 582,
      "ĠArchived": 583,
      "if": 584,
      "Ġres": 585,
      "erm": 586,
      "orth": 587,
      "Ġ16": 588,
      "Ġapp": 589,
      "out": 590,
      "rig": 591,
      "ĠIS": 592,
      "Ġrem": 593,
      "ĠJanuary": 594,
      "Ġgrounds": 595,
      "Ġits": 596,
      "gis": 597,
      "ĠV": 598,
      "ath": 599,
      "ĠIraqi": 600,
      "Ġalso": 601,
      "24": 602,
      "ior": 603,
      "ors": 604,
      "ates": 605,
      "Ġsp": 606,
      "ĠCavalry": 607,
      "Ġatt": 608,
      "ĠThis": 609,
      "gislat": 610,
      "11": 611,
      "cc": 612,
      "roug": 613,
      "ĠApril": 614,
      "Ġag": 615,
      "Ġ195": 616,
      "Ġ2024": 617,
      "alled": 618,
      "000": 619,
      "lag": 620,
      "Ġk": 621,
      "Ġent": 622,
      "Ġwork": 623,
      "Ġfirst": 624,
      "Ġafter": 625,
      "ĠComm": 626,
      "Ġmassac": 627,
      "ads": 628,
      "ĠHistor": 629,
      "ĠWar": 630,
      "Ġlongest": 631,
      "Ġ8": 632,
      "orn": 633,
      "Ġpart": 634,
      "ctober": 635,
      "Ġconstruct": 636,
      "Ġwho": 637,
      "rick": 638,
      "ount": 639,
      "94": 640,
      "Ġcl": 641,
      "Ġsu": 642,
      "Ġfloor": 643,
      "ouse": 644,
      "ĠJune": 645,
      "ĠFebruary": 646,
      "Ġcham": 647,
      "Ġcomple": 648,
      "30": 649,
      "33": 650,
      "ik": 651,
      "ire": 652,
      "ject": 653,
      "ud": 654,
      "wo": 655,
      "hed": 656,
      "ans": 657,
      "ance": 658,
      "itect": 659,
      "Ġ15": 660,
      "ovember": 661,
      "Ġ1988": 662,
      "200": 663,
      "BN": 664,
      "ron": 665,
      "ind": 666,
      "ite": 667,
      "Ġrec": 668,
      "ival": 669,
      "oci": 670,
      "ĠISBN": 671,
      "26": 672,
      "een": 673,
      "iz": 674,
      "ier": 675,
      "ph": 676,
      "ward": 677,
      "hen": 678,
      "Ġ2022": 679,
      "Ġgovern": 680,
      "aj": 681,
      "use": 682,
      "ase": 683,
      "Ġcol": 684,
      "ĠPress": 685,
      "ations": 686,
      "own": 687,
      "Ġyear": 688,
      "attle": 689,
      "adski": 690,
      ",[": 691,
      "St": 692,
      "ip": 693,
      "lac": 694,
      "Ġbut": 695,
      "ĠAl": 696,
      "Ġduring": 697,
      "ĠGadski": 698,
      "29": 699,
      "ann": 700,
      "Ġdis": 701,
      "Ġnorth": 702,
      "estor": 703,
      "terior": 704,
      "119": 705,
      "Ġall": 706,
      "Ġund": 707,
      "ating": 708,
      "ile": 709,
      "Ġincl": 710,
      "Ġdes": 711,
      "ement": 712,
      "ĠDivision": 713,
      "ĠTennessean": 714,
      "quival": 715,
      "ĠArmy": 716,
      "Ġroom": 717,
      "quivalent": 718,
      "23": 719,
      "25": 720,
      "ence": 721,
      "ess": 722,
      "Ġsh": 723,
      "Ġint": 724,
      "ĠSh": 725,
      "ĠCon": 726,
      "iron": 727,
      "Ġstair": 728,
      "Ġaround": 729,
      "ĠEquivalent": 730,
      "ecember": 731,
      "Ġchamber": 732,
      "ee": 733,
      "xt": 734,
      "Ġ&": 735,
      "Ġus": 736,
      "ens": 737,
      "Ġover": 738,
      "ĠAs": 739,
      "Ġdivision": 740,
      "rov": 741,
      "ĠHe": 742,
      "ept": 743,
      "Ġcommand": 744,
      "rickland": 745,
      "66": 746,
      "XX": 747,
      "ail": 748,
      "wn": 749,
      "ery": 750,
      "Ġtheir": 751,
      "ings": 752,
      "ican": 753,
      "ĠMay": 754,
      "ĠNovember": 755,
      "ĠIt": 756,
      "Ġlater": 757,
      "ames": 758,
      "ĠStrickland": 759,
      "ĠOctober": 760,
      "Ġarch": 761,
      "ĠEngl": 762,
      "Ġ978": 763,
      "ohn": 764,
      "eptember": 765,
      "lan": 766,
      "Ġiron": 767,
      "Ġsev": 768,
      "Ġserv": 769,
      "outh": 770,
      "Ġdo": 771,
      "Ġgeneral": 772,
      "ĠLond": 773,
      "resent": 774,
      "Ġlegislat": 775,
      "ĠLondon": 776,
      "45": 777,
      "bers": 778,
      "ood": 779,
      "ween": 780,
      "ĠY": 781,
      "ished": 782,
      "Ġ23": 783,
      "ĠSeptember": 784,
      "ach": 785,
      "etween": 786,
      "Ġone": 787,
      "Ġ2020": 788,
      "emor": 789,
      "Ġlett": 790,
      "ĠIndian": 791,
      "Ġremov": 792,
      "rough": 793,
      "ĠEnglish": 794,
      "Ġletters": 795,
      "74": 796,
      "iki": 797,
      "of": 798,
      "red": 799,
      "ract": 800,
      "sc": 801,
      "val": 802,
      "Ġvil": 803,
      "esey": 804,
      "Ġsec": 805,
      "ilit": 806,
      "Ġ29": 807,
      "Ġab": 808,
      "ome": 809,
      "oman": 810,
      "old": 811,
      "ĠJohn": 812,
      "Ġwords": 813,
      "nglesey": 814,
      "Ġunder": 815,
      "eg": 816,
      "ris": 817,
      "way": 818,
      "ĠčĊ": 819,
      "ang": 820,
      "Ġcavalry": 821,
      "Ġref": 822,
      "Ġbegan": 823,
      "ult": 824,
      "Ġreplac": 825,
      "merican": 826,
      "Ġmassacre": 827,
      "ajor": 828,
      "estoration": 829,
      "II": 830,
      "ie": 831,
      "iers": 832,
      "Ġord": 833,
      "orted": 834,
      "Ġother": 835,
      "Ġport": 836,
      "Ġ24": 837,
      "Ġbetween": 838,
      "ĠAnglesey": 839,
      "ould": 840,
      "ural": 841,
      "Ġname": 842,
      "ĠHar": 843,
      "Ġthrough": 844,
      "ĠStaff": 845,
      "ennessee": 846,
      "Ġbeen": 847,
      "Ġproject": 848,
      "Ġcommission": 849,
      "Tennessee": 850,
      "eil": 851,
      "oin": 852,
      "per": 853,
      "rary": 854,
      "Ġim": 855,
      "Ġup": 856,
      "Ġ14": 857,
      "rib": 858,
      "Ġrel": 859,
      "urn": 860,
      "ĠGe": 861,
      "1994": 862,
      "ĠOtt": 863,
      "ĠFor": 864,
      "tern": 865,
      "umn": 866,
      "Ġinstalled": 867,
      "aw": 868,
      "dition": 869,
      "eet": 870,
      "ft": 871,
      "med": 872,
      "ton": 873,
      "ĠZ": 874,
      "Ġthem": 875,
      "ative": 876,
      "Ġside": 877,
      "ĠAmerican": 878,
      "ĠBattle": 879,
      "Ġreg": 880,
      "ives": 881,
      "urch": 882,
      "Ġart": 883,
      "Ġcons": 884,
      "ave": 885,
      "ĠUnited": 886,
      "ĠIndia": 887,
      "Ġ2006": 888,
      "ibrary": 889,
      "Ġcolumn": 890,
      "Ġarchitect": 891,
      "Ġsecond": 892,
      "ĠStafford": 893,
      "38": 894,
      "ah": 895,
      "au": 896,
      "ied": 897,
      "iew": 898,
      "ren": 899,
      "inu": 900,
      "anche": 901,
      "ĠAn": 902,
      "Ġmon": 903,
      "ollow": 904,
      "ett": 905,
      "urd": 906,
      "ury": 907,
      "imes": 908,
      "istan": 909,
      "ĠLe": 910,
      "Ġroof": 911,
      "Ġclim": 912,
      "ilitary": 913,
      "ious": 914,
      "ob": 915,
      "ps": 916,
      "pedia": 917,
      "Ġtime": 918,
      "Ġtwo": 919,
      "Ġout": 920,
      "Ġpre": 921,
      "ĠNational": 922,
      "Ġ199": 923,
      "ures": 924,
      "Ġne": 925,
      "ĠPol": 926,
      "unn": 927,
      "Ġeast": 928,
      "ution": 929,
      "Ġ30": 930,
      "illion": 931,
      "ake": 932,
      "imele": 933,
      "Ġgovernment": 934,
      "ikipedia": 935,
      "valanche": 936,
      "Ġvillag": 937,
      "27": 938,
      "70": 939,
      "Ass": 940,
      "mb": 941,
      "oot": 942,
      "Ġj": 943,
      "ons": 944,
      "ory": 945,
      "Ġwalls": 946,
      "Ġcent": 947,
      "Ġ27": 948,
      "ĠCl": 949,
      "riv": 950,
      "ette": 951,
      "ĠBo": 952,
      "Ġhistor": 953,
      "Ġ1933": 954,
      "ĠDecember": 955,
      "ĠGovern": 956,
      "ĠOff": 957,
      "Ġ31": 958,
      "Ġadv": 959,
      "inton": 960,
      "iction": 961,
      "ces": 962,
      "earch": 963,
      "fore": 964,
      "sh": 965,
      "wer": 966,
      "Ġev": 967,
      "here": 968,
      "any": 969,
      "Ġcap": 970,
      "Ġ13": 971,
      "Ġday": 972,
      "ĠBrig": 973,
      "Ġlibrary": 974,
      "idd": 975,
      "ĠStates": 976,
      "ĠAssoci": 977,
      "Ġren": 978,
      "Ġprov": 979,
      "Ġexp": 980,
      "ubl": 981,
      "Ġattack": 982,
      "Ġconstruction": 983,
      "Ġsupp": 984,
      "Ġcompleted": 985,
      "Ġinto": 986,
      "Ġused": 987,
      "Ġseveral": 988,
      "Ġvillages": 989,
      "Assyrian": 990,
      "In": 991,
      "by": 992,
      "ck": 993,
      "iam": 994,
      "man": 995,
      "nown": 996,
      "Ġthey": 997,
      "orld": 998,
      "Ġsur": 999,
      "Ġbas": 1000,
      "Ġfollow": 1001,
      "ics": 1002,
      "ĠSher": 1003,
      "Ġmillion": 1004,
      "ety": 1005,
      "Ġrequ": 1006,
      "Ġ190": 1007,
      "ivil": 1008,
      "ired": 1009,
      "ĠHinton": 1010,
      "ists": 1011,
      "ĠGaz": 1012,
      "Ġ189": 1013,
      "able": 1014,
      "Ġrestoration": 1015,
      "ourt": 1016,
      "ĠOttoman": 1017,
      "ĠGazette": 1018,
      "40": 1019,
      "71": 1020,
      "ek": 1021,
      "arg": 1022,
      "arly": 1023,
      "arge": 1024,
      "Ġcar": 1025,
      "Ġprom": 1026,
      "Ġ22": 1027,
      "lement": 1028,
      "Ġmain": 1029,
      "Ġmod": 1030,
      "ola": 1031,
      "Ġstruct": 1032,
      "ĠDav": 1033,
      "ĠWh": 1034,
      "ĠWikipedia": 1035,
      "Ġ184": 1036,
      "akistan": 1037,
      "upola": 1038,
      "Ġdef": 1039,
      "Ġagain": 1040,
      "ountain": 1041,
      "Ġreplaced": 1042,
      "35": 1043,
      "60": 1044,
      "eak": 1045,
      "ks": 1046,
      "me": 1047,
      "vel": 1048,
      "Ġen": 1049,
      "Ġest": 1050,
      "Ġenc": 1051,
      "enn": 1052,
      "Ġwould": 1053,
      "Ġsouth": 1054,
      "Ġ25": 1055,
      "Ġ28": 1056,
      "Ġtower": 1057,
      "ĠSimele": 1058,
      "Ġmilitary": 1059,
      "semb": 1060,
      "aph": 1061,
      "rop": 1062,
      "Ġland": 1063,
      "ĠThey": 1064,
      "ĠHa": 1065,
      "ĠHill": 1066,
      "rait": 1067,
      "Ġforce": 1068,
      "ĠFalls": 1069,
      "Ġbefore": 1070,
      "ended": 1071,
      "ĠCommission": 1072,
      "ront": 1073,
      "Ġyears": 1074,
      "emorial": 1075,
      "Ġremoved": 1076,
      "ĠGeor": 1077,
      "22": 1078,
      "75": 1079,
      "General": 1080,
      "Macandrew": 1081,
      "ef": 1082,
      "ead": 1083,
      "led": 1084,
      "les": 1085,
      "ose": 1086,
      "rd": 1087,
      "rad": 1088,
      "ual": 1089,
      "Ġqu": 1090,
      "atue": 1091,
      "enate": 1092,
      "enry": 1093,
      "Ġwhen": 1094,
      "Ġcamp": 1095,
      "Ġcupola": 1096,
      "Ġsold": 1097,
      "Ġpo": 1098,
      "Ġ21": 1099,
      "ick": 1100,
      "eth": 1101,
      "Ġhouse": 1102,
      "Ġrece": 1103,
      "Ġonly": 1104,
      "Ġloc": 1105,
      "erson": 1106,
      "Ġnear": 1107,
      "ĠPur": 1108,
      "ĠPakistan": 1109,
      "imest": 1110,
      "emp": 1111,
      "Ġstone": 1112,
      "ident": 1113,
      "igh": 1114,
      "Ġ188": 1115,
      "illiam": 1116,
      "ĠKing": 1117,
      "ourn": 1118,
      "Ġcontinu": 1119,
      "ike": 1120,
      "anner": 1121,
      "Ġimp": 1122,
      "imestone": 1123,
      "39": 1124,
      "June": 1125,
      "ble": 1126,
      "ox": 1127,
      "ten": 1128,
      "uding": 1129,
      "work": 1130,
      "xp": 1131,
      "Ġceil": 1132,
      "Ġsy": 1133,
      "Ġper": 1134,
      "ĠAll": 1135,
      "Ġfour": 1136,
      "Ġfeet": 1137,
      "Ġacc": 1138,
      "Ġavalanche": 1139,
      "rid": 1140,
      "Ġmore": 1141,
      "Ġmade": 1142,
      "Ġdec": 1143,
      "Ġhim": 1144,
      "urk": 1145,
      "irm": 1146,
      "Ġstaff": 1147,
      "Ġthree": 1148,
      "ĠEast": 1149,
      "Ġbec": 1150,
      "ained": 1151,
      "ops": 1152,
      "ĠKn": 1153,
      "Ġany": 1154,
      "Ġplace": 1155,
      "Ġaddition": 1156,
      "Ġofficer": 1157,
      "Ġinclud": 1158,
      "Ġincluding": 1159,
      "ĠConf": 1160,
      "Ġlegislature": 1161,
      "unnel": 1162,
      "Ġcapt": 1163,
      "ĠGeorge": 1164,
      "21": 1165,
      "On": 1166,
      "eat": 1167,
      "eal": 1168,
      "ford": 1169,
      "io": 1170,
      "ix": 1171,
      "ja": 1172,
      "oy": 1173,
      "raph": 1174,
      "orps": 1175,
      "Ġwest": 1176,
      "Ġwhere": 1177,
      "Ġsc": 1178,
      "reat": 1179,
      "Ġ11": 1180,
      "ĠTo": 1181,
      "lect": 1182,
      "Ġmov": 1183,
      "ets": 1184,
      "stem": 1185,
      "ĠBanner": 1186,
      "ivers": 1187,
      "Ġ2025": 1188,
      "ĠGeneral": 1189,
      "ung": 1190,
      "1930": 1191,
      "Ġeight": 1192,
      "ongest": 1193,
      "ull": 1194,
      "Ġreported": 1195,
      "Ġexterior": 1196,
      "ĠChurch": 1197,
      "upre": 1198,
      "Ġcontract": 1199,
      "rance": 1200,
      "ĠUnion": 1201,
      "ences": 1202,
      "ĠBrigade": 1203,
      "ĠAssociated": 1204,
      "sembly": 1205,
      "Ġsoldiers": 1206,
      "32": 1207,
      "69": 1208,
      "77": 1209,
      "aign": 1210,
      "gy": 1211,
      "ged": 1212,
      "mp": 1213,
      "uk": 1214,
      "yl": 1215,
      "eder": 1216,
      "ities": 1217,
      "Ġocc": 1218,
      "Ġcity": 1219,
      "Ġsite": 1220,
      "Ġbo": 1221,
      "ĠAt": 1222,
      "let": 1223,
      "Ġac": 1224,
      "Ġaward": 1225,
      "icle": 1226,
      "ions": 1227,
      "ĠCol": 1228,
      "ĠCivil": 1229,
      "Ġ2017": 1230,
      "olic": 1231,
      "acy": 1232,
      "ĠBro": 1233,
      "Ġret": 1234,
      "Ġlimestone": 1235,
      "Ġ2021": 1236,
      "rab": 1237,
      "ness": 1238,
      "ĠWilliam": 1239,
      "ĠList": 1240,
      "usry": 1241,
      "Ġlead": 1242,
      "ĠKurd": 1243,
      "uilt": 1244,
      "abor": 1245,
      "Ġplan": 1246,
      "Ġalong": 1247,
      "erman": 1248,
      "Ġkill": 1249,
      "Ġknown": 1250,
      "ĠHistoric": 1251,
      "Ġconstructed": 1252,
      "Ġdesign": 1253,
      "ĠOffice": 1254,
      "Ġadvance": 1255,
      "ĠPurja": 1256,
      "ĠConfeder": 1257,
      "34": 1258,
      "67": 1259,
      "TV": 1260,
      "Wh": 1261,
      "af": 1262,
      "ai": 1263,
      "ean": 1264,
      "ral": 1265,
      "rist": 1266,
      "Ġend": 1267,
      "Ġter": 1268,
      "orm": 1269,
      "are": 1270,
      "Ġsub": 1271,
      "Ġinf": 1272,
      "Ġ26": 1273,
      "ĠAd": 1274,
      "ĠArab": 1275,
      "Ġfound": 1276,
      "Ġmen": 1277,
      "Ġmost": 1278,
      "Ġmajor": 1279,
      "Ġdid": 1280,
      "Ġhave": 1281,
      "Ġ1966": 1282,
      "ately": 1283,
      "rav": 1284,
      "oted": 1285,
      "Ġass": 1286,
      "umber": 1287,
      "ains": 1288,
      "ock": 1289,
      "ackson": 1290,
      "ĠChar": 1291,
      "Ġofficial": 1292,
      "aza": 1293,
      "Ġdeath": 1294,
      "ociety": 1295,
      "scap": 1296,
      "Ġabout": 1297,
      "Ġportrait": 1298,
      "Ġcolumns": 1299,
      "Ġclimbers": 1300,
      "Ġcentury": 1301,
      "iddle": 1302,
      "Ġrenov": 1303,
      "ekle": 1304,
      "ennial": 1305,
      "ĠHaig": 1306,
      "Ġcampaign": 1307,
      "upreme": 1308,
      "ristian": 1309,
      "48": 1310,
      "50": 1311,
      "51": 1312,
      "98": 1313,
      "eas": 1314,
      "men": 1315,
      "pa": 1316,
      "qi": 1317,
      "rest": 1318,
      "til": 1319,
      "Ġra": 1320,
      "ont": 1321,
      "Ġold": 1322,
      "Ġcre": 1323,
      "Ġsl": 1324,
      "Ġso": 1325,
      "Ġsum": 1326,
      "Ġsome": 1327,
      "ret": 1328,
      "Ġ17": 1329,
      "ĠAb": 1330,
      "ĠAle": 1331,
      "icent": 1332,
      "ĠSid": 1333,
      "ĠServ": 1334,
      "ĠSociety": 1335,
      "Ġmar": 1336,
      "Ġmountain": 1337,
      "ĠMiddle": 1338,
      "olog": 1339,
      "Ġdet": 1340,
      "ĠBuilding": 1341,
      "Ġhas": 1342,
      "Ġhall": 1343,
      "Ġ1919": 1344,
      "Ġ1974": 1345,
      "ross": 1346,
      "amb": 1347,
      "ĠPro": 1348,
      "ĠHenry": 1349,
      "ĠJames": 1350,
      "ĠJackson": 1351,
      "ides": 1352,
      "thor": 1353,
      "ister": 1354,
      "isting": 1355,
      "ĠDekle": 1356,
      "Ġthan": 1357,
      "ĠWorld": 1358,
      "ĠEl": 1359,
      "aving": 1360,
      "Ġatop": 1361,
      "ishing": 1362,
      "Ġwhile": 1363,
      "Ġleft": 1364,
      "Ġrepair": 1365,
      "ĠIntern": 1366,
      "Ġbuildings": 1367,
      "ograph": 1368,
      "ough": 1369,
      "ches": 1370,
      "Ġoffice": 1371,
      "rought": 1372,
      "useum": 1373,
      "ĠLegislat": 1374,
      "ictionary": 1375,
      "Ġbasement": 1376,
      "ĠSherpa": 1377,
      "Ġcontinued": 1378,
      "Ġadditional": 1379,
      "icentennial": 1380,
      "ĠSidqi": 1381,
      "37": 1382,
      "Capitol": 1383,
      "DF": 1384,
      "LC": 1385,
      "PDF": 1386,
      "Th": 1387,
      "ci": 1388,
      "eer": 1389,
      "hil": 1390,
      "hind": 1391,
      "ific": 1392,
      "ne": 1393,
      "rac": 1394,
      "side": 1395,
      "vious": 1396,
      "yr": 1397,
      "ĠØ": 1398,
      "Ġed": 1399,
      "hem": 1400,
      "ince": 1401,
      "ert": 1402,
      "atives": 1403,
      "eng": 1404,
      "ared": 1405,
      "ism": 1406,
      "Ġwind": 1407,
      "itt": 1408,
      "Ġcorn": 1409,
      "Ġsing": 1410,
      "Ġsenate": 1411,
      "Ġinterior": 1412,
      "ington": 1413,
      "Ġbrig": 1414,
      "Ġbuilt": 1415,
      "ĠAnd": 1416,
      "Ġflag": 1417,
      "Ġact": 1418,
      "ĠCar": 1419,
      "ĠMall": 1420,
      "ĠIs": 1421,
      "row": 1422,
      "roops": 1423,
      "Ġ2023": 1424,
      "ĠRep": 1425,
      "ĠReg": 1426,
      "Ġnational": 1427,
      "amas": 1428,
      "ĠPl": 1429,
      "ĠPeak": 1430,
      "ĠHusry": 1431,
      "ided": 1432,
      "Ġarmy": 1433,
      "ĠEd": 1434,
      "Ġview": 1435,
      "ument": 1436,
      "ppo": 1437,
      "ĠNews": 1438,
      "Ġ1987": 1439,
      "ĠUnivers": 1440,
      "ĠArchitect": 1441,
      "Ġ1854": 1442,
      "Ġuntil": 1443,
      "Ġmassacres": 1444,
      "ĠHistory": 1445,
      "ĠHistorical": 1446,
      "Ġstairc": 1447,
      "ĠGovernor": 1448,
      "Ġfollowing": 1449,
      "Ġagainst": 1450,
      "ournal": 1451,
      "62": 1452,
      "68": 1453,
      "aug": 1454,
      "ause": 1455,
      "cus": 1456,
      "ext": 1457,
      "iy": 1458,
      "ler": 1459,
      "mall": 1460,
      "oog": 1461,
      "oore": 1462,
      "pen": 1463,
      "rou": 1464,
      "rol": 1465,
      "uthor": 1466,
      "ved": 1467,
      "yp": 1468,
      "Ġtran": 1469,
      "Ġtemp": 1470,
      "Ġtroops": 1471,
      "hes": 1472,
      "ined": 1473,
      "erc": 1474,
      "eded": 1475,
      "aries": 1476,
      "alest": 1477,
      "Ġwar": 1478,
      "aster": 1479,
      "Ġcalled": 1480,
      "Ġcourt": 1481,
      "Ġsent": 1482,
      "Ġph": 1483,
      "Ġpres": 1484,
      "Ġpresent": 1485,
      "Ġ12": 1486,
      "ild": 1487,
      "Ġbl": 1488,
      "Ġbel": 1489,
      "Ġbust": 1490,
      "ĠApp": 1491,
      "ĠTurk": 1492,
      "omet": 1493,
      "Ġtook": 1494,
      "ĠSyri": 1495,
      "ĠComp": 1496,
      "ĠCorps": 1497,
      "ried": 1498,
      "ĠMc": 1499,
      "Ġ2012": 1500,
      "ently": 1501,
      "Ġdem": 1502,
      "ured": 1503,
      "Ġnames": 1504,
      "ĠPr": 1505,
      "ĠPark": 1506,
      "imun": 1507,
      "elop": 1508,
      "Ġstatue": 1509,
      "estern": 1510,
      "ĠOrd": 1511,
      "ĠFran": 1512,
      "ĠLand": 1513,
      "ows": 1514,
      "ower": 1515,
      "Ġorgan": 1516,
      "abl": 1517,
      "Ġreport": 1518,
      "Ġplac": 1519,
      "Ġcommit": 1520,
      "Ġstateh": 1521,
      "Ġoffices": 1522,
      "oks": 1523,
      "Ġpartic": 1524,
      "Ġrecord": 1525,
      "Ġgovernor": 1526,
      "State": 1527,
      "Ġshort": 1528,
      "ĠJohnson": 1529,
      "Ġorder": 1530,
      "Ġreloc": 1531,
      "Ġregim": 1532,
      "Ġmonth": 1533,
      "Ġestim": 1534,
      "Ġlandscap": 1535,
      "oxville": 1536,
      "ĠKnoxville": 1537,
      "Ġincluded": 1538,
      "Ġawarded": 1539,
      "ĠConfederate": 1540,
      "ĠAleppo": 1541,
      "ĠInternational": 1542,
      "Ġsingle": 1543,
      "alestine": 1544,
      "ĠOrder": 1545,
      "\".[": 1546,
      "..": 1547,
      "31": 1548,
      "58": 1549,
      "79": 1550,
      "Al": 1551,
      "December": 1552,
      "July": 1553,
      "Sh": 1554,
      "Search": 1555,
      "aid": 1556,
      "ced": 1557,
      "ele": 1558,
      "eam": 1559,
      "iff": 1560,
      "ke": 1561,
      "mit": 1562,
      "su": 1563,
      "Â°": 1564,
      "Ġ'": 1565,
      "Ġuse": 1566,
      "Ġtrib": 1567,
      "ins": 1568,
      "Ġthere": 1569,
      "edic": 1570,
      "ise": 1571,
      "ised": 1572,
      "Ġwater": 1573,
      "its": 1574,
      "ands": 1575,
      "ander": 1576,
      "andel": 1577,
      "Ġsqu": 1578,
      "Ġsame": 1579,
      "Ġpass": 1580,
      "Ġpubl": 1581,
      "Ġinit": 1582,
      "Ġmay": 1583,
      "Ġmemorial": 1584,
      "Ġ2011": 1585,
      "olution": 1586,
      "ĠNep": 1587,
      "ĠBy": 1588,
      "Ġrev": 1589,
      "Ġloot": 1590,
      "Ġlike": 1591,
      "ĠRec": 1592,
      "ĠThese": 1593,
      "ĠHis": 1594,
      "evelop": 1595,
      "ims": 1596,
      "imedia": 1597,
      "Ġston": 1598,
      "ĠDamas": 1599,
      "âĢ²": 1600,
      "âĢ³": 1601,
      "âĢĬ": 1602,
      "ĠFound": 1603,
      "ĠFront": 1604,
      "Ġarm": 1605,
      "ayed": 1606,
      "Ġeach": 1607,
      "Ġearly": 1608,
      "Ġbeing": 1609,
      "Ġbehind": 1610,
      "aves": 1611,
      "uments": 1612,
      "ainted": 1613,
      "ular": 1614,
      "Ġrepresent": 1615,
      "Ġext": 1616,
      "Ġyou": 1617,
      "Ġinstall": 1618,
      "ption": 1619,
      "erms": 1620,
      "ikimedia": 1621,
      "ĠShimun": 1622,
      "Ġstairs": 1623,
      "ensive": 1624,
      "Ġcommander": 1625,
      "Ġordered": 1626,
      "oined": 1627,
      "Ġconsid": 1628,
      "Ġprevious": 1629,
      "Ġnext": 1630,
      "ĠPolk": 1631,
      "Ġquar": 1632,
      "Ġceiling": 1633,
      "Ġmarble": 1634,
      "ĠNepal": 1635,
      "ĠDamascus": 1636,
      "):": 1637,
      "09": 1638,
      "43": 1639,
      "47": 1640,
      "93": 1641,
      "Ar": 1642,
      "British": 1643,
      "Ch": 1644,
      "No": 1645,
      "October": 1646,
      "cent": 1647,
      "dom": 1648,
      "gov": 1649,
      "king": 1650,
      "lu": 1651,
      "oop": 1652,
      "pl": 1653,
      "pted": 1654,
      "ram": 1655,
      "the": 1656,
      "test": 1657,
      "uct": 1658,
      "ven": 1659,
      "west": 1660,
      "ys": 1661,
      "Ġtn": 1662,
      "Ġtake": 1663,
      "onel": 1664,
      "Ġthen": 1665,
      "org": 1666,
      "ald": 1667,
      "alt": 1668,
      "Ġcost": 1669,
      "Ġsince": 1670,
      "Ġpos": 1671,
      "Ġoff": 1672,
      "Ġbod": 1673,
      "Ġfall": 1674,
      "ĠTimes": 1675,
      "ley": 1676,
      "Ġam": 1677,
      "Ġauthor": 1678,
      "omb": 1679,
      "ĠCamp": 1680,
      "ĠCamb": 1681,
      "Ġmin": 1682,
      "ĠMon": 1683,
      "ĠMar": 1684,
      "ĠMary": 1685,
      "ention": 1686,
      "Ġdep": 1687,
      "Ġhill": 1688,
      "Ġhired": 1689,
      "Ġlarge": 1690,
      "Ġlabor": 1691,
      "iven": 1692,
      "urb": 1693,
      "urther": 1694,
      "adier": 1695,
      "Ġnam": 1696,
      "ĠHol": 1697,
      "ĠJournal": 1698,
      "Ġstr": 1699,
      "Ġstar": 1700,
      "ested": 1701,
      "Ġgen": 1702,
      "ĠLev": 1703,
      "ordan": 1704,
      "Ġ1845": 1705,
      "ott": 1706,
      "Ġ35": 1707,
      "akh": 1708,
      "Ġchandel": 1709,
      "Ġplans": 1710,
      "Ġplann": 1711,
      "ounter": 1712,
      "Ġ1859": 1713,
      "right": 1714,
      "Ġspec": 1715,
      "Ġ1959": 1716,
      "Ġentrance": 1717,
      "ized": 1718,
      "ization": 1719,
      "Ġservice": 1720,
      "Ġdoi": 1721,
      "ĠYork": 1722,
      "Ġrefug": 1723,
      "ointed": 1724,
      "Ġhistory": 1725,
      "Ġdays": 1726,
      "arget": 1727,
      "Ġpromoted": 1728,
      "Ġmodern": 1729,
      "Ġreceived": 1730,
      "Ġsystem": 1731,
      "lectric": 1732,
      "ĠKurdish": 1733,
      "ĠService": 1734,
      "This": 1735,
      "ĠRegister": 1736,
      "ĠUniversity": 1737,
      "Ġtempor": 1738,
      "28": 1739,
      "46": 1740,
      "49": 1741,
      "57": 1742,
      "59": 1743,
      "61": 1744,
      "64": 1745,
      "80": 1746,
      "84": 1747,
      "88": 1748,
      "Bro": 1749,
      "Battle": 1750,
      "Cont": 1751,
      "CLC": 1752,
      "January": 1753,
      "KR": 1754,
      "List": 1755,
      "Ref": 1756,
      "aqu": 1757,
      "can": 1758,
      "eop": 1759,
      "floor": 1760,
      "hab": 1761,
      "iel": 1762,
      "ixt": 1763,
      "las": 1764,
      "nect": 1765,
      "oo": 1766,
      "oss": 1767,
      "ues": 1768,
      "uch": 1769,
      "Ġ-": 1770,
      "Ġ0": 1771,
      "ĠQ": 1772,
      "Ġif": 1773,
      "Ġtru": 1774,
      "Ġtak": 1775,
      "Ġtrad": 1776,
      "erences": 1777,
      "onom": 1778,
      "ator": 1779,
      "ally": 1780,
      "iss": 1781,
      "Ġwood": 1782,
      "Ġcan": 1783,
      "Ġcor": 1784,
      "Ġcry": 1785,
      "Ġcris": 1786,
      "Ġcross": 1787,
      "Ġsour": 1788,
      "Ġsix": 1789,
      "Ġpol": 1790,
      "Ġperson": 1791,
      "ily": 1792,
      "Ġinc": 1793,
      "Ġind": 1794,
      "Ġinv": 1795,
      "Ġback": 1796,
      "Ġfac": 1797,
      "ĠTunnel": 1798,
      "lean": 1799,
      "ices": 1800,
      "ĠSc": 1801,
      "ĠSir": 1802,
      "ĠSim": 1803,
      "ĠMem": 1804,
      "ĠMak": 1805,
      "ĠMart": 1806,
      "ĠMajor": 1807,
      "ĠMuseum": 1808,
      "ĠMoore": 1809,
      "Ġ2018": 1810,
      "ster": 1811,
      "Ġhand": 1812,
      "Ġ1918": 1813,
      "Ġline": 1814,
      "Ġlight": 1815,
      "iver": 1816,
      "Ġnon": 1817,
      "ĠPar": 1818,
      "ĠPalestine": 1819,
      "ĠHouse": 1820,
      "Ġstill": 1821,
      "ĠDictionary": 1822,
      "ĠWKR": 1823,
      "Ġgiven": 1824,
      "apital": 1825,
      "ĠOCLC": 1826,
      "ords": 1827,
      "ĠEn": 1828,
      "ĠEng": 1829,
      "Ġconf": 1830,
      "Ġconv": 1831,
      "Ġconnect": 1832,
      "owel": 1833,
      "other": 1834,
      "agh": 1835,
      "Ġvowel": 1836,
      "Ġprop": 1837,
      "ĠChristian": 1838,
      "Ġrole": 1839,
      "Ġhead": 1840,
      "ounted": 1841,
      "ched": 1842,
      "itions": 1843,
      "inting": 1844,
      "ible": 1845,
      "Ġinstead": 1846,
      "Ġapprop": 1847,
      "Ġappointed": 1848,
      "Ġspace": 1849,
      "ĠCommerc": 1850,
      "orning": 1851,
      "irect": 1852,
      "wards": 1853,
      "rovers": 1854,
      "XXI": 1855,
      "achine": 1856,
      "ĠForrest": 1857,
      "Ġarticle": 1858,
      "ĠBooks": 1859,
      "ĠGovernment": 1860,
      "Ġevents": 1861,
      "Ġsurround": 1862,
      "Ġstructural": 1863,
      "ĠDavid": 1864,
      "ually": 1865,
      "ĠKingdom": 1866,
      "irmal": 1867,
      "Ġbecause": 1868,
      "Ġoccur": 1869,
      "ĠLegislative": 1870,
      "Ġwindows": 1871,
      "ĠAndrew": 1872,
      "Ġstaircase": 1873,
      "Ġtrans": 1874,
      "ĠAppeal": 1875,
      "ĠSyria": 1876,
      "ĠFoundation": 1877,
      "Ġconsidered": 1878,
      "Ġstarted": 1879,
      "ĠLevies": 1880,
      "Ġrefuge": 1881,
      "Ġcrypt": 1882,
      "ĠWKRN": 1883,
      "ĠEngine": 1884,
      "Ġappropri": 1885,
      "ĠCommercial": 1886,
      "36": 1887,
      "?\".": 1888,
      "April": 1889,
      "Longest": 1890,
      "May": 1891,
      "Massac": 1892,
      "November": 1893,
      "Text": 1894,
      "ael": 1895,
      "cy": 1896,
      "ked": 1897,
      "mark": 1898,
      "oint": 1899,
      "pro": 1900,
      "ti": 1901,
      "tal": 1902,
      "ting": 1903,
      "uel": 1904,
      "veil": 1905,
      "well": 1906,
      "wll": 1907,
      "xford": 1908,
      "ÙĬ": 1909,
      "Ġident": 1910,
      "heast": 1911,
      "inished": 1912,
      "eries": 1913,
      "Ġthese": 1914,
      "ories": 1915,
      "atri": 1916,
      "ators": 1917,
      "enant": 1918,
      "enby": 1919,
      "esp": 1920,
      "alc": 1921,
      "ale": 1922,
      "Ġwrought": 1923,
      "Ġob": 1924,
      "andard": 1925,
      "Ġsee": 1926,
      "Ġsmall": 1927,
      "Ġpage": 1928,
      "reak": 1929,
      "iles": 1930,
      "ility": 1931,
      "Ġinter": 1932,
      "Ġbase": 1933,
      "ĠAven": 1934,
      "Ġfire": 1935,
      "Ġfail": 1936,
      "Ġfront": 1937,
      "Ġfurther": 1938,
      "Ġfixt": 1939,
      "ico": 1940,
      "omen": 1941,
      "omas": 1942,
      "Ġtotal": 1943,
      "ĠSam": 1944,
      "ĠSouth": 1945,
      "rim": 1946,
      "Ġmet": 1947,
      "Ġmid": 1948,
      "Ġmall": 1949,
      "Ġmurd": 1950,
      "Ġmany": 1951,
      "ĠMemorial": 1952,
      "Ġ2000": 1953,
      "Ġdied": 1954,
      "Ġdirect": 1955,
      "sel": 1956,
      "sey": 1957,
      "sequ": 1958,
      "ĠBel": 1959,
      "ĠBill": 1960,
      "ĠBak": 1961,
      "ĠBicentennial": 1962,
      "Ġhow": 1963,
      "Ġrein": 1964,
      "Ġ1915": 1965,
      "Ġlast": 1966,
      "ĠRober": 1967,
      "ĠRiver": 1968,
      "ĠPres": 1969,
      "ĠPhil": 1970,
      "ateg": 1971,
      "ever": 1972,
      "thy": 1973,
      "ĠDail": 1974,
      "Ġthir": 1975,
      "ĠGerman": 1976,
      "ĠGoog": 1977,
      "rag": 1978,
      "rai": 1979,
      "ĠWestern": 1980,
      "Ġgo": 1981,
      "ĠFirst": 1982,
      "ĠExp": 1983,
      "ays": 1984,
      "Ġeff": 1985,
      "otlow": 1986,
      "utenant": 1987,
      "Ġlevel": 1988,
      "ially": 1989,
      "epend": 1990,
      "loy": 1991,
      "ogn": 1992,
      "Ġ60": 1993,
      "Ġ1986": 1994,
      "ressed": 1995,
      "reek": 1996,
      "ified": 1997,
      "Ġresp": 1998,
      "Ġappear": 1999,
      "ĠVol": 2000,
      "Ġcomplete": 2001,
      "2006": 2002,
      "2008": 2003,
      "phis": 2004,
      "Ġrooms": 2005,
      "ĠAssembly": 2006,
      "rove": 2007,
      "Ġserved": 2008,
      "Ġdoors": 2009,
      "III": 2010,
      "ieutenant": 2011,
      "rench": 2012,
      "Ġmonuments": 2013,
      "rivacy": 2014,
      "Ġhistorian": 2015,
      "Ġmodel": 2016,
      "Ġstructure": 2017,
      "ĠDavis": 2018,
      "Ġnearby": 2019,
      "ĠAllenby": 2020,
      "Ġbecame": 2021,
      "letter": 2022,
      "Ġkilled": 2023,
      "Ġsubsequ": 2024,
      "Ġcreated": 2025,
      "retary": 2026,
      "hemical": 2027,
      "ĠPlaza": 2028,
      "iya": 2029,
      "ĠTurkish": 2030,
      "ĠPrinting": 2031,
      "ĠLandmark": 2032,
      "Ġorganization": 2033,
      "Ġstatehouse": 2034,
      "Ġpublic": 2035,
      "ooper": 2036,
      "Ġbodies": 2037,
      "Ġamong": 2038,
      "References": 2039,
      "eople": 2040,
      "Ġcorrid": 2041,
      "Ġcrisis": 2042,
      "ĠMemphis": 2043,
      "atriarch": 2044,
      "ĠAvenue": 2045,
      "ĠRobert": 2046,
      "ĠDaily": 2047,
      "ĠGoogle": 2048,
      ")\".": 2049,
      ".\"": 2050,
      "54": 2051,
      "56": 2052,
      "63": 2053,
      "65": 2054,
      "73": 2055,
      "89": 2056,
      "An": 2057,
      "Don": 2058,
      "ED": 2059,
      "From": 2060,
      "ID": 2061,
      "SN": 2062,
      "View": 2063,
      "aus": 2064,
      "ba": 2065,
      "born": 2066,
      "cu": 2067,
      "day": 2068,
      "equ": 2069,
      "foot": 2070,
      "ges": 2071,
      "rin": 2072,
      "tion": 2073,
      "uin": 2074,
      "uri": 2075,
      "upp": 2076,
      "vte": 2077,
      "§Ù": 2078,
      "Ġ[": 2079,
      "Ġel": 2080,
      "Ġens": 2081,
      "Ġtimes": 2082,
      "Ġteam": 2083,
      "ank": 2084,
      "ony": 2085,
      "edar": 2086,
      "orse": 2087,
      "atter": 2088,
      "Ġwee": 2089,
      "Ġwomen": 2090,
      "Ġopen": 2091,
      "Ġco": 2092,
      "Ġcast": 2093,
      "Ġclo": 2094,
      "Ġcount": 2095,
      "Ġclean": 2096,
      "Ġcapital": 2097,
      "Ġset": 2098,
      "Ġsup": 2099,
      "Ġsupreme": 2100,
      "Ġpop": 2101,
      "Ġpost": 2102,
      "Ġpark": 2103,
      "reed": 2104,
      "reen": 2105,
      "ili": 2106,
      "Ġbro": 2107,
      "Ġfl": 2108,
      "Ġfinal": 2109,
      "Ġfell": 2110,
      "lev": 2111,
      "Ġtown": 2112,
      "ĠSec": 2113,
      "ĠSupreme": 2114,
      "ĠCre": 2115,
      "ĠCourt": 2116,
      "ĠCooper": 2117,
      "rief": 2118,
      "Ġmass": 2119,
      "Ġmeet": 2120,
      "Ġ2010": 2121,
      "Ġdel": 2122,
      "Ġdown": 2123,
      "Ġdedic": 2124,
      "ĠNirmal": 2125,
      "ĠBeng": 2126,
      "Ġhon": 2127,
      "Ġhide": 2128,
      "Ġhaving": 2129,
      "Ġ1917": 2130,
      "Ġlin": 2131,
      "Ġlate": 2132,
      "ĠRev": 2133,
      "ĠRich": 2134,
      "adel": 2135,
      "Ġno": 2136,
      "Ġnow": 2137,
      "Ġnumber": 2138,
      "ĠPa": 2139,
      "ĠPlac": 2140,
      "imately": 2141,
      "ĠJordan": 2142,
      "ĠDoug": 2143,
      "ĠGrounds": 2144,
      "rail": 2145,
      "ĠWash": 2146,
      "ĠWood": 2147,
      "Ġground": 2148,
      "bert": 2149,
      "190": 2150,
      "1919": 2151,
      "ove": 2152,
      "ĠOther": 2153,
      "Ġelectric": 2154,
      "Ġwithout": 2155,
      "utonom": 2156,
      "Ġassembly": 2157,
      "ocation": 2158,
      "ocide": 2159,
      "opedia": 2160,
      "ected": 2161,
      "Ġann": 2162,
      "ablat": 2163,
      "Ġrest": 2164,
      "oured": 2165,
      "asters": 2166,
      "ments": 2167,
      "ardis": 2168,
      "ebster": 2169,
      "osed": 2170,
      "Ġcontrovers": 2171,
      "tee": 2172,
      "ĠThomas": 2173,
      "acts": 2174,
      "Ġ1855": 2175,
      "enced": 2176,
      "clopedia": 2177,
      "Ġresolution": 2178,
      "Ġappro": 2179,
      "ĠISSN": 2180,
      "Ġagree": 2181,
      "Ġentablat": 2182,
      "Ġsuch": 2183,
      "Ġchambers": 2184,
      "Ġrecomm": 2185,
      "Ġrecogn": 2186,
      "Standard": 2187,
      "Ġallow": 2188,
      "Ġdesc": 2189,
      "Ġdesp": 2190,
      "Ġshow": 2191,
      "Ġstairwell": 2192,
      "rovement": 2193,
      "XXX": 2194,
      "wnlow": 2195,
      "ways": 2196,
      "angu": 2197,
      "Ġportico": 2198,
      "Ġarchitecture": 2199,
      "ĠClub": 2200,
      "Ġsupported": 2201,
      "Assyrians": 2202,
      "Ġrequired": 2203,
      "Ġestabl": 2204,
      "Ġpoint": 2205,
      "Ġlocated": 2206,
      "Ġcapture": 2207,
      "Ġboth": 2208,
      "Ġreturn": 2209,
      "ĠCharles": 2210,
      "Ġofficials": 2211,
      "ittle": 2212,
      "Ġcorner": 2213,
      "ĠRepresent": 2214,
      "ĠEdward": 2215,
      "ildren": 2216,
      "Ġpassed": 2217,
      "Ġposition": 2218,
      "Ġtemporary": 2219,
      "ield": 2220,
      "Ġconvict": 2221,
      "Ġcorridor": 2222,
      "ĠBengal": 2223,
      "ĠRichard": 2224,
      "ĠPlaces": 2225,
      "ĠDouglas": 2226,
      "ĠWashington": 2227,
      ").[": 2228,
      ".,": 2229,
      "08": 2230,
      "44": 2231,
      "52": 2232,
      "600": 2233,
      "72": 2234,
      "76": 2235,
      "85": 2236,
      "96": 2237,
      "FM": 2238,
      "February": 2239,
      "Iraq": 2240,
      "Map": 2241,
      "National": 2242,
      "OR": 2243,
      "ST": 2244,
      "See": 2245,
      "Wikimedia": 2246,
      "].": 2247,
      "aust": 2248,
      "bor": 2249,
      "back": 2250,
      "co": 2251,
      "cis": 2252,
      "cav": 2253,
      "eh": 2254,
      "eel": 2255,
      "for": 2256,
      "fric": 2257,
      "fair": 2258,
      "ground": 2259,
      "gog": 2260,
      "ios": 2261,
      "la": 2262,
      "lor": 2263,
      "lim": 2264,
      "most": 2265,
      "ning": 2266,
      "nic": 2267,
      "nam": 2268,
      "oon": 2269,
      "rand": 2270,
      "ration": 2271,
      "rill": 2272,
      "rack": 2273,
      "sch": 2274,
      "ta": 2275,
      "Ġright": 2276,
      "Ġtre": 2277,
      "Ġtunnel": 2278,
      "Ġterms": 2279,
      "ering": 2280,
      "erred": 2281,
      "onic": 2282,
      "edford": 2283,
      "atin": 2284,
      "atches": 2285,
      "ene": 2286,
      "ari": 2287,
      "arl": 2288,
      "aron": 2289,
      "arily": 2290,
      "alk": 2291,
      "ising": 2292,
      "itan": 2293,
      "itations": 2294,
      "itics": 2295,
      "Ġoper": 2296,
      "ases": 2297,
      "Ġcir": 2298,
      "Ġcounter": 2299,
      "Ġsk": 2300,
      "Ġsim": 2301,
      "Ġseen": 2302,
      "Ġsett": 2303,
      "Ġsomet": 2304,
      "Ġput": 2305,
      "Ġpus": 2306,
      "Ġpress": 2307,
      "Ġpainted": 2308,
      "ilic": 2309,
      "ĠAc": 2310,
      "ĠAm": 2311,
      "ĠAtt": 2312,
      "ĠAfric": 2313,
      "Ġfirm": 2314,
      "ĠTwo": 2315,
      "Ġav": 2316,
      "icy": 2317,
      "oms": 2318,
      "oura": 2319,
      "Ġtoo": 2320,
      "Ġtowards": 2321,
      "ĠSy": 2322,
      "ĠShe": 2323,
      "ĠSen": 2324,
      "ĠSomm": 2325,
      "ĠCity": 2326,
      "ĠMor": 2327,
      "ĠMos": 2328,
      "ĠMore": 2329,
      "ĠMost": 2330,
      "ĠMaj": 2331,
      "ĠMotlow": 2332,
      "Ġ2019": 2333,
      "Ġ2016": 2334,
      "olved": 2335,
      "ental": 2336,
      "stit": 2337,
      "Ġdam": 2338,
      "Ġdist": 2339,
      "Ġdeb": 2340,
      "sec": 2341,
      "ĠImp": 2342,
      "ĠBe": 2343,
      "ĠBedford": 2344,
      "Ġread": 2345,
      "Ġ1914": 2346,
      "Ġ1970": 2347,
      "Ġlower": 2348,
      "Ġnort": 2349,
      "irab": 2350,
      "ĠPage": 2351,
      "ĠHo": 2352,
      "ĠHer": 2353,
      "ĠHigh": 2354,
      "iman": 2355,
      "ĠJST": 2356,
      "Ġstre": 2357,
      "ĠDay": 2358,
      "ĠDoh": 2359,
      "ĠDuring": 2360,
      "ĠDardis": 2361,
      "ĠDirab": 2362,
      "ĠWas": 2363,
      "ĠWay": 2364,
      "ĠWork": 2365,
      "Ġgu": 2366,
      "1923": 2367,
      "ĠOf": 2368,
      "ĠOver": 2369,
      "ĠFree": 2370,
      "ĠFrench": 2371,
      "Ġarg": 2372,
      "cept": 2373,
      "cepted": 2374,
      "Ġconc": 2375,
      "Ġequ": 2376,
      "Ġelement": 2377,
      "Ġ1871": 2378,
      "Ġbecom": 2379,
      "ago": 2380,
      "ages": 2381,
      "ute": 2382,
      "Ġvis": 2383,
      "aining": 2384,
      "quart": 2385,
      "Ġwhat": 2386,
      "opper": 2387,
      "ffair": 2388,
      "abet": 2389,
      "Ġred": 2390,
      "orton": 2391,
      "Ġ50": 2392,
      "Ġrepl": 2393,
      "Ġplaza": 2394,
      "Ġalmost": 2395,
      "Ġprotest": 2396,
      "ackground": 2397,
      "ĠChau": 2398,
      "Ġroad": 2399,
      "Ġhel": 2400,
      "Ġoriginally": 2401,
      "osh": 2402,
      "ĠUnveil": 2403,
      "ights": 2404,
      "elled": 2405,
      "Ġ1850": 2406,
      "ants": 2407,
      "Ġapply": 2408,
      "Ġagreed": 2409,
      "Ġ1953": 2410,
      "Ġ1958": 2411,
      "Ġentered": 2412,
      "Ġentire": 2413,
      "ĠCommons": 2414,
      "jected": 2415,
      "estored": 2416,
      "Ġusing": 2417,
      "Ġdivisions": 2418,
      "Ġseven": 2419,
      "Ġlegislative": 2420,
      "rison": 2421,
      "ĠHarthy": 2422,
      "medi": 2423,
      "Ġregion": 2424,
      "Ġartwork": 2425,
      "Ġprep": 2426,
      "ĠPolicy": 2427,
      "rived": 2428,
      "ĠBoer": 2429,
      "ictionaries": 2430,
      "Ġpromin": 2431,
      "Ġlocal": 2432,
      "Ġceilings": 2433,
      "Ġaccount": 2434,
      "Ġaccess": 2435,
      "oyal": 2436,
      "Ġmoved": 2437,
      "gypt": 2438,
      "ĠBroad": 2439,
      "What": 2440,
      "Ġterrac": 2441,
      "Ġinflu": 2442,
      "Ġrenovation": 2443,
      "Ġrail": 2444,
      "Ġrepairs": 2445,
      "Ġbrigadier": 2446,
      "Ġnationalist": 2447,
      "ĠFrancis": 2448,
      "Ġregiments": 2449,
      "Ġlandscaping": 2450,
      "Ġtribes": 2451,
      "Ġarmoured": 2452,
      "Ġextensive": 2453,
      "ĠCambrai": 2454,
      "Ġnaming": 2455,
      "Ġchandeliers": 2456,
      "argeted": 2457,
      "Broad": 2458,
      "aque": 2459,
      "Ġindepend": 2460,
      "Ġhandrail": 2461,
      "Ġoccurred": 2462,
      "ĠEngineers": 2463,
      "Massacres": 2464,
      "ĠBakr": 2465,
      "ĠPresident": 2466,
      "Ġsubsequently": 2467,
      "cuss": 2468,
      "ĠSecretary": 2469,
      "Ġapprox": 2470,
      "anguage": 2471,
      "Ġestablished": 2472,
      "ĠRepresentatives": 2473,
      "Ġsometimes": 2474,
      "ĠSomme": 2475,
      "ĠMosul": 2476,
      "Ġdamage": 2477,
      "ĠJSTOR": 2478,
      "ĠDohuk": 2479,
      "ĠDirabun": 2480,
      "quarters": 2481,
      "ĠChauvel": 2482,
      ".;": 2483,
      "100": 2484,
      "41": 2485,
      "53": 2486,
      "55": 2487,
      "700": 2488,
      "81": 2489,
      "87": 2490,
      "99": 2491,
      "Ab": 2492,
      "After": 2493,
      "Bust": 2494,
      "Background": 2495,
      "Cre": 2496,
      "Dis": 2497,
      "Ex": 2498,
      "Histor": 2499,
      "Ind": 2500,
      "Jack": 2501,
      "LN": 2502,
      "Location": 2503,
      "March": 2504,
      "Not": 2505,
      "Nashville": 2506,
      "PLN": 2507,
      "Restoration": 2508,
      "SO": 2509,
      "ais": 2510,
      "aim": 2511,
      "cin": 2512,
      "ded": 2513,
      "dad": 2514,
      "eath": 2515,
      "fit": 2516,
      "ga": 2517,
      "gin": 2518,
      "general": 2519,
      "gett": 2520,
      "hot": 2521,
      "ih": 2522,
      "ieved": 2523,
      "ium": 2524,
      "iod": 2525,
      "iograph": 2526,
      "known": 2527,
      "lage": 2528,
      "mir": 2529,
      "mack": 2530,
      "now": 2531,
      "ole": 2532,
      "och": 2533,
      "pet": 2534,
      "pwll": 2535,
      "qosh": 2536,
      "rates": 2537,
      "ters": 2538,
      "ties": 2539,
      "uished": 2540,
      "urop": 2541,
      "wy": 2542,
      "yal": 2543,
      "yle": 2544,
      "ze": 2545,
      "Ã©": 2546,
      "Ùħ": 2547,
      "ĠÂ": 2548,
      "ĠXXI": 2549,
      "Ġtas": 2550,
      "erous": 2551,
      "erence": 2552,
      "ergy": 2553,
      "onial": 2554,
      "atio": 2555,
      "ense": 2556,
      "ara": 2557,
      "als": 2558,
      "isc": 2559,
      "Ġwide": 2560,
      "Ġwell": 2561,
      "itor": 2562,
      "Ġopp": 2563,
      "ased": 2564,
      "asual": 2565,
      "Ġcaus": 2566,
      "Ġcedar": 2567,
      "Ġcopper": 2568,
      "Ġsit": 2569,
      "Ġsong": 2570,
      "Ġsect": 2571,
      "Ġsign": 2572,
      "Ġsout": 2573,
      "Ġsearch": 2574,
      "Ġsaf": 2575,
      "Ġpolic": 2576,
      "Ġperman": 2577,
      "Ġpeople": 2578,
      "Ġprison": 2579,
      "read": 2580,
      "Ġ112": 2581,
      "ĠAre": 2582,
      "Ġfew": 2583,
      "Ġfund": 2584,
      "Ġfree": 2585,
      "Ġflan": 2586,
      "Ġfeat": 2587,
      "Ġfinished": 2588,
      "ĠTre": 2589,
      "oul": 2590,
      "ĠSl": 2591,
      "ĠSm": 2592,
      "ĠSp": 2593,
      "ĠSev": 2594,
      "ĠSun": 2595,
      "ription": 2596,
      "Ġmem": 2597,
      "Ġmark": 2598,
      "Ġmeas": 2599,
      "Ġmuch": 2600,
      "Ġmorning": 2601,
      "ĠMounted": 2602,
      "ĠMachine": 2603,
      "Ġ2015": 2604,
      "olcan": 2605,
      "entil": 2606,
      "eter": 2607,
      "Ġdue": 2608,
      "Ġdevelop": 2609,
      "ĠNaz": 2610,
      "ĠIonic": 2611,
      "ĠBl": 2612,
      "ĠBar": 2613,
      "ĠBad": 2614,
      "ĠBec": 2615,
      "ĠBern": 2616,
      "ĠBrit": 2617,
      "ĠBath": 2618,
      "ĠBagh": 2619,
      "Ġhous": 2620,
      "Ġ1916": 2621,
      "Ġ1938": 2622,
      "Ġlatter": 2623,
      "Ġlittle": 2624,
      "Ġlanguage": 2625,
      "urg": 2626,
      "ĠThere": 2627,
      "ades": 2628,
      "Ġnight": 2629,
      "ira": 2630,
      "iring": 2631,
      "amed": 2632,
      "ĠPre": 2633,
      "ĠPort": 2634,
      "ĠPubl": 2635,
      "ĠPatriarch": 2636,
      "ĠHorse": 2637,
      "emi": 2638,
      "ements": 2639,
      "empt": 2640,
      "Ġstart": 2641,
      "iding": 2642,
      "esty": 2643,
      "isted": 2644,
      "istered": 2645,
      "ationery": 2646,
      "ĠGl": 2647,
      "ĠWord": 2648,
      "ĠWPLN": 2649,
      "Ġgard": 2650,
      "ĠStationery": 2651,
      "allery": 2652,
      "192": 2653,
      "194": 2654,
      "198": 2655,
      "Ġform": 2656,
      "ĠOman": 2657,
      "ĠLou": 2658,
      "ĠLlan": 2659,
      "ĠLiman": 2660,
      "ĠEsh": 2661,
      "ĠEgypt": 2662,
      "ceeded": 2663,
      "Ġcondition": 2664,
      "sses": 2665,
      "aying": 2666,
      "Ġ1866": 2667,
      "Ġwithin": 2668,
      "ope": 2669,
      "Ġleg": 2670,
      "Ġornam": 2671,
      "ective": 2672,
      "comp": 2673,
      "erns": 2674,
      "ode": 2675,
      "sphe": 2676,
      "Ġrend": 2677,
      "Ġchar": 2678,
      "Ġcharg": 2679,
      "Ġchildren": 2680,
      "ours": 2681,
      "Ġplaster": 2682,
      "ĠUse": 2683,
      "ĠInc": 2684,
      "Ġexamp": 2685,
      "Ġhere": 2686,
      "Ġ600": 2687,
      "Ġcontains": 2688,
      "rances": 2689,
      "tein": 2690,
      "rict": 2691,
      "Ġadj": 2692,
      "ĠThat": 2693,
      "Ġnewly": 2694,
      "126": 2695,
      "ically": 2696,
      "ellig": 2697,
      "Ġarea": 2698,
      "ubaid": 2699,
      "Ġ1853": 2700,
      "Ġ2004": 2701,
      "Ġ2008": 2702,
      "ictor": 2703,
      "ibility": 2704,
      "ife": 2705,
      "Ġresult": 2706,
      "athan": 2707,
      "Ġattempt": 2708,
      "Ġentrances": 2709,
      "Ġpartition": 2710,
      "Ġcompletion": 2711,
      "261": 2712,
      "phia": 2713,
      "hens": 2714,
      "Stat": 2715,
      "ĠDivisions": 2716,
      "ĠCont": 2717,
      "ailable": 2718,
      "Ġserve": 2719,
      "Ġdoes": 2720,
      "Ġlegislators": 2721,
      "Ġremoval": 2722,
      "Ġvillage": 2723,
      "Ġabove": 2724,
      "ĠHaritan": 2725,
      "ĠHargett": 2726,
      "Ġimmedi": 2727,
      "ĠZakh": 2728,
      "Ġconsists": 2729,
      "reng": 2730,
      "Ġclimb": 2731,
      "iously": 2732,
      "obler": 2733,
      "Ġneeded": 2734,
      "Ġjoined": 2735,
      "Ġcentral": 2736,
      "ĠOffic": 2737,
      "Ġevent": 2738,
      "ĠAssociation": 2739,
      "Ġprovide": 2740,
      "Ġsupport": 2741,
      "ĠSherrill": 2742,
      "Ġ1902": 2743,
      "Ġcars": 2744,
      "ĠWho": 2745,
      "Ġdefences": 2746,
      "Ġencoura": 2747,
      "Ġperiod": 2748,
      "Ġdecor": 2749,
      "Ġdecided": 2750,
      "Ġcaptured": 2751,
      "Ġscul": 2752,
      "Ġreportedly": 2753,
      "ĠBrownlow": 2754,
      "Ġleading": 2755,
      "aborate": 2756,
      "ormation": 2757,
      "Ġsummer": 2758,
      "ological": 2759,
      "istinguished": 2760,
      "ertain": 2761,
      "Ġbrigade": 2762,
      "aught": 2763,
      "Ġpresented": 2764,
      "Ġplaced": 2765,
      "Ġcommittee": 2766,
      "Ġparticip": 2767,
      "Ġrecorded": 2768,
      "Ġshortly": 2769,
      "Ġrelocate": 2770,
      "Ġestimate": 2771,
      "eleb": 2772,
      "Ġsquare": 2773,
      "Ġmemorials": 2774,
      "Ġlikely": 2775,
      "Art": 2776,
      "Christian": 2777,
      "Ġminor": 2778,
      "ĠMonument": 2779,
      "Ġgenocide": 2780,
      "Ġplanning": 2781,
      "Ġtrusses": 2782,
      "Ġtaken": 2783,
      "issing": 2784,
      "Ġsources": 2785,
      "ĠMakiya": 2786,
      "ĠMartyr": 2787,
      "Ġvowels": 2788,
      "ĠChristians": 2789,
      "Ġheadquarters": 2790,
      "Ġappropriated": 2791,
      "Ġfixtures": 2792,
      "ĠSamuel": 2793,
      "self": 2794,
      "ĠPhiladel": 2795,
      "Ġmodeled": 2796,
      "uinness": 2797,
      "Ġclos": 2798,
      "Ġcountry": 2799,
      "Ġcleaned": 2800,
      "Ġmeeting": 2801,
      "utonomous": 2802,
      "Ġrecommended": 2803,
      "Ġdescrib": 2804,
      "Ġporticoes": 2805,
      "Ġcirc": 2806,
      "Ġsimil": 2807,
      "ĠAmend": 2808,
      "Ġavailable": 2809,
      "ĠSystem": 2810,
      "ĠMajesty": 2811,
      "Ġbecome": 2812,
      "ĠUnveiled": 2813,
      "Ġapproximately": 2814,
      "About": 2815,
      "Indian": 2816,
      "aisal": 2817,
      "Ġfeatures": 2818,
      "Ġmembers": 2819,
      "ĠBaghdad": 2820,
      "ubaida": 2821,
      "ĠZakho": 2822,
      "ĠPhiladelphia": 2823,
      "116": 2824,
      "500": 2825,
      "560": 2826,
      "82": 2827,
      "83": 2828,
      "92": 2829,
      "95": 2830,
      "97": 2831,
      "August": 2832,
      "Bo": 2833,
      "Co": 2834,
      "Col": 2835,
      "Comm": 2836,
      "Categ": 2837,
      "CID": 2838,
      "Des": 2839,
      "Death": 2840,
      "EF": 2841,
      "East": 2842,
      "Exp": 2843,
      "Govern": 2844,
      "Henry": 2845,
      "Later": 2846,
      "Latin": 2847,
      "Major": 2848,
      "New": 2849,
      "Read": 2850,
      "Syri": 2851,
      "Simele": 2852,
      "TC": 2853,
      "Top": 2854,
      "UTC": 2855,
      "ax": 2856,
      "after": 2857,
      "awn": 2858,
      "ault": 2859,
      "bell": 2860,
      "col": 2861,
      "cue": 2862,
      "cip": 2863,
      "der": 2864,
      "div": 2865,
      "eu": 2866,
      "field": 2867,
      "great": 2868,
      "gwy": 2869,
      "hip": 2870,
      "iev": 2871,
      "ker": 2872,
      "ken": 2873,
      "ling": 2874,
      "lict": 2875,
      "longest": 2876,
      "min": 2877,
      "ook": 2878,
      "por": 2879,
      "pine": 2880,
      "serv": 2881,
      "ty": 2882,
      "tram": 2883,
      "von": 2884,
      "wel": 2885,
      "Â®": 2886,
      "Ø±": 2887,
      "Ø§Ù": 2888,
      "Ġri": 2889,
      "Ġru": 2890,
      "Ġher": 2891,
      "Ġide": 2892,
      "Ġeth": 2893,
      "Ġtall": 2894,
      "Ġtrav": 2895,
      "inates": 2896,
      "ange": 2897,
      "erri": 2898,
      "erial": 2899,
      "erior": 2900,
      "onn": 2901,
      "onios": 2902,
      "onoul": 2903,
      "edition": 2904,
      "atural": 2905,
      "ened": 2906,
      "ending": 2907,
      "ars": 2908,
      "aring": 2909,
      "arian": 2910,
      "alin": 2911,
      "alley": 2912,
      "ison": 2913,
      "asing": 2914,
      "Ġcov": 2915,
      "Ġcould": 2916,
      "Ġcorps": 2917,
      "Ġcoined": 2918,
      "Ġceleb": 2919,
      "anded": 2920,
      "Ġson": 2921,
      "Ġspr": 2922,
      "Ġseries": 2923,
      "Ġpen": 2924,
      "Ġpar": 2925,
      "Ġpil": 2926,
      "Ġpower": 2927,
      "Ġprin": 2928,
      "Ġbrick": 2929,
      "Ġburn": 2930,
      "Ġbreak": 2931,
      "ĠAffair": 2932,
      "Ġfly": 2933,
      "Ġfight": 2934,
      "Ġflow": 2935,
      "Ġfull": 2936,
      "ĠTerms": 2937,
      "icro": 2938,
      "icago": 2939,
      "icense": 2940,
      "omans": 2941,
      "Ġtop": 2942,
      "ĠSch": 2943,
      "ĠSlo": 2944,
      "ĠCond": 2945,
      "ĠCath": 2946,
      "ĠCumber": 2947,
      "ĠChemical": 2948,
      "Ġme": 2949,
      "Ġmus": 2950,
      "Ġmemor": 2951,
      "Ġmake": 2952,
      "Ġmean": 2953,
      "Ġmention": 2954,
      "Ġmissing": 2955,
      "ĠMed": 2956,
      "ĠMil": 2957,
      "ĠMag": 2958,
      "ĠMod": 2959,
      "ĠMich": 2960,
      "ĠMassac": 2961,
      "ĠMedia": 2962,
      "olding": 2963,
      "ached": 2964,
      "stant": 2965,
      "Ġdictionary": 2966,
      "Ġdiff": 2967,
      "sell": 2968,
      "ĠNations": 2969,
      "ĠNathan": 2970,
      "apt": 2971,
      "ĠBen": 2972,
      "ĠBust": 2973,
      "Ġho": 2974,
      "roy": 2975,
      "rown": 2976,
      "Ġled": 2977,
      "Ġlog": 2978,
      "Ġlaw": 2979,
      "Ġleng": 2980,
      "iving": 2981,
      "urt": 2982,
      "chn": 2983,
      "ĠTheir": 2984,
      "ĠPh": 2985,
      "ĠPrivacy": 2986,
      "ĠHall": 2987,
      "ĠHow": 2988,
      "ĠHull": 2989,
      "imal": 2990,
      "ction": 2991,
      "emark": 2992,
      "Ġstation": 2993,
      "Ġstru": 2994,
      "Ġstayed": 2995,
      "Ġsteel": 2996,
      "ids": 2997,
      "idth": 2998,
      "eston": 2999,
      "though": 3000,
      "istics": 3001,
      "Ġthose": 3002,
      "ĠGerm": 3003,
      "ĠGreek": 3004,
      "raw": 3005,
      "ĠWith": 3006,
      "ĠWikimedia": 3007,
      "ĠWebster": 3008,
      "âĢĶ": 3009,
      "Ġgr": 3010,
      "Ġgas": 3011,
      "Ġgun": 3012,
      "Ġgood": 3013,
      "Ġgreen": 3014,
      "ĠStatue": 3015,
      "ework": 3016,
      "unt": 3017,
      "unic": 3018,
      "Ġformer": 3019,
      "ovolcan": 3020,
      "ĠOr": 3021,
      "ĠOxford": 3022,
      "ĠOED": 3023,
      "ĠFour": 3024,
      "ĠFlag": 3025,
      "ĠFaisal": 3026,
      "ĠLong": 3027,
      "ĠLieutenant": 3028,
      "ĠLicense": 3029,
      "ording": 3030,
      "ordell": 3031,
      "Ġarrived": 3032,
      "terly": 3033,
      "ĠEv": 3034,
      "ĠEurop": 3035,
      "ression": 3036,
      "Ġelev": 3037,
      "owered": 3038,
      "Ġ1870": 3039,
      "avy": 3040,
      "ague": 3041,
      "utes": 3042,
      "Ġventil": 3043,
      "umonoul": 3044,
      "ishment": 3045,
      "illed": 3046,
      "ecut": 3047,
      "ustral": 3048,
      "ocaust": 3049,
      "oconios": 3050,
      "opted": 3051,
      "opics": 3052,
      "usdiv": 3053,
      "Ġleaves": 3054,
      "Ġanother": 3055,
      "Ġanti": 3056,
      "ulation": 3057,
      "erald": 3058,
      "Ġrestored": 3059,
      "Ġchose": 3060,
      "ĠIraqis": 3061,
      "Ġrepainted": 3062,
      "Ġplaque": 3063,
      "lood": 3064,
      "101": 3065,
      "102": 3066,
      "104": 3067,
      "1080": 3068,
      "Ġcommemor": 3069,
      "Ġheight": 3070,
      "Ġheating": 3071,
      "Ġ42": 3072,
      "Ġ47": 3073,
      "Ġcontain": 3074,
      "Ġcontained": 3075,
      "Ġcontrol": 3076,
      "Ġadopted": 3077,
      "Ġ73": 3078,
      "176": 3079,
      "Ġofficers": 3080,
      "161": 3081,
      "acters": 3082,
      "Ġ1857": 3083,
      "Ġ2009": 3084,
      "soid": 3085,
      "ency": 3086,
      "azine": 3087,
      "Ġunits": 3088,
      "Ġunknown": 3089,
      "135": 3090,
      "struction": 3091,
      "ifa": 3092,
      "Ġrescue": 3093,
      "ĠVill": 3094,
      "ĠVictor": 3095,
      "ĠValley": 3096,
      "Ġattic": 3097,
      "Ġ1951": 3098,
      "Ġ1956": 3099,
      "Ġworking": 3100,
      "Ġsuc": 3101,
      "Ġfloors": 3102,
      "2001": 3103,
      "ize": 3104,
      "phabet": 3105,
      "ĠAlqosh": 3106,
      "Ġdisasters": 3107,
      "Ġdiscuss": 3108,
      "Ġnorthwest": 3109,
      "Ġintellig": 3110,
      "ĠSharon": 3111,
      "Ġarchives": 3112,
      "Ġironwork": 3113,
      "oodsell": 3114,
      "ĠIndiana": 3115,
      "racts": 3116,
      "scopics": 3117,
      "Ġunderway": 3118,
      "Ġrefurb": 3119,
      "ultural": 3120,
      "Ġreplacing": 3121,
      "ief": 3122,
      "Ġorders": 3123,
      "Ġupon": 3124,
      "ribution": 3125,
      "ĠGeis": 3126,
      "ĠOttomans": 3127,
      "ĠForce": 3128,
      "ĠZubaida": 3129,
      "Ġregistered": 3130,
      "Ġconsisting": 3131,
      "ĠAnother": 3132,
      "obb": 3133,
      "obile": 3134,
      "Ġ1998": 3135,
      "Ġjust": 3136,
      "Ġjoint": 3137,
      "ĠClark": 3138,
      "Ġhistorical": 3139,
      "Ġattacked": 3140,
      "Interior": 3141,
      "Ġsurv": 3142,
      "Ġbased": 3143,
      "Ġrequested": 3144,
      "ĠWhat": 3145,
      "ĠWhile": 3146,
      "Ġeng": 3147,
      "Ġsouthwest": 3148,
      "ĠHaifa": 3149,
      "Ġpoor": 3150,
      "Ġimpact": 3151,
      "ridge": 3152,
      "Ġdecl": 3153,
      "eather": 3154,
      "Ġmoving": 3155,
      "Ġaccepted": 3156,
      "Ġleaders": 3157,
      "ĠKurds": 3158,
      "Ġkilling": 3159,
      "Ġdesigned": 3160,
      "areAl": 3161,
      "Ġassum": 3162,
      "ĠCharl": 3163,
      "Ġportraits": 3164,
      "Ġrenovations": 3165,
      "Ġslope": 3166,
      "Ġsummit": 3167,
      "Ġdeterior": 3168,
      "ĠProject": 3169,
      "ification": 3170,
      "neumonoul": 3171,
      "Ġedited": 3172,
      "Ġaction": 3173,
      "ĠCarmack": 3174,
      "ĠRepubl": 3175,
      "augh": 3176,
      "roup": 3177,
      "Ġphot": 3178,
      "Ġphase": 3179,
      "Ġpreserv": 3180,
      "Ġbelieved": 3181,
      "ĠCompany": 3182,
      "ĠMcC": 3183,
      "ĠFrank": 3184,
      "Ġcommitted": 3185,
      "Ġregiment": 3186,
      "Ġlandscaped": 3187,
      "ShareAl": 3188,
      "suit": 3189,
      "Ġtribal": 3190,
      "Ġthereafter": 3191,
      "Ġinitial": 3192,
      "Ġlooting": 3193,
      "ĠRecord": 3194,
      "Ġstonework": 3195,
      "Ġrepresentatives": 3196,
      "Ġinstallation": 3197,
      "Ġlargely": 3198,
      "Ġplanned": 3199,
      "ĠQu": 3200,
      "Ġtrademark": 3201,
      "Ġpolice": 3202,
      "ĠSimla": 3203,
      "ĠParsoid": 3204,
      "Ġsurrounding": 3205,
      "Ġrefugees": 3206,
      "profit": 3207,
      "Ġfailed": 3208,
      "Ġdirectly": 3209,
      "Ġhowever": 3210,
      "Ġthird": 3211,
      "loyd": 3212,
      "Ġcompletely": 3213,
      "Ġelaborate": 3214,
      "Ġsuperv": 3215,
      "Ġpopulation": 3216,
      "Ġparking": 3217,
      "Ġbroken": 3218,
      "ĠCreative": 3219,
      "Ġdedicated": 3220,
      "ĠRevival": 3221,
      "Ġshowing": 3222,
      "arlier": 3223,
      "ilicovolcan": 3224,
      "ĠAttribution": 3225,
      "ĠMorgan": 3226,
      "ĠHoobler": 3227,
      "ĠWayback": 3228,
      "Ġelements": 3229,
      "Ġprominent": 3230,
      "Ġrailings": 3231,
      "Ġextensively": 3232,
      "Ġindependence": 3233,
      "iography": 3234,
      "miral": 3235,
      "ĠÂ·": 3236,
      "asualties": 3237,
      "Ġcaused": 3238,
      "Ġsection": 3239,
      "Ġsoutheast": 3240,
      "Ġpolicy": 3241,
      "Ġpermanent": 3242,
      "Ġfunds": 3243,
      "ĠSmith": 3244,
      "ĠBadsey": 3245,
      "ĠBernard": 3246,
      "ĠBritain": 3247,
      "ĠEshai": 3248,
      "Ġornamental": 3249,
      "Ġrendered": 3250,
      "Ġexample": 3251,
      "ĠMartyrs": 3252,
      "Categories": 3253,
      "cipal": 3254,
      "euv": 3255,
      "tramicro": 3256,
      "Ġethnic": 3257,
      "Ġtravelled": 3258,
      "erriam": 3259,
      "Ġprincipal": 3260,
      "ĠSloan": 3261,
      "ĠCumberland": 3262,
      "Ġmeaning": 3263,
      "ĠGermans": 3264,
      "oconiosis": 3265,
      "Ġintelligence": 3266,
      "scopicsilicovolcan": 3267,
      "neumonoultramicro": 3268,
      "ShareAlike": 3269,
      "scopicsilicovolcanoconiosis": 3270,
      "neumonoultramicroscopicsilicovolcanoconiosis": 3271,
      ")[": 3272,
      "01": 3273,
      "110": 3274,
      "3261": 3275,
      "42": 3276,
      "894": 3277,
      "850": 3278,
      "90": 3279,
      "91": 3280,
      ":[": 3281,
      "AA": 3282,
      "And": 3283,
      "Aut": 3284,
      "App": 3285,
      "Avalanche": 3286,
      "Bar": 3287,
      "Coo": 3288,
      "Citations": 3289,
      "Code": 3290,
      "Dark": 3291,
      "Develop": 3292,
      "For": 3293,
      "First": 3294,
      "Gay": 3295,
      "How": 3296,
      "Kh": 3297,
      "Log": 3298,
      "Light": 3299,
      "Leg": 3300,
      "Large": 3301,
      "MC": 3302,
      "Mc": 3303,
      "Mon": 3304,
      "Main": 3305,
      "Mobile": 3306,
      "Pl": 3307,
      "Pur": 3308,
      "Privacy": 3309,
      "Powered": 3310,
      "Small": 3311,
      "Two": 3312,
      "Talk": 3313,
      "VI": 3314,
      "VII": 3315,
      "Wide": 3316,
      "Web": 3317,
      "Wiki": 3318,
      "Wikipedia": 3319,
      "World": 3320,
      "Width": 3321,
      "ae": 3322,
      "aq": 3323,
      "aims": 3324,
      "bil": 3325,
      "bord": 3326,
      "break": 3327,
      "burg": 3328,
      "ca": 3329,
      "con": 3330,
      "duct": 3331,
      "ex": 3332,
      "fre": 3333,
      "ful": 3334,
      "gg": 3335,
      "ger": 3336,
      "get": 3337,
      "ha": 3338,
      "hor": 3339,
      "hira": 3340,
      "ias": 3341,
      "iary": 3342,
      "ipp": 3343,
      "ihil": 3344,
      "jun": 3345,
      "kin": 3346,
      "lin": 3347,
      "lav": 3348,
      "line": 3349,
      "mat": 3350,
      "mes": 3351,
      "mak": 3352,
      "ner": 3353,
      "nel": 3354,
      "pin": 3355,
      "part": 3356,
      "ring": 3357,
      "rend": 3358,
      "town": 3359,
      "ued": 3360,
      "uce": 3361,
      "uated": 3362,
      "uck": 3363,
      "uried": 3364,
      "vor": 3365,
      "war": 3366,
      "word": 3367,
      "wide": 3368,
      "ying": 3369,
      "yia": 3370,
      "yll": 3371,
      "yclopedia": 3372,
      "Ø¨": 3373,
      "Ø©": 3374,
      "Ùĥ": 3375,
      "ÙĦ": 3376,
      "Ü¡": 3377,
      "Ü¹": 3378,
      "ÜĲ": 3379,
      "Ġ00": 3380,
      "Ġemp": 3381,
      "Ġtit": 3382,
      "Ġtra": 3383,
      "Ġterm": 3384,
      "Ġturn": 3385,
      "Ġtons": 3386,
      "Ġtomb": 3387,
      "Ġtargeted": 3388,
      "heat": 3389,
      "hest": 3390,
      "head": 3391,
      "inqu": 3392,
      "inai": 3393,
      "ana": 3394,
      "anks": 3395,
      "anoog": 3396,
      "era": 3397,
      "ones": 3398,
      "orag": 3399,
      "orage": 3400,
      "ata": 3401,
      "atic": 3402,
      "ather": 3403,
      "atues": 3404,
      "ession": 3405,
      "areth": 3406,
      "arterly": 3407,
      "alf": 3408,
      "alth": 3409,
      "alust": 3410,
      "isk": 3411,
      "Ġwin": 3412,
      "Ġworld": 3413,
      "ital": 3414,
      "itent": 3415,
      "itated": 3416,
      "itical": 3417,
      "itiz": 3418,
      "itman": 3419,
      "Ġown": 3420,
      "astern": 3421,
      "asons": 3422,
      "Ġcra": 3423,
      "Ġcut": 3424,
      "Ġcrit": 3425,
      "Ġcivil": 3426,
      "Ġchemical": 3427,
      "Ġcertain": 3428,
      "andate": 3429,
      "Ġsen": 3430,
      "Ġsaw": 3431,
      "Ġseat": 3432,
      "Ġpri": 3433,
      "Ġpet": 3434,
      "Ġpun": 3435,
      "Ġpurch": 3436,
      "Ġprim": 3437,
      "Ġpneumonoultramicroscopicsilicovolcanoconiosis": 3438,
      "rel": 3439,
      "rev": 3440,
      "rey": 3441,
      "rect": 3442,
      "Ġoften": 3443,
      "Ġ100": 3444,
      "Ġ116": 3445,
      "Ġ114": 3446,
      "Ġ170": 3447,
      "iled": 3448,
      "ille": 3449,
      "ilomet": 3450,
      "Ġins": 3451,
      "Ġinhab": 3452,
      "Ġbar": 3453,
      "Ġbicentennial": 3454,
      "Ġbalust": 3455,
      "ĠAng": 3456,
      "ĠAustral": 3457,
      "ĠAusdiv": 3458,
      "Ġft": 3459,
      "Ġfam": 3460,
      "Ġfig": 3461,
      "Ġfres": 3462,
      "Ġfive": 3463,
      "ĠTri": 3464,
      "ĠTay": 3465,
      "Ġair": 3466,
      "Ġaway": 3467,
      "icrates": 3468,
      "omatic": 3469,
      "ĠSe": 3470,
      "ĠSar": 3471,
      "ĠSome": 3472,
      "ĠSenate": 3473,
      "ĠSakh": 3474,
      "ĠSupp": 3475,
      "ĠCro": 3476,
      "ĠCyr": 3477,
      "ĠCordell": 3478,
      "ries": 3479,
      "Ġman": 3480,
      "Ġmed": 3481,
      "Ġmarch": 3482,
      "Ġmuseum": 3483,
      "Ġmachine": 3484,
      "Ġmiles": 3485,
      "ĠMin": 3486,
      "ĠMas": 3487,
      "ĠMac": 3488,
      "ĠMany": 3489,
      "ĠMorton": 3490,
      "Ġ2013": 3491,
      "acent": 3492,
      "acter": 3493,
      "enth": 3494,
      "str": 3495,
      "ston": 3496,
      "stalled": 3497,
      "style": 3498,
      "stracts": 3499,
      "Ġdiv": 3500,
      "Ġdest": 3501,
      "Ġdictionaries": 3502,
      "seup": 3503,
      "aped": 3504,
      "ĠII": 3505,
      "ĠBa": 3506,
      "ĠBell": 3507,
      "Ġhors": 3508,
      "Ġhold": 3509,
      "Ġhigh": 3510,
      "Ġrejected": 3511,
      "Ġreached": 3512,
      "Ġ1994": 3513,
      "Ġ1925": 3514,
      "Ġ1937": 3515,
      "Ġones": 3516,
      "Ġonce": 3517,
      "room": 3518,
      "Ġlo": 3519,
      "Ġlot": 3520,
      "Ġlieutenant": 3521,
      "urung": 3522,
      "ersCont": 3523,
      "ersStat": 3524,
      "ĠRes": 3525,
      "ĠRos": 3526,
      "ĠRoyal": 3527,
      "add": 3528,
      "adron": 3529,
      "adhira": 3530,
      "Ġnar": 3531,
      "irl": 3532,
      "irmed": 3533,
      "amm": 3534,
      "amer": 3535,
      "ĠPri": 3536,
      "ĠPem": 3537,
      "ĠPart": 3538,
      "ĠPass": 3539,
      "ĠHinu": 3540,
      "ima": 3541,
      "iment": 3542,
      "ela": 3543,
      "elle": 3544,
      "Ġstreng": 3545,
      "Ġstorage": 3546,
      "idis": 3547,
      "idem": 3548,
      "idents": 3549,
      "establ": 3550,
      "thous": 3551,
      "istance": 3552,
      "istrict": 3553,
      "ĠDon": 3554,
      "ĠDec": 3555,
      "ĠDep": 3556,
      "ĠDistinguished": 3557,
      "Ġthous": 3558,
      "ĠGen": 3559,
      "ĠGil": 3560,
      "ĠGround": 3561,
      "ĠGrav": 3562,
      "ĠGrand": 3563,
      "ĠGuinness": 3564,
      "ĠGoodsell": 3565,
      "ĠGurung": 3566,
      "ray": 3567,
      "ĠWal": 3568,
      "Ġget": 3569,
      "Ġgran": 3570,
      "Ġgreat": 3571,
      "ĠStud": 3572,
      "ĠStatues": 3573,
      "1924": 3574,
      "Ġformed": 3575,
      "oved": 3576,
      "ĠFort": 3577,
      "ĠFollow": 3578,
      "ĠFrance": 3579,
      "ĠFays": 3580,
      "ĠLLC": 3581,
      "ĠLys": 3582,
      "ordinates": 3583,
      "ĠEst": 3584,
      "ĠEach": 3585,
      "ceed": 3586,
      "ceived": 3587,
      "ĠTennesseans": 3588,
      "Ġ1877": 3589,
      "ashid": 3590,
      "Ġwithd": 3591,
      "utin": 3592,
      "Ġvery": 3593,
      "Ġasc": 3594,
      "rus": 3595,
      "umb": 3596,
      "umin": 3597,
      "umph": 3598,
      "umerous": 3599,
      "Ġ36": 3600,
      "akk": 3601,
      "aks": 3602,
      "Ġleaks": 3603,
      "ĠKh": 3604,
      "hern": 3605,
      "ĠArm": 3606,
      "ably": 3607,
      "uled": 3608,
      "ularly": 3609,
      "oday": 3610,
      "spect": 3611,
      "Ġrank": 3612,
      "ortly": 3613,
      "ortant": 3614,
      "ians": 3615,
      "iance": 3616,
      "Ġcharge": 3617,
      "Ġalter": 3618,
      "Ġalphabet": 3619,
      "ĠUS": 3620,
      "ĠInf": 3621,
      "look": 3622,
      "mentMobile": 3623,
      "artment": 3624,
      "Ġproper": 3625,
      "Ġprotein": 3626,
      "Ġexam": 3627,
      "Ġexper": 3628,
      "Ġexten": 3629,
      "Ġexcav": 3630,
      "earing": 3631,
      "earance": 3632,
      "ĠChatt": 3633,
      "ĠChris": 3634,
      "ĠChicago": 3635,
      "ĠChorag": 3636,
      "106": 3637,
      "Ġrock": 3638,
      "Ġheavy": 3639,
      "osite": 3640,
      "Ġ45": 3641,
      "Ġ49": 3642,
      "Ġ426": 3643,
      "Ġcontacts": 3644,
      "kie": 3645,
      "2019": 3646,
      "2014": 3647,
      "teg": 3648,
      "teen": 3649,
      "ously": 3650,
      "ructure": 3651,
      "Ġadorn": 3652,
      "Ġadded": 3653,
      "Ġ1989": 3654,
      "ĠstatementMobile": 3655,
      "ĠArchives": 3656,
      "Ġ70": 3657,
      "Ġ74": 3658,
      "Ġ76": 3659,
      "Ġnewspapers": 3660,
      "Ġlonger": 3661,
      "verness": 3662,
      "162": 3663,
      "Ġcompany": 3664,
      "Ġ104": 3665,
      "Ġ106": 3666,
      "Ġ2001": 3667,
      "150": 3668,
      "155": 3669,
      "ĠOne": 3670,
      "132": 3671,
      "claim": 3672,
      "Ġdeep": 3673,
      "Ġresistance": 3674,
      "Ġremained": 3675,
      "Ġremains": 3676,
      "240": 3677,
      "Ġspir": 3678,
      "ccess": 3679,
      "ccording": 3680,
      "Ġ1950": 3681,
      "Ġ1955": 3682,
      "Ġ1957": 3683,
      "Ġkilomet": 3684,
      "Ġentomb": 3685,
      "Ġworked": 3686,
      "Ġparts": 3687,
      "Ġconstructing": 3688,
      "Ġclas": 3689,
      "Ġclaims": 3690,
      "Ġsuccess": 3691,
      "Ġflooring": 3692,
      "ude": 3693,
      "wood": 3694,
      "Ġ159": 3695,
      "ronze": 3696,
      "iteExp": 3697,
      "izing": 3698,
      "Ġcolonel": 3699,
      "Staff": 3700,
      "ĠAli": 3701,
      "ĠAlpine": 3702,
      "Ġdisar": 3703,
      "Ġdispl": 3704,
      "ĠAsk": 3705,
      "ĠAsian": 3706,
      "lani": 3707,
      "Ġserving": 3708,
      "ĠYaq": 3709,
      "Ġremove": 3710,
      "Ġunderst": 3711,
      "Ġreplacement": 3712,
      "urals": 3713,
      "ĠHarbord": 3714,
      "Ġthroughout": 3715,
      "oining": 3716,
      "Ġrelinqu": 3717,
      "ĠLeague": 3718,
      "Ġclimber": 3719,
      "Ġ1995": 3720,
      "Ġ1996": 3721,
      "Ġ1999": 3722,
      "Ġneigh": 3723,
      "ĠPolitics": 3724,
      "ooting": 3725,
      "Ġadvoc": 3726,
      "shire": 3727,
      "ĠBrigadier": 3728,
      "Ġrenew": 3729,
      "Ġexpressed": 3730,
      "Ġexpected": 3731,
      "ckett": 3732,
      "Ġsurrend": 3733,
      "Ġrequest": 3734,
      "Ġ1905": 3735,
      "Ġ1891": 3736,
      "Ġ1897": 3737,
      "Ġ1898": 3738,
      "ĠWikipediaDis": 3739,
      "ĠWikipediaLeg": 3740,
      "Ġ1844": 3741,
      "Ġ1846": 3742,
      "Ġ1847": 3743,
      "ountaineer": 3744,
      "Ġencounter": 3745,
      "Ġencyclopedia": 3746,
      "oseph": 3747,
      "Ġreception": 3748,
      "Ġreceiving": 3749,
      "Ġ1889": 3750,
      "Ġimportant": 3751,
      "blem": 3752,
      "ridges": 3753,
      "urke": 3754,
      "Ġinclude": 3755,
      "iversary": 3756,
      "Ġoccup": 3757,
      "ĠAthens": 3758,
      "Ġleader": 3759,
      "Ġalongside": 3760,
      "Ġterr": 3761,
      "Ġinformation": 3762,
      "Ġassist": 3763,
      "Ġofficially": 3764,
      "Ġcreating": 3765,
      "Ġsumm": 3766,
      "ĠAbout": 3767,
      "ĠAbstracts": 3768,
      "ĠServices": 3769,
      "Ġdetail": 3770,
      "ĠEliz": 3771,
      "ĠEliteExp": 3772,
      "Ġrepaired": 3773,
      "cient": 3774,
      "cience": 3775,
      "racted": 3776,
      "Ġcorners": 3777,
      "Ġnationalists": 3778,
      "ĠArchitects": 3779,
      "Ġstaircases": 3780,
      "ĠGovernorate": 3781,
      "Ġpresidents": 3782,
      "Ġdemanded": 3783,
      "ĠParkway": 3784,
      "Ġparticularly": 3785,
      "Ġmonths": 3786,
      "Ġestimated": 3787,
      "mitted": 3788,
      "Ġsquadron": 3789,
      "Ġinitially": 3790,
      "Ġlooted": 3791,
      "ĠRecords": 3792,
      "Ġquarry": 3793,
      "Ġquarried": 3794,
      "century": 3795,
      "uctDevelop": 3796,
      "Ġdepict": 3797,
      "Ġnamed": 3798,
      "ĠHolocaust": 3799,
      "Ġchandelier": 3800,
      "Ġspecial": 3801,
      "Contents": 3802,
      "Ġsource": 3803,
      "Ġpersonnel": 3804,
      "Ġincor": 3805,
      "Ġincre": 3806,
      "Ġinvolved": 3807,
      "ĠScott": 3808,
      "ĠScene": 3809,
      "ĠMartin": 3810,
      "Ġlighting": 3811,
      "ĠEncy": 3812,
      "ĠEnergy": 3813,
      "Ġconfirmed": 3814,
      "Ġconnecting": 3815,
      "Ġproposed": 3816,
      "Ġobserv": 3817,
      "Ġsmaller": 3818,
      "Ġfailure": 3819,
      "Ġreinstalled": 3820,
      "Ġeffort": 3821,
      "ĠLandmarks": 3822,
      "ĠRobertson": 3823,
      "Donate": 3824,
      "Ġweek": 3825,
      "Ġweeks": 3826,
      "Ġfloc": 3827,
      "Ġhonor": 3828,
      "Ġhonors": 3829,
      "Ġentablature": 3830,
      "Ġentablatures": 3831,
      "Ġdespatches": 3832,
      "Iraqi": 3833,
      "racks": 3834,
      "Ġtrees": 3835,
      "Ġpush": 3836,
      "ĠAfrica": 3837,
      "stitution": 3838,
      "Ġdebate": 3839,
      "secution": 3840,
      "ĠImprovement": 3841,
      "Ġnortheast": 3842,
      "Ġstreets": 3843,
      "Ġreplace": 3844,
      "Ġprotests": 3845,
      "Ġterraces": 3846,
      "Ġhandrails": 3847,
      "Create": 3848,
      "History": 3849,
      "Notes": 3850,
      "Ġtasked": 3851,
      "atiosphe": 3852,
      "Ġsituated": 3853,
      "Ġsafety": 3854,
      "ĠArea": 3855,
      "Ġmarker": 3856,
      "ĠNazareth": 3857,
      "ĠBecke": 3858,
      "ĠPortrait": 3859,
      "ĠPublishing": 3860,
      "ĠGlory": 3861,
      "ĠLouis": 3862,
      "Ġlegacy": 3863,
      "ectively": 3864,
      "Ġcharacters": 3865,
      "Ġcharged": 3866,
      "Ġadjacent": 3867,
      "Ġresulting": 3868,
      "Ġimmediately": 3869,
      "Ġeventually": 3870,
      "Ġencouraged": 3871,
      "Ġparticipated": 3872,
      "Article": 3873,
      "Ġclosets": 3874,
      "Ġcircular": 3875,
      "Ġsimilar": 3876,
      "ĠAmendment": 3877,
      "Coordinates": 3878,
      "Color": 3879,
      "Deaths": 3880,
      "Government": 3881,
      "Syriac": 3882,
      "alino": 3883,
      "Ġpenitent": 3884,
      "ĠConductDevelop": 3885,
      "ĠCatholic": 3886,
      "Ġmemory": 3887,
      "ĠMagazine": 3888,
      "ĠMediaWiki": 3889,
      "apture": 3890,
      "Ġlogo": 3891,
      "Ġlength": 3892,
      "isticsCoo": 3893,
      "ĠEuropean": 3894,
      "Ġelevators": 3895,
      "Ġcommemorating": 3896,
      "Ġdeclared": 3897,
      "Ġassumed": 3898,
      "ĠRepublican": 3899,
      "ĠQuarterly": 3900,
      "ĠpolicyAbout": 3901,
      "Automatic": 3902,
      "Appearance": 3903,
      "Gaylani": 3904,
      "WikipediaThe": 3905,
      "Ġ0040": 3906,
      "Ġemploy": 3907,
      "anooga": 3908,
      "Ġcritic": 3909,
      "Ġprimarily": 3910,
      "ĠTaylor": 3911,
      "ĠSakhi": 3912,
      "ĠCrockett": 3913,
      "Ġdestroy": 3914,
      "Ġhorses": 3915,
      "ersContact": 3916,
      "ersStatisticsCoo": 3917,
      "ĠPemba": 3918,
      "ĠDepartment": 3919,
      "ĠGraves": 3920,
      "ĠFollowing": 3921,
      "ĠFaysal": 3922,
      "ĠLysicrates": 3923,
      "Ġexperi": 3924,
      "ĠChattanooga": 3925,
      "ĠChoragic": 3926,
      "ĠcontactsCode": 3927,
      "claimersContact": 3928,
      "Ġkilometres": 3929,
      "Ġentombed": 3930,
      "ĠYaqo": 3931,
      "Ġsurrender": 3932,
      "ĠWikipediaDisclaimersContact": 3933,
      "ĠWikipediaLegal": 3934,
      "ĠEliteExped": 3935,
      "ĠEncyclopedia": 3936,
      "atiosphecom": 3937,
      "Ġpenitentiary": 3938,
      "ĠConductDevelopersStatisticsCoo": 3939,
      "ĠConductDevelopersStatisticsCookie": 3940,
      "\")": 3941,
      ".).": 3942,
      "03": 3943,
      "07": 3944,
      "030": 3945,
      "118": 3946,
      "120": 3947,
      "113": 3948,
      "210": 3949,
      "212": 3950,
      "224": 3951,
      "2000": 3952,
      "230": 3953,
      "86": 3954,
      "As": 3955,
      "At": 3956,
      "American": 3957,
      "Aerial": 3958,
      "BC": 3959,
      "Bas": 3960,
      "Bad": 3961,
      "Bec": 3962,
      "Balt": 3963,
      "Clo": 3964,
      "Capture": 3965,
      "Ed": 3966,
      "GI": 3967,
      "Ge": 3968,
      "Husry": 3969,
      "IV": 3970,
      "Id": 3971,
      "James": 3972,
      "Jordan": 3973,
      "Kil": 3974,
      "Long": 3975,
      "Laying": 3976,
      "Looting": 3977,
      "Military": 3978,
      "Moore": 3979,
      "Merriam": 3980,
      "Mountaineer": 3981,
      "Nims": 3982,
      "Per": 3983,
      "Post": 3984,
      "Person": 3985,
      "Palestine": 3986,
      "Phot": 3987,
      "Sc": 3988,
      "Sp": 3989,
      "Sent": 3990,
      "Sir": 3991,
      "Sum": 3992,
      "Sec": 3993,
      "South": 3994,
      "Supp": 3995,
      "Typ": 3996,
      "Targeted": 3997,
      "Un": 3998,
      "VIII": 3999,
      "West": 4000,
      "With": 4001,
      "Wher": 4002,
      "When": 4003,
      "William": 4004,
      "Western": 4005,
      "Webster": 4006,
      "ZTV": 4007,
      "aal": 4008,
      "aum": 4009,
      "bit": 4010,
      "burn": 4011,
      "cing": 4012,
      "cription": 4013,
      "ein": 4014,
      "eated": 4015,
      "eeb": 4016,
      "eight": 4017,
      "eoman": 4018,
      "fe": 4019,
      "fle": 4020,
      "fred": 4021,
      "ferred": 4022,
      "gl": 4023,
      "gr": 4024,
      "gu": 4025,
      "git": 4026,
      "gram": 4027,
      "gium": 4028,
      "hong": 4029,
      "hus": 4030,
      "iol": 4031,
      "ient": 4032,
      "iec": 4033,
      "iated": 4034,
      "ko": 4035,
      "lar": 4036,
      "long": 4037,
      "lif": 4038,
      "less": 4039,
      "liography": 4040,
      "mm": 4041,
      "mia": 4042,
      "mus": 4043,
      "miss": 4044,
      "mounted": 4045,
      "nt": 4046,
      "nol": 4047,
      "ney": 4048,
      "ped": 4049,
      "par": 4050,
      "plan": 4051,
      "rapers": 4052,
      "rone": 4053,
      "rmia": 4054,
      "sv": 4055,
      "san": 4056,
      "sed": 4057,
      "sville": 4058,
      "to": 4059,
      "tall": 4060,
      "tidis": 4061,
      "uc": 4062,
      "uing": 4063,
      "uff": 4064,
      "uard": 4065,
      "wh": 4066,
      "wed": 4067,
      "wice": 4068,
      "weal": 4069,
      "wyr": 4070,
      "xx": 4071,
      "yg": 4072,
      "ysc": 4073,
      "yio": 4074,
      "zw": 4075,
      "zen": 4076,
      "°Ø¨": 4077,
      "³Ùħ": 4078,
      "Åŀ": 4079,
      "Ø§": 4080,
      "Ø¹": 4081,
      "ØŃ": 4082,
      "Ø°Ø¨": 4083,
      "ÙĪ": 4084,
      "á¸": 4085,
      "ĉčĊ": 4086,
      "ĠÜ": 4087,
      "Ġur": 4088,
      "Ġem": 4089,
      "Ġere": 4090,
      "Ġut": 4091,
      "Ġune": 4092,
      "Ġended": 4093,
      "Ġesp": 4094,
      "Ġten": 4095,
      "Ġtext": 4096,
      "Ġtrack": 4097,
      "Ġtwice": 4098,
      "inom": 4099,
      "inel": 4100,
      "inue": 4101,
      "inces": 4102,
      "inning": 4103,
      "ane": 4104,
      "ani": 4105,
      "anth": 4106,
      "err": 4107,
      "erent": 4108,
      "erem": 4109,
      "erint": 4110,
      "errick": 4111,
      "onse": 4112,
      "onth": 4113,
      "onies": 4114,
      "onweal": 4115,
      "eds": 4116,
      "ederal": 4117,
      "editions": 4118,
      "ori": 4119,
      "ored": 4120,
      "oria": 4121,
      "atal": 4122,
      "arry": 4123,
      "arak": 4124,
      "arious": 4125,
      "alse": 4126,
      "alif": 4127,
      "isan": 4128,
      "isans": 4129,
      "isemi": 4130,
      "Ġwrit": 4131,
      "Ġweather": 4132,
      "iter": 4133,
      "itri": 4134,
      "itch": 4135,
      "itation": 4136,
      "itness": 4137,
      "itude": 4138,
      "Ġov": 4139,
      "Ġoak": 4140,
      "asion": 4141,
      "asure": 4142,
      "Ġcal": 4143,
      "Ġcist": 4144,
      "Ġcall": 4145,
      "Ġcame": 4146,
      "Ġcited": 4147,
      "Ġcateg": 4148,
      "Ġcitations": 4149,
      "Ġcaught": 4150,
      "Ġcasualties": 4151,
      "Ġcitiz": 4152,
      "Ġcerem": 4153,
      "anda": 4154,
      "anding": 4155,
      "anders": 4156,
      "Ġse": 4157,
      "Ġsm": 4158,
      "Ġsw": 4159,
      "Ġsom": 4160,
      "Ġsay": 4161,
      "Ġsus": 4162,
      "Ġsend": 4163,
      "Ġsolic": 4164,
      "Ġseas": 4165,
      "Ġsides": 4166,
      "Ġsaid": 4167,
      "Ġsits": 4168,
      "Ġsemi": 4169,
      "Ġpan": 4170,
      "Ġpast": 4171,
      "Ġperm": 4172,
      "Ġpatriarch": 4173,
      "Ġpiec": 4174,
      "reg": 4175,
      "reet": 4176,
      "Ġ174": 4177,
      "ilay": 4178,
      "ilyl": 4179,
      "ilification": 4180,
      "Ġinside": 4181,
      "Ġinteg": 4182,
      "Ġbott": 4183,
      "Ġbalc": 4184,
      "Ġbrief": 4185,
      "Ġblood": 4186,
      "Ġburied": 4187,
      "Ġbinom": 4188,
      "ĠAis": 4189,
      "ĠAir": 4190,
      "ĠAct": 4191,
      "ĠAfter": 4192,
      "ĠAvalanche": 4193,
      "ĠAker": 4194,
      "ĠAccording": 4195,
      "Ġfr": 4196,
      "Ġfin": 4197,
      "Ġfle": 4198,
      "Ġfri": 4199,
      "Ġfut": 4200,
      "Ġfab": 4201,
      "Ġface": 4202,
      "Ġfurn": 4203,
      "Ġfountain": 4204,
      "Ġfoss": 4205,
      "Ġfederal": 4206,
      "ĠTran": 4207,
      "ĠTrav": 4208,
      "leg": 4209,
      "Ġaff": 4210,
      "Ġautonomous": 4211,
      "ica": 4212,
      "icult": 4213,
      "omin": 4214,
      "omes": 4215,
      "omenc": 4216,
      "oung": 4217,
      "oute": 4218,
      "Ġtopp": 4219,
      "Ġtoll": 4220,
      "ĠSum": 4221,
      "ĠSamp": 4222,
      "ĠSunn": 4223,
      "ĠSons": 4224,
      "ĠSinai": 4225,
      "ĠSisk": 4226,
      "ĠScience": 4227,
      "ĠCo": 4228,
      "ĠChe": 4229,
      "ĠCan": 4230,
      "ĠCorn": 4231,
      "ĠCount": 4232,
      "ĠClement": 4233,
      "ĠCyp": 4234,
      "ĠCalc": 4235,
      "ĠCultural": 4236,
      "ĠCamer": 4237,
      "rival": 4238,
      "Ġmy": 4239,
      "Ġmap": 4240,
      "Ġmember": 4241,
      "ĠMap": 4242,
      "ĠMur": 4243,
      "ĠMus": 4244,
      "ĠMilitary": 4245,
      "ĠMandate": 4246,
      "Ġ2014": 4247,
      "olt": 4248,
      "olph": 4249,
      "ented": 4250,
      "entially": 4251,
      "etery": 4252,
      "story": 4253,
      "Ġden": 4254,
      "Ġdur": 4255,
      "Ġdig": 4256,
      "Ġdriv": 4257,
      "Ġdraw": 4258,
      "Ġdaugh": 4259,
      "Ġderrick": 4260,
      "see": 4261,
      "seud": 4262,
      "Ġ(\"": 4263,
      "ĠNo": 4264,
      "ĠNear": 4265,
      "ĠNorth": 4266,
      "ĠNeuv": 4267,
      "ĠNima": 4268,
      "ĠNatal": 4269,
      "app": 4270,
      "aps": 4271,
      "apelle": 4272,
      "ĠId": 4273,
      "ĠBas": 4274,
      "ĠBig": 4275,
      "ĠBog": 4276,
      "ĠBib": 4277,
      "ĠBah": 4278,
      "ĠBourn": 4279,
      "ĠBrief": 4280,
      "ĠBurke": 4281,
      "ĠBBC": 4282,
      "Ġha": 4283,
      "Ġhig": 4284,
      "Ġhot": 4285,
      "Ġhard": 4286,
      "Ġhalls": 4287,
      "Ġhome": 4288,
      "Ġhours": 4289,
      "Ġhalf": 4290,
      "Ġrear": 4291,
      "Ġreal": 4292,
      "Ġreasons": 4293,
      "Ġ1978": 4294,
      "Ġ1924": 4295,
      "Ġ1971": 4296,
      "Ġ1960": 4297,
      "Ġ1932": 4298,
      "Ġ1964": 4299,
      "rob": 4300,
      "Ġlan": 4301,
      "Ġlit": 4302,
      "Ġlist": 4303,
      "Ġlay": 4304,
      "Ġlamp": 4305,
      "Ġlaid": 4306,
      "Ġlife": 4307,
      "lyn": 4308,
      "ersWeb": 4309,
      "chwyr": 4310,
      "ĠRim": 4311,
      "ĠRem": 4312,
      "ĠRoman": 4313,
      "ĠRaph": 4314,
      "ĠRashid": 4315,
      "ado": 4316,
      "adur": 4317,
      "adran": 4318,
      "Ġnov": 4319,
      "Ġneg": 4320,
      "Ġnatural": 4321,
      "Ġnumerous": 4322,
      "irk": 4323,
      "irt": 4324,
      "irah": 4325,
      "irgin": 4326,
      "ĠPop": 4327,
      "ĠPret": 4328,
      "ĠPitman": 4329,
      "ĠHod": 4330,
      "ĠHerald": 4331,
      "ĠHakk": 4332,
      "emy": 4333,
      "emkin": 4334,
      "emetery": 4335,
      "eli": 4336,
      "elt": 4337,
      "ĠJr": 4338,
      "ĠJim": 4339,
      "ĠJoseph": 4340,
      "Ġstep": 4341,
      "Ġstud": 4342,
      "idence": 4343,
      "estim": 4344,
      "thing": 4345,
      "thod": 4346,
      "istice": 4347,
      "ĠDi": 4348,
      "ĠDo": 4349,
      "ĠDu": 4350,
      "ĠDes": 4351,
      "ĠDonel": 4352,
      "ĠDesp": 4353,
      "ĠDSO": 4354,
      "ĠDisc": 4355,
      "ĠDMC": 4356,
      "ĠDistrict": 4357,
      "Ġthreat": 4358,
      "rah": 4359,
      "rain": 4360,
      "raum": 4361,
      "ĠWol": 4362,
      "ĠWel": 4363,
      "ĠWhere": 4364,
      "ĠWords": 4365,
      "ĠWZTV": 4366,
      "Ġgives": 4367,
      "Ġgrad": 4368,
      "Ġgrow": 4369,
      "Ġgallery": 4370,
      "Ġgroup": 4371,
      "Ġgaps": 4372,
      "ĠStar": 4373,
      "ĠStill": 4374,
      "ĠStart": 4375,
      "ĠStans": 4376,
      "ewar": 4377,
      "1918": 4378,
      "1920": 4379,
      "1945": 4380,
      "1938": 4381,
      "1934": 4382,
      "1998": 4383,
      "1979": 4384,
      "1909": 4385,
      "1999": 4386,
      "Ġforward": 4387,
      "Ġforces": 4388,
      "overed": 4389,
      "ĠFar": 4390,
      "ĠFinal": 4391,
      "ĠFred": 4392,
      "ĠFloyd": 4393,
      "ĠLaw": 4394,
      "ĠLibrary": 4395,
      "ĠLett": 4396,
      "ĠLake": 4397,
      "ĠLimestone": 4398,
      "ĠLongest": 4399,
      "ĠLock": 4400,
      "ĠLook": 4401,
      "ĠLarry": 4402,
      "ĠLemkin": 4403,
      "Ġarran": 4404,
      "Ġarmed": 4405,
      "Ġarbit": 4406,
      "Ġarrival": 4407,
      "ĠEck": 4408,
      "ĠEmp": 4409,
      "ĠElectric": 4410,
      "Ġconjun": 4411,
      "ssible": 4412,
      "aya": 4413,
      "Ġearlier": 4414,
      "Ġ1816": 4415,
      "Ġ1862": 4416,
      "Ġbeg": 4417,
      "Ġbegin": 4418,
      "romos": 4419,
      "avides": 4420,
      "oti": 4421,
      "otted": 4422,
      "otte": 4423,
      "aged": 4424,
      "agued": 4425,
      "agnol": 4426,
      "aganda": 4427,
      "uty": 4428,
      "uted": 4429,
      "utant": 4430,
      "utta": 4431,
      "Ġvoted": 4432,
      "Ġvault": 4433,
      "Ġvarious": 4434,
      "Ġasking": 4435,
      "ounds": 4436,
      "ounded": 4437,
      "Ġ32": 4438,
      "Ġ33": 4439,
      "Ġ34": 4440,
      "Ġ37": 4441,
      "Ġ38": 4442,
      "Ġ313": 4443,
      "Ġissu": 4444,
      "illery": 4445,
      "Ġwhom": 4446,
      "ocument": 4447,
      "onged": 4448,
      "oph": 4449,
      "ffic": 4450,
      "ffield": 4451,
      "ĠKem": 4452,
      "ĠKel": 4453,
      "ĠKili": 4454,
      "ĠKeeb": 4455,
      "ĠKarak": 4456,
      "Ġanimal": 4457,
      "abed": 4458,
      "abad": 4459,
      "abase": 4460,
      "abeth": 4461,
      "ules": 4462,
      "ulted": 4463,
      "ulated": 4464,
      "spital": 4465,
      "Ġrun": 4466,
      "Ġroute": 4467,
      "ortion": 4468,
      "Ġchos": 4469,
      "Ġchurch": 4470,
      "Ġ53": 4471,
      "Ġ56": 4472,
      "Ġplagued": 4473,
      "Ġalways": 4474,
      "Ġalread": 4475,
      "Ġalthough": 4476,
      "ĠUp": 4477,
      "epar": 4478,
      "ĠInstit": 4479,
      "ĠInverness": 4480,
      "Ġprot": 4481,
      "Ġproceeded": 4482,
      "Ġexcept": 4483,
      "ĠChas": 4484,
      "ĠChild": 4485,
      "ĠChald": 4486,
      "ĠChapelle": 4487,
      "103": 4488,
      "105": 4489,
      "Ġrot": 4490,
      "Ġcommunic": 4491,
      "ends": 4492,
      "endent": 4493,
      "enders": 4494,
      "Ġ43": 4495,
      "Ġcontinue": 4496,
      "182": 4497,
      "185": 4498,
      "187": 4499,
      "189": 4500,
      "1898": 4501,
      "1854": 4502,
      "1889": 4503,
      "201": 4504,
      "206": 4505,
      "207": 4506,
      "208": 4507,
      "2012": 4508,
      "2026": 4509,
      "ranch": 4510,
      "range": 4511,
      "ouses": 4512,
      "Ġadmitted": 4513,
      "ounced": 4514,
      "ĠThind": 4515,
      "ought": 4516,
      "Ġ75": 4517,
      "177": 4518,
      "chen": 4519,
      "121": 4520,
      "128": 4521,
      "lature": 4522,
      "Ġ98": 4523,
      "ressing": 4524,
      "165": 4525,
      "167": 4526,
      "Ġcomposed": 4527,
      "Ġ1852": 4528,
      "Ġ1856": 4529,
      "Ġ1858": 4530,
      "Ġ101": 4531,
      "Ġ105": 4532,
      "Ġ109": 4533,
      "llable": 4534,
      "antry": 4535,
      "Ġ2003": 4536,
      "Ġ2007": 4537,
      "lands": 4538,
      "152": 4539,
      "sonian": 4540,
      "Ġunc": 4541,
      "Ġunf": 4542,
      "Ġunit": 4543,
      "Ġunus": 4544,
      "Ġunable": 4545,
      "Ġunborn": 4546,
      "under": 4547,
      "undga": 4548,
      "Ġnote": 4549,
      "ĠOnline": 4550,
      "137": 4551,
      "igned": 4552,
      "143": 4553,
      "Ġdead": 4554,
      "ohail": 4555,
      "Ġresulted": 4556,
      "Ġ162": 4557,
      "Ġ168": 4558,
      "Ġapprov": 4559,
      "Ġappoint": 4560,
      "Ġremain": 4561,
      "Ġremaining": 4562,
      "ĠVander": 4563,
      "ĠVilay": 4564,
      "ĠVirgin": 4565,
      "athist": 4566,
      "Ġattrib": 4567,
      "Ġago": 4568,
      "Ġknow": 4569,
      "ĠCommander": 4570,
      "Ġ84": 4571,
      "Ġ89": 4572,
      "Ġwhole": 4573,
      "Ġwhose": 4574,
      "Ġsuff": 4575,
      "Ġcomplex": 4576,
      "Ġ150": 4577,
      "2003": 4578,
      "2004": 4579,
      "ronicle": 4580,
      "Ġrecent": 4581,
      "267": 4582,
      "henated": 4583,
      "Ġcolonial": 4584,
      "Structure": 4585,
      "iple": 4586,
      "ipilification": 4587,
      "ĠAlan": 4588,
      "Ġdisc": 4589,
      "Ġdisp": 4590,
      "Ġdisag": 4591,
      "231": 4592,
      "236": 4593,
      "250": 4594,
      "Ġshot": 4595,
      "Ġshared": 4596,
      "Ġintended": 4597,
      "ĠShlim": 4598,
      "ĠConstruction": 4599,
      "Ġusage": 4600,
      "ĠAsia": 4601,
      "ĠHead": 4602,
      "Ġcommanded": 4603,
      "XXIII": 4604,
      "Ġsevere": 4605,
      "Ġservices": 4606,
      "ĠYaz": 4607,
      "Ġ238": 4608,
      "scription": 4609,
      "Ġabortion": 4610,
      "anging": 4611,
      "Ġreform": 4612,
      "Ġreference": 4613,
      "ultiple": 4614,
      "Ġothers": 4615,
      "Ġportions": 4616,
      "Ġcommissioners": 4617,
      "perial": 4618,
      "Ġ146": 4619,
      "Ġrelated": 4620,
      "Ġrelations": 4621,
      "ternal": 4622,
      "awa": 4623,
      "awi": 4624,
      "awang": 4625,
      "ditional": 4626,
      "ĠZhong": 4627,
      "Ġartist": 4628,
      "Ġartillery": 4629,
      "Ġconsisted": 4630,
      "Ġarchitects": 4631,
      "Ġarchitectural": 4632,
      "Ġsecondary": 4633,
      "aux": 4634,
      "aucin": 4635,
      "ĠAnn": 4636,
      "Ġmonument": 4637,
      "Ġoutside": 4638,
      "ĠNationalism": 4639,
      "Ġ1991": 4640,
      "ĠPolitical": 4641,
      "Ġjournal": 4642,
      "onsibility": 4643,
      "Ġcenter": 4644,
      "ĠBook": 4645,
      "Ġeven": 4646,
      "Ġevery": 4647,
      "idden": 4648,
      "Ġrenamed": 4649,
      "Ġprovided": 4650,
      "Ġprovinces": 4651,
      "Ġattacks": 4652,
      "Ġattacking": 4653,
      "Ġsupplement": 4654,
      "Ġfollowed": 4655,
      "Ġrequiring": 4656,
      "Ġ1901": 4657,
      "Ġ1903": 4658,
      "ĠGazetteer": 4659,
      "Ġcarpet": 4660,
      "Ġmaint": 4661,
      "Ġstructures": 4662,
      "ĠDavy": 4663,
      "Ġ1843": 4664,
      "Ġ1848": 4665,
      "Ġ1849": 4666,
      "Ġenemy": 4667,
      "rades": 4668,
      "Ġquadran": 4669,
      "Ġcamps": 4670,
      "Ġpossible": 4671,
      "Ġlocation": 4672,
      "Ġ1880": 4673,
      "Ġ1881": 4674,
      "Ġ1884": 4675,
      "Ġimprove": 4676,
      "Ġimprovement": 4677,
      "Ġsymb": 4678,
      "Ġsyllable": 4679,
      "ĠAllison": 4680,
      "Ġfourteen": 4681,
      "ixes": 4682,
      "oyd": 4683,
      "lected": 4684,
      "unga": 4685,
      "Ġcontracts": 4686,
      "gyll": 4687,
      "ukta": 4688,
      "Ġoccasion": 4689,
      "Ġbook": 4690,
      "Ġbooks": 4691,
      "letion": 4692,
      "Ġacqu": 4693,
      "Ġretreat": 4694,
      "Ġkillings": 4695,
      "Ġdesignated": 4696,
      "ĠConfederates": 4697,
      "Why": 4698,
      "Ġterrit": 4699,
      "Ġsubstant": 4700,
      "ĠAdam": 4701,
      "ĠAdmiral": 4702,
      "ĠAdditional": 4703,
      "ĠArabs": 4704,
      "Ġmostly": 4705,
      "Ġassigned": 4706,
      "ocked": 4707,
      "Ġdeaths": 4708,
      "Ġrenovated": 4709,
      "Ġslave": 4710,
      "Ġmountaineer": 4711,
      "Ġdeterm": 4712,
      "Ġhallway": 4713,
      "ĠProtest": 4714,
      "ificant": 4715,
      "ĠØ§Ù": 4716,
      "ĠØ³Ùħ": 4717,
      "Ġeditions": 4718,
      "hemidem": 4719,
      "ĠCarey": 4720,
      "ĠIsm": 4721,
      "683": 4722,
      "pened": 4723,
      "roud": 4724,
      "roups": 4725,
      "vedere": 4726,
      "yphenated": 4727,
      "Ġcourtroom": 4728,
      "Ġblock": 4729,
      "Ġbelow": 4730,
      "Ġbusts": 4731,
      "ĠTurkmen": 4732,
      "ĠSyriac": 4733,
      "Ġdemands": 4734,
      "Ġplaces": 4735,
      "Ġstatehouses": 4736,
      "Ġrelocation": 4737,
      "Ġrelocated": 4738,
      "...": 4739,
      "587": 4740,
      "Show": 4741,
      "Ġpublished": 4742,
      "Ġrevolt": 4743,
      "Ġstonecut": 4744,
      "Ġrepresented": 4745,
      "Ġinstalling": 4746,
      "Ġpreviously": 4747,
      "Ġmarblework": 4748,
      "ĠNepali": 4749,
      "Chronicle": 4750,
      "ysical": 4751,
      "Ġauthorities": 4752,
      "Ġauthorized": 4753,
      "ĠCambridge": 4754,
      "Ġminister": 4755,
      "urban": 4756,
      "ĠHoly": 4757,
      "Ġstrong": 4758,
      "Ġspecies": 4759,
      "Ġwooden": 4760,
      "Ġcrossing": 4761,
      "Ġcrossings": 4762,
      "Ġpolitics": 4763,
      "Ġpersonal": 4764,
      "Ġfacing": 4765,
      "ĠSimon": 4766,
      "Ġconnects": 4767,
      "Ġpropos": 4768,
      "Ġpropaganda": 4769,
      "Ġsurrounded": 4770,
      "Ġtransferred": 4771,
      "ĠEngineering": 4772,
      "proof": 4773,
      "ÙĬÙĦ": 4774,
      "Ġidentity": 4775,
      "Ġobjected": 4776,
      "Ġfixture": 4777,
      "Ġmurder": 4778,
      "Ġmurders": 4779,
      "Ġmurdered": 4780,
      "Ġreinfor": 4781,
      "Ġthirty": 4782,
      "Ġgoal": 4783,
      "Ġgoing": 4784,
      "ĠExplor": 4785,
      "ĠExpedition": 4786,
      "Ġrespectively": 4787,
      "Ġresponse": 4788,
      "Ġappearance": 4789,
      "Ġpublicly": 4790,
      "urious": 4791,
      "Ġensure": 4792,
      "Ġenslav": 4793,
      "Ġcool": 4794,
      "Ġsuperint": 4795,
      "Ġmassive": 4796,
      "Ġdeliv": 4797,
      "Ġdedication": 4798,
      "Ġlinks": 4799,
      "ĠPaul": 4800,
      "Ġelectrical": 4801,
      "Ġanniversary": 4802,
      "Ġcontroversy": 4803,
      "Ġcontroversial": 4804,
      "Ġrecognition": 4805,
      "Ġallowed": 4806,
      "Ġdespite": 4807,
      "Ġstairwells": 4808,
      "Ġreturned": 4809,
      "boro": 4810,
      "coing": 4811,
      "fairpwll": 4812,
      "gogery": 4813,
      "Ġrights": 4814,
      "Ġoperations": 4815,
      "ĠAcre": 4816,
      "Ġfirms": 4817,
      "ĠSenator": 4818,
      "Ġready": 4819,
      "Ġreading": 4820,
      "Ġnorthern": 4821,
      "ĠHero": 4822,
      "Ġguides": 4823,
      "Ġargues": 4824,
      "Ġconcerns": 4825,
      "Ġreduce": 4826,
      "Ġreplic": 4827,
      "Ġprepared": 4828,
      "Ġterraced": 4829,
      "Ġinfluenced": 4830,
      "External": 4831,
      "cinaucin": 4832,
      "yalu": 4833,
      "ÙħØ°Ø¨": 4834,
      "Ġopposite": 4835,
      "Ġcedars": 4836,
      "Ġflanking": 4837,
      "Ġflanked": 4838,
      "Ġmeasure": 4839,
      "Ġmeasures": 4840,
      "Ġdeveloped": 4841,
      "ĠBlack": 4842,
      "Ġhoused": 4843,
      "Ġgarden": 4844,
      "Ġgardens": 4845,
      "ĠEgyptian": 4846,
      "Ġattempting": 4847,
      "Ġpartitioned": 4848,
      "ĠOfficial": 4849,
      "Ġdecorative": 4850,
      "Ġsculpt": 4851,
      "Ġsculpted": 4852,
      "aughtrey": 4853,
      "Boer": 4854,
      "Design": 4855,
      "bellion": 4856,
      "gwyn": 4857,
      "Ġriver": 4858,
      "Ġidea": 4859,
      "arianism": 4860,
      "Ġcovering": 4861,
      "Ġcelebration": 4862,
      "Ġspring": 4863,
      "Ġpilaster": 4864,
      "Ġburning": 4865,
      "ĠAffairs": 4866,
      "Ġmusical": 4867,
      "Ġmentioned": 4868,
      "ĠMedal": 4869,
      "ĠMilnes": 4870,
      "ĠModern": 4871,
      "ĠMichael": 4872,
      "ĠMassacre": 4873,
      "ĠBenavides": 4874,
      "Ġhospital": 4875,
      "chnical": 4876,
      "ĠHowever": 4877,
      "Ġstationed": 4878,
      "Ġstruck": 4879,
      "Ġgrass": 4880,
      "ĠOrthod": 4881,
      "Ġventilation": 4882,
      "ishmentarianism": 4883,
      "ĠVillers": 4884,
      "Ġsucceeded": 4885,
      "obbins": 4886,
      "ĠClarksville": 4887,
      "Ġengine": 4888,
      "ĠCharlotte": 4889,
      "Ġphotograph": 4890,
      "ĠSmithsonian": 4891,
      "AAGI": 4892,
      "Andrew": 4893,
      "Pursuit": 4894,
      "bilt": 4895,
      "ihilipilification": 4896,
      "makers": 4897,
      "Ġwinter": 4898,
      "Ġcraft": 4899,
      "Ġpetrol": 4900,
      "rectly": 4901,
      "Ġbalustrades": 4902,
      "ĠAngela": 4903,
      "ĠSarah": 4904,
      "ĠCyril": 4905,
      "ĠMacAndrew": 4906,
      "Ġnarrow": 4907,
      "ĠPassage": 4908,
      "establishmentarianism": 4909,
      "ĠDeccan": 4910,
      "Ġthousands": 4911,
      "ĠGilgit": 4912,
      "Ġgranted": 4913,
      "ĠStudies": 4914,
      "utinative": 4915,
      "ĠArmies": 4916,
      "Ġalphabetical": 4917,
      "Ġextension": 4918,
      "Ġadorned": 4919,
      "Ġspirit": 4920,
      "Ġclasps": 4921,
      "Ġdisarmed": 4922,
      "Ġdisplayed": 4923,
      "Ġencountered": 4924,
      "Ġoccupation": 4925,
      "Ġterrace": 4926,
      "Ġassistant": 4927,
      "Ġdepicting": 4928,
      "Ġhonoring": 4929,
      "Ġdestroyed": 4930,
      "Ġexperienced": 4931,
      "Baltistan": 4932,
      "Closeup": 4933,
      "Edit": 4934,
      "Kilu": 4935,
      "Personal": 4936,
      "Sentinel": 4937,
      "Supplement": 4938,
      "United": 4939,
      "Wherter": 4940,
      "eomanry": 4941,
      "svaal": 4942,
      "tidisestablishmentarianism": 4943,
      "weden": 4944,
      "yscrapers": 4945,
      "ØŃØ©": 4946,
      "Ġerect": 4947,
      "Ġesplan": 4948,
      "onwealth": 4949,
      "Ġwritten": 4950,
      "Ġcisterns": 4951,
      "Ġcategory": 4952,
      "Ġcitizens": 4953,
      "Ġseason": 4954,
      "Ġpieces": 4955,
      "Ġbinomial": 4956,
      "ĠAkeroyd": 4957,
      "Ġfuture": 4958,
      "Ġfabric": 4959,
      "Ġfountains": 4960,
      "Ġfossil": 4961,
      "ĠTransvaal": 4962,
      "omenclature": 4963,
      "ĠSampson": 4964,
      "ĠSunni": 4965,
      "ĠCounty": 4966,
      "ĠCyprus": 4967,
      "ĠCalcutta": 4968,
      "ĠCameron": 4969,
      "Ġdriven": 4970,
      "Ġdaughter": 4971,
      "ĠNeuve": 4972,
      "ĠNatalie": 4973,
      "ĠBigby": 4974,
      "ĠBogart": 4975,
      "ĠBahadur": 4976,
      "ĠBourne": 4977,
      "Ġlamps": 4978,
      "ĠRimington": 4979,
      "ĠRaphael": 4980,
      "Ġnovel": 4981,
      "ĠPretoria": 4982,
      "Ġstudy": 4983,
      "ĠDonelson": 4984,
      "Ġgrowth": 4985,
      "ĠStansfield": 4986,
      "ĠLetters": 4987,
      "ĠLocker": 4988,
      "Ġarranged": 4989,
      "ĠEckler": 4990,
      "ĠEmpire": 4991,
      "Ġconjunction": 4992,
      "romosome": 4993,
      "ĠKeeble": 4994,
      "ĠKarakor": 4995,
      "Ġchosen": 4996,
      "Ġalready": 4997,
      "ĠInstitute": 4998,
      "ĠChildress": 4999,
      "ĠThindu": 5000,
      "undgaard": 5001,
      "ĠVanderbilt": 5002,
      "ĠVilayet": 5003,
      "ĠVirginia": 5004,
      "ĠShlimon": 5005,
      "Ġquadrant": 5006,
      "ĠØ§ÙĦ": 5007,
      "ĠØ³ÙħÙĬÙĦ": 5008,
      "hemidemisemi": 5009,
      "ĠExplorersWeb": 5010,
      "ĠExpeditionary": 5011,
      "Ġenslaved": 5012,
      "Ġsuperintendent": 5013,
      "cinaucinihilipilification": 5014,
      "ÙħØ°Ø¨ØŃØ©": 5015,
      "ĠOrthodox": 5016,
      "\",": 5017,
      "\";": 5018,
      "'t": 5019,
      "'\".": 5020,
      ",\"": 5021,
      ".:": 5022,
      "05": 5023,
      "035": 5024,
      "117": 5025,
      "112": 5026,
      "115": 5027,
      "220": 5028,
      "217": 5029,
      "213": 5030,
      "214": 5031,
      "211": 5032,
      "223": 5033,
      "300": 5034,
      "340": 5035,
      "360": 5036,
      "400": 5037,
      "527": 5038,
      "657": 5039,
      "800": 5040,
      "970": 5041,
      ";[": 5042,
      "?,": 5043,
      "AC": 5044,
      "AM": 5045,
      "Ad": 5046,
      "Ale": 5047,
      "Anglesey": 5048,
      "Aequ": 5049,
      "Be": 5050,
      "By": 5051,
      "Bet": 5052,
      "Bak": 5053,
      "Building": 5054,
      "Bib": 5055,
      "Beg": 5056,
      "Bundgaard": 5057,
      "CB": 5058,
      "Car": 5059,
      "Comp": 5060,
      "Civil": 5061,
      "Camb": 5062,
      "Clas": 5063,
      "Cultural": 5064,
      "Casualties": 5065,
      "Curious": 5066,
      "Date": 5067,
      "Dav": 5068,
      "Dair": 5069,
      "Division": 5070,
      "Early": 5071,
      "Earlier": 5072,
      "Ent": 5073,
      "Far": 5074,
      "Flow": 5075,
      "Flag": 5076,
      "Fau": 5077,
      "Further": 5078,
      "Ga": 5079,
      "Gu": 5080,
      "Gate": 5081,
      "Gig": 5082,
      "Greek": 5083,
      "Gallery": 5084,
      "Guinness": 5085,
      "HL": 5086,
      "HP": 5087,
      "Hol": 5088,
      "House": 5089,
      "Having": 5090,
      "IA": 5091,
      "IX": 5092,
      "Im": 5093,
      "Imp": 5094,
      "Jel": 5095,
      "John": 5096,
      "Jones": 5097,
      "Kn": 5098,
      "Lear": 5099,
      "My": 5100,
      "Min": 5101,
      "Mar": 5102,
      "Mus": 5103,
      "Motlow": 5104,
      "MID": 5105,
      "Morton": 5106,
      "NA": 5107,
      "North": 5108,
      "Nirmal": 5109,
      "Nadhira": 5110,
      "Old": 5111,
      "Oxford": 5112,
      "Offic": 5113,
      "PS": 5114,
      "Pro": 5115,
      "Pakistan": 5116,
      "Qu": 5117,
      "Re": 5118,
      "Res": 5119,
      "Ret": 5120,
      "Rel": 5121,
      "Resp": 5122,
      "Royal": 5123,
      "RHP": 5124,
      "She": 5125,
      "Ses": 5126,
      "Sev": 5127,
      "Sim": 5128,
      "September": 5129,
      "Senate": 5130,
      "Tub": 5131,
      "Tunnel": 5132,
      "Tomb": 5133,
      "Today": 5134,
      "Worth": 5135,
      "Wrought": 5136,
      "Words": 5137,
      "Yukta": 5138,
      "aa": 5139,
      "aÃ": 5140,
      "ait": 5141,
      "avil": 5142,
      "aut": 5143,
      "awo": 5144,
      "aunga": 5145,
      "bb": 5146,
      "be": 5147,
      "ban": 5148,
      "bar": 5149,
      "bation": 5150,
      "bun": 5151,
      "bury": 5152,
      "bows": 5153,
      "bright": 5154,
      "based": 5155,
      "bling": 5156,
      "bawi": 5157,
      "cro": 5158,
      "cur": 5159,
      "cers": 5160,
      "cum": 5161,
      "card": 5162,
      "count": 5163,
      "cess": 5164,
      "crow": 5165,
      "cements": 5166,
      "code": 5167,
      "cules": 5168,
      "ds": 5169,
      "don": 5170,
      "den": 5171,
      "derm": 5172,
      "dai": 5173,
      "dictionaries": 5174,
      "drob": 5175,
      "eo": 5176,
      "ez": 5177,
      "eing": 5178,
      "eber": 5179,
      "eff": 5180,
      "eep": 5181,
      "ease": 5182,
      "eigh": 5183,
      "exp": 5184,
      "eograph": 5185,
      "fel": 5186,
      "fted": 5187,
      "fast": 5188,
      "fare": 5189,
      "fixes": 5190,
      "go": 5191,
      "ging": 5192,
      "gest": 5193,
      "gian": 5194,
      "gress": 5195,
      "gson": 5196,
      "grad": 5197,
      "goch": 5198,
      "gency": 5199,
      "greg": 5200,
      "hy": 5201,
      "hin": 5202,
      "hall": 5203,
      "hok": 5204,
      "hire": 5205,
      "hmed": 5206,
      "haust": 5207,
      "iber": 5208,
      "iast": 5209,
      "iok": 5210,
      "ients": 5211,
      "ience": 5212,
      "iative": 5213,
      "jam": 5214,
      "kop": 5215,
      "kee": 5216,
      "kins": 5217,
      "konn": 5218,
      "kawa": 5219,
      "lers": 5220,
      "lam": 5221,
      "lop": 5222,
      "lated": 5223,
      "lies": 5224,
      "lant": 5225,
      "lied": 5226,
      "like": 5227,
      "lights": 5228,
      "mn": 5229,
      "met": 5230,
      "mill": 5231,
      "mul": 5232,
      "mey": 5233,
      "math": 5234,
      "mors": 5235,
      "morning": 5236,
      "maunga": 5237,
      "ns": 5238,
      "name": 5239,
      "nier": 5240,
      "nuk": 5241,
      "number": 5242,
      "noon": 5243,
      "nshire": 5244,
      "oK": 5245,
      "oe": 5246,
      "oose": 5247,
      "oological": 5248,
      "oeuv": 5249,
      "pe": 5250,
      "pect": 5251,
      "pok": 5252,
      "piki": 5253,
      "puk": 5254,
      "pole": 5255,
      "rt": 5256,
      "rent": 5257,
      "rap": 5258,
      "rate": 5259,
      "rated": 5260,
      "rast": 5261,
      "rative": 5262,
      "racy": 5263,
      "rarily": 5264,
      "ratiosphecom": 5265,
      "sy": 5266,
      "sil": 5267,
      "sery": 5268,
      "sory": 5269,
      "swer": 5270,
      "syl": 5271,
      "solved": 5272,
      "tam": 5273,
      "try": 5274,
      "then": 5275,
      "tah": 5276,
      "turi": 5277,
      "tana": 5278,
      "ua": 5279,
      "ule": 5280,
      "uerm": 5281,
      "uced": 5282,
      "vin": 5283,
      "ves": 5284,
      "vent": 5285,
      "vid": 5286,
      "vey": 5287,
      "ww": 5288,
      "wers": 5289,
      "woh": 5290,
      "when": 5291,
      "where": 5292,
      "xander": 5293,
      "xcav": 5294,
      "ya": 5295,
      "yond": 5296,
      "ybows": 5297,
      "zer": 5298,
      "¦Ü": 5299,
      "§ade": 5300,
      "¹¯": 5301,
      "Ã¨": 5302,
      "Ã´": 5303,
      "Äģ": 5304,
      "Ø³": 5305,
      "Ø¶": 5306,
      "ÙĨ": 5307,
      "Ü£": 5308,
      "Ü¬": 5309,
      "Ü²": 5310,
      "Üµ": 5311,
      "Ü¸": 5312,
      "Üł": 5313,
      "á¹¯": 5314,
      "Ġ=": 5315,
      "ĠX": 5316,
      "Ġz": 5317,
      "Ġet": 5318,
      "Ġrom": 5319,
      "Ġill": 5320,
      "Ġign": 5321,
      "Ġess": 5322,
      "Ġult": 5323,
      "Ġera": 5324,
      "ĠXXIII": 5325,
      "Ġurban": 5326,
      "ĠÙħØ°Ø¨ØŃØ©": 5327,
      "ķÜ£": 5328,
      "Ġtin": 5329,
      "Ġtri": 5330,
      "Ġtree": 5331,
      "Ġtreat": 5332,
      "Ġtyp": 5333,
      "Ġtried": 5334,
      "Ġtarget": 5335,
      "Ġtrench": 5336,
      "Ġtestim": 5337,
      "hel": 5338,
      "het": 5339,
      "hew": 5340,
      "heastern": 5341,
      "ina": 5342,
      "ink": 5343,
      "inet": 5344,
      "inev": 5345,
      "inary": 5346,
      "inety": 5347,
      "inne": 5348,
      "incol": 5349,
      "inously": 5350,
      "institution": 5351,
      "anan": 5352,
      "anas": 5353,
      "anion": 5354,
      "anted": 5355,
      "anish": 5356,
      "anied": 5357,
      "anized": 5358,
      "ancy": 5359,
      "erace": 5360,
      "onf": 5361,
      "onents": 5362,
      "onyl": 5363,
      "onhot": 5364,
      "ontein": 5365,
      "onstruction": 5366,
      "edest": 5367,
      "edinously": 5368,
      "ores": 5369,
      "oral": 5370,
      "oric": 5371,
      "orter": 5372,
      "orial": 5373,
      "orast": 5374,
      "orities": 5375,
      "oront": 5376,
      "ato": 5377,
      "atch": 5378,
      "atog": 5379,
      "atang": 5380,
      "atory": 5381,
      "enov": 5382,
      "enical": 5383,
      "enged": 5384,
      "enilyl": 5385,
      "esboro": 5386,
      "arm": 5387,
      "arn": 5388,
      "aration": 5389,
      "aria": 5390,
      "arab": 5391,
      "arette": 5392,
      "arsh": 5393,
      "arpet": 5394,
      "ala": 5395,
      "alg": 5396,
      "ali": 5397,
      "alber": 5398,
      "almer": 5399,
      "altern": 5400,
      "alified": 5401,
      "iso": 5402,
      "ises": 5403,
      "isher": 5404,
      "isings": 5405,
      "ishes": 5406,
      "iscuss": 5407,
      "ischen": 5408,
      "Ġwro": 5409,
      "Ġwall": 5410,
      "Ġworth": 5411,
      "Ġweak": 5412,
      "Ġwants": 5413,
      "Ġwife": 5414,
      "Ġwax": 5415,
      "Ġwheat": 5416,
      "Ġweigh": 5417,
      "Ġwww": 5418,
      "Ġwanted": 5419,
      "iting": 5420,
      "itic": 5421,
      "itim": 5422,
      "itary": 5423,
      "iture": 5424,
      "itche": 5425,
      "ittee": 5426,
      "itants": 5427,
      "Ġool": 5428,
      "Ġoxford": 5429,
      "ason": 5430,
      "asse": 5431,
      "asted": 5432,
      "ashes": 5433,
      "Ġcom": 5434,
      "Ġcou": 5435,
      "Ġcur": 5436,
      "Ġcig": 5437,
      "Ġcab": 5438,
      "Ġcul": 5439,
      "Ġcart": 5440,
      "Ġcub": 5441,
      "Ġcase": 5442,
      "Ġcann": 5443,
      "Ġcement": 5444,
      "Ġcred": 5445,
      "Ġceas": 5446,
      "Ġcrow": 5447,
      "Ġcause": 5448,
      "Ġcases": 5449,
      "Ġcrown": 5450,
      "Ġcurt": 5451,
      "Ġcoining": 5452,
      "andated": 5453,
      "Ġsou": 5454,
      "Ġsch": 5455,
      "Ġsust": 5456,
      "Ġsoc": 5457,
      "Ġsug": 5458,
      "Ġsche": 5459,
      "Ġslow": 5460,
      "Ġsave": 5461,
      "Ġsalt": 5462,
      "Ġsched": 5463,
      "Ġsays": 5464,
      "Ġsilic": 5465,
      "Ġsaying": 5466,
      "Ġsession": 5467,
      "Ġsepar": 5468,
      "Ġsashes": 5469,
      "Ġpat": 5470,
      "Ġpra": 5471,
      "Ġpay": 5472,
      "Ġpow": 5473,
      "Ġpot": 5474,
      "Ġpair": 5475,
      "Ġpron": 5476,
      "Ġpier": 5477,
      "Ġpip": 5478,
      "Ġpract": 5479,
      "Ġpseud": 5480,
      "Ġproud": 5481,
      "Ġpsy": 5482,
      "Ġpedest": 5483,
      "rec": 5484,
      "requ": 5485,
      "rell": 5486,
      "reif": 5487,
      "reonyl": 5488,
      "Ġ110": 5489,
      "Ġ113": 5490,
      "Ġ125": 5491,
      "Ġ171": 5492,
      "Ġ175": 5493,
      "iler": 5494,
      "ilistice": 5495,
      "Ġintern": 5496,
      "Ġinches": 5497,
      "Ġincomp": 5498,
      "Ġinspect": 5499,
      "Ġ220": 5500,
      "Ġ278": 5501,
      "Ġ294": 5502,
      "Ġ266": 5503,
      "Ġ260": 5504,
      "Ġban": 5505,
      "Ġbed": 5506,
      "Ġbet": 5507,
      "Ġbir": 5508,
      "Ġbord": 5509,
      "Ġbay": 5510,
      "Ġbill": 5511,
      "Ġblow": 5512,
      "Ġbatt": 5513,
      "Ġbattle": 5514,
      "Ġbrough": 5515,
      "Ġbillion": 5516,
      "Ġbidd": 5517,
      "Ġbrought": 5518,
      "Ġburi": 5519,
      "Ġbank": 5520,
      "Ġbatches": 5521,
      "Ġbring": 5522,
      "Ġbanks": 5523,
      "Ġbrev": 5524,
      "Ġbronze": 5525,
      "Ġbridges": 5526,
      "ĠAld": 5527,
      "ĠAmer": 5528,
      "ĠAward": 5529,
      "ĠAutonomous": 5530,
      "ĠAgency": 5531,
      "ĠAhmed": 5532,
      "Ġfar": 5533,
      "Ġfun": 5534,
      "Ġfish": 5535,
      "Ġfoc": 5536,
      "Ġflo": 5537,
      "Ġfear": 5538,
      "Ġflat": 5539,
      "Ġfact": 5540,
      "Ġfeas": 5541,
      "Ġfacts": 5542,
      "Ġfilled": 5543,
      "Ġflood": 5544,
      "Ġfather": 5545,
      "Ġfelt": 5546,
      "Ġfought": 5547,
      "ĠfaÃ": 5548,
      "Ġfrequ": 5549,
      "ĠTig": 5550,
      "ĠTra": 5551,
      "ĠTour": 5552,
      "ĠTell": 5553,
      "ĠToh": 5554,
      "ĠTrad": 5555,
      "ĠTuck": 5556,
      "ĠToday": 5557,
      "ĠTaum": 5558,
      "ĠTirah": 5559,
      "leb": 5560,
      "leted": 5561,
      "lete": 5562,
      "lett": 5563,
      "lege": 5564,
      "lease": 5565,
      "leged": 5566,
      "leaves": 5567,
      "lewel": 5568,
      "Ġach": 5569,
      "Ġack": 5570,
      "Ġamp": 5571,
      "Ġautonom": 5572,
      "Ġaffair": 5573,
      "Ġaerial": 5574,
      "icon": 5575,
      "icop": 5576,
      "icher": 5577,
      "oment": 5578,
      "omers": 5579,
      "omel": 5580,
      "omass": 5581,
      "ouc": 5582,
      "ouble": 5583,
      "ouTub": 5584,
      "Ġtoil": 5585,
      "Ġtool": 5586,
      "Ġtoday": 5587,
      "Ġtoget": 5588,
      "ĠSk": 5589,
      "ĠSan": 5590,
      "ĠSon": 5591,
      "ĠSur": 5592,
      "ĠSel": 5593,
      "ĠSay": 5594,
      "ĠSus": 5595,
      "ĠSold": 5596,
      "ĠSury": 5597,
      "ĠSearch": 5598,
      "ĠSarg": 5599,
      "ĠSequ": 5600,
      "ĠSoon": 5601,
      "ĠSession": 5602,
      "ĠSohail": 5603,
      "ĠSweden": 5604,
      "ĠCor": 5605,
      "ĠCent": 5606,
      "ĠCap": 5607,
      "ĠCong": 5608,
      "ĠCox": 5609,
      "ĠCapital": 5610,
      "ĠCedar": 5611,
      "ĠCurt": 5612,
      "ĠCemetery": 5613,
      "ria": 5614,
      "rian": 5615,
      "riff": 5616,
      "river": 5617,
      "Ġmal": 5618,
      "Ġmos": 5619,
      "Ġmant": 5620,
      "Ġmone": 5621,
      "Ġmater": 5622,
      "Ġmission": 5623,
      "Ġmedia": 5624,
      "Ġmess": 5625,
      "Ġmilit": 5626,
      "Ġmanner": 5627,
      "Ġmole": 5628,
      "Ġmolding": 5629,
      "Ġmurals": 5630,
      "Ġmandated": 5631,
      "Ġmoment": 5632,
      "ĠMat": 5633,
      "ĠMal": 5634,
      "ĠMet": 5635,
      "ĠMark": 5636,
      "ĠMount": 5637,
      "ĠMeas": 5638,
      "ĠMys": 5639,
      "ĠMuch": 5640,
      "ĠMorning": 5641,
      "ĠMerriam": 5642,
      "ĠMoved": 5643,
      "ĠMÄģ": 5644,
      "oll": 5645,
      "oles": 5646,
      "olas": 5647,
      "olid": 5648,
      "oliers": 5649,
      "acist": 5650,
      "acted": 5651,
      "acles": 5652,
      "aches": 5653,
      "enty": 5654,
      "ential": 5655,
      "etter": 5656,
      "ether": 5657,
      "etiously": 5658,
      "sted": 5659,
      "stad": 5660,
      "stam": 5661,
      "stag": 5662,
      "stern": 5663,
      "stone": 5664,
      "stable": 5665,
      "stein": 5666,
      "Ġdon": 5667,
      "Ġdate": 5668,
      "Ġdrew": 5669,
      "Ġdone": 5670,
      "Ġdome": 5671,
      "Ġdiam": 5672,
      "Ġdrop": 5673,
      "Ġdressed": 5674,
      "Ġdrove": 5675,
      "Ġdrone": 5676,
      "Ġdirt": 5677,
      "Ġdocument": 5678,
      "Ġdouble": 5679,
      "sein": 5680,
      "Ġ(#": 5681,
      "ĠNC": 5682,
      "ĠND": 5683,
      "ĠNe": 5684,
      "ĠNot": 5685,
      "ĠNich": 5686,
      "ĠNight": 5687,
      "ĠName": 5688,
      "ĠNik": 5689,
      "ĠNile": 5690,
      "ĠNative": 5691,
      "ĠNoon": 5692,
      "ĠNadhira": 5693,
      "ĠNawang": 5694,
      "ĠNomenclature": 5695,
      "ĠNinev": 5696,
      "ĠNoll": 5697,
      "appened": 5698,
      "ĠIV": 5699,
      "ĠIss": 5700,
      "ĠIran": 5701,
      "ĠIII": 5702,
      "ĠBan": 5703,
      "ĠBet": 5704,
      "ĠBut": 5705,
      "ĠBod": 5706,
      "ĠBair": 5707,
      "ĠBase": 5708,
      "ĠBetween": 5709,
      "ĠBeg": 5710,
      "ĠBread": 5711,
      "ĠBids": 5712,
      "ĠBronze": 5713,
      "ĠBridges": 5714,
      "ĠBagnol": 5715,
      "Ġhum": 5716,
      "Ġhour": 5717,
      "Ġhost": 5718,
      "Ġhung": 5719,
      "Ġhands": 5720,
      "Ġhalt": 5721,
      "Ġhorse": 5722,
      "Ġhomes": 5723,
      "Ġhidden": 5724,
      "Ġhyphenated": 5725,
      "Ġhappened": 5726,
      "Ġrect": 5727,
      "Ġrelat": 5728,
      "Ġrever": 5729,
      "Ġreach": 5730,
      "Ġrebellion": 5731,
      "Ġ1900": 5732,
      "Ġ1920": 5733,
      "Ġ1929": 5734,
      "Ġ1945": 5735,
      "Ġ1940": 5736,
      "Ġ1921": 5737,
      "Ġ1934": 5738,
      "Ġ1968": 5739,
      "Ġ1946": 5740,
      "Ġ1949": 5741,
      "Ġ1961": 5742,
      "rooms": 5743,
      "rokee": 5744,
      "Ġlad": 5745,
      "Ġlim": 5746,
      "Ġlow": 5747,
      "Ġlack": 5748,
      "Ġlost": 5749,
      "Ġless": 5750,
      "Ġlake": 5751,
      "Ġloop": 5752,
      "Ġlawn": 5753,
      "Ġloung": 5754,
      "ivors": 5755,
      "ivities": 5756,
      "uris": 5757,
      "uration": 5758,
      "urry": 5759,
      "lyph": 5760,
      "chan": 5761,
      "chitect": 5762,
      "chau": 5763,
      "chological": 5764,
      "chief": 5765,
      "ĠRe": 5766,
      "ĠRed": 5767,
      "ĠRay": 5768,
      "ĠReb": 5769,
      "ĠRestoration": 5770,
      "ĠRead": 5771,
      "ĠRestored": 5772,
      "ĠReston": 5773,
      "ĠRitch": 5774,
      "ĠRobbins": 5775,
      "ĠRisings": 5776,
      "ĠThen": 5777,
      "adsp": 5778,
      "Ġng": 5779,
      "Ġnak": 5780,
      "Ġnec": 5781,
      "Ġnoun": 5782,
      "Ġnative": 5783,
      "Ġnick": 5784,
      "Ġninety": 5785,
      "iray": 5786,
      "irut": 5787,
      "amil": 5788,
      "ampp": 5789,
      "ĠPer": 5790,
      "ĠPen": 5791,
      "ĠPet": 5792,
      "ĠPay": 5793,
      "ĠPost": 5794,
      "ĠPlan": 5795,
      "ĠPeople": 5796,
      "ĠPaux": 5797,
      "ĠPMID": 5798,
      "ĠPlease": 5799,
      "atea": 5800,
      "ĠHu": 5801,
      "ĠHaving": 5802,
      "ĠHoms": 5803,
      "ĠHimal": 5804,
      "ĠHumph": 5805,
      "eville": 5806,
      "imos": 5807,
      "iments": 5808,
      "nder": 5809,
      "ems": 5810,
      "embling": 5811,
      "els": 5812,
      "eled": 5813,
      "eling": 5814,
      "ĠJan": 5815,
      "ĠJar": 5816,
      "ĠJul": 5817,
      "ĠJod": 5818,
      "ĠJaz": 5819,
      "ĠJob": 5820,
      "ĠJeff": 5821,
      "ĠJiray": 5822,
      "Ġstri": 5823,
      "Ġstay": 5824,
      "Ġstop": 5825,
      "Ġstage": 5826,
      "Ġstance": 5827,
      "Ġstory": 5828,
      "Ġstands": 5829,
      "Ġstories": 5830,
      "Ġstyle": 5831,
      "Ġstanding": 5832,
      "idar": 5833,
      "idoci": 5834,
      "idyl": 5835,
      "estig": 5836,
      "estrian": 5837,
      "igured": 5838,
      "igraum": 5839,
      "ths": 5840,
      "threonyl": 5841,
      "istically": 5842,
      "ĠDr": 5843,
      "ĠDun": 5844,
      "ĠDeb": 5845,
      "ĠDance": 5846,
      "ĠDown": 5847,
      "ĠDriv": 5848,
      "ĠDead": 5849,
      "ĠDiff": 5850,
      "ĠDedic": 5851,
      "ĠDrief": 5852,
      "ĠDaughtrey": 5853,
      "ĠDAAGI": 5854,
      "ĠDybows": 5855,
      "ĠDoric": 5856,
      "Ġthick": 5857,
      "Ġthough": 5858,
      "ĠGh": 5859,
      "ĠGet": 5860,
      "ĠGain": 5861,
      "ĠGail": 5862,
      "ĠGau": 5863,
      "ĠGets": 5864,
      "ĠGorg": 5865,
      "ĠGrove": 5866,
      "ĠGreen": 5867,
      "ĠGerald": 5868,
      "ĠGray": 5869,
      "ĠGuard": 5870,
      "ĠGyalu": 5871,
      "ĠGPS": 5872,
      "ĠGleaves": 5873,
      "ĠGriff": 5874,
      "ĠGadsp": 5875,
      "raz": 5876,
      "raight": 5877,
      "rayal": 5878,
      "ĠWil": 5879,
      "ĠWest": 5880,
      "ĠWeb": 5881,
      "ĠWell": 5882,
      "ĠWik": 5883,
      "ĠWake": 5884,
      "ĠWTV": 5885,
      "ĠWeather": 5886,
      "ĠWheat": 5887,
      "Ġgate": 5888,
      "Ġgall": 5889,
      "Ġgunn": 5890,
      "Ġgained": 5891,
      "Ġgeograph": 5892,
      "ĠStew": 5893,
      "ĠStack": 5894,
      "ĠStair": 5895,
      "ĠStone": 5896,
      "ĠStreet": 5897,
      "alla": 5898,
      "allenged": 5899,
      "ews": 5900,
      "unched": 5901,
      "1915": 5902,
      "1935": 5903,
      "1967": 5904,
      "1948": 5905,
      "1988": 5906,
      "1989": 5907,
      "1996": 5908,
      "Ġfort": 5909,
      "Ġforced": 5910,
      "Ġforcing": 5911,
      "ova": 5912,
      "over": 5913,
      "oving": 5914,
      "overies": 5915,
      "ĠOld": 5916,
      "ĠOrig": 5917,
      "ĠOper": 5918,
      "ĠOpin": 5919,
      "ĠOrange": 5920,
      "iaz": 5921,
      "ĠFly": 5922,
      "ĠFrom": 5923,
      "ĠFore": 5924,
      "ĠFacts": 5925,
      "ĠFinne": 5926,
      "ĠLy": 5927,
      "ĠLut": 5928,
      "ĠLater": 5929,
      "ĠLee": 5930,
      "ĠLang": 5931,
      "ĠLick": 5932,
      "ĠLED": 5933,
      "ĠLove": 5934,
      "ĠLatin": 5935,
      "ĠLloyd": 5936,
      "ĠLincol": 5937,
      "Ġarc": 5938,
      "Ġarose": 5939,
      "Ġarrest": 5940,
      "Ġarches": 5941,
      "Ġarched": 5942,
      "terred": 5943,
      "teryg": 5944,
      "ĠEigh": 5945,
      "ĠEEF": 5946,
      "ĠEcum": 5947,
      "ception": 5948,
      "Ġconver": 5949,
      "Ġconcent": 5950,
      "Ġconsec": 5951,
      "Ġconstant": 5952,
      "Ġconduct": 5953,
      "Ġconceived": 5954,
      "Ġconscription": 5955,
      "0000": 5956,
      "0020": 5957,
      "00894": 5958,
      "ayan": 5959,
      "ayton": 5960,
      "Ġey": 5961,
      "owcro": 5962,
      "Ġ1867": 5963,
      "Ġ1861": 5964,
      "Ġ1864": 5965,
      "Ġbeyond": 5966,
      "ote": 5967,
      "otive": 5968,
      "agin": 5969,
      "agon": 5970,
      "Ġvand": 5971,
      "Ġvac": 5972,
      "Ġvice": 5973,
      "Ġvict": 5974,
      "Ġvarian": 5975,
      "ĠTennesseeNational": 5976,
      "Ġassemb": 5977,
      "Ġasyl": 5978,
      "Ġasked": 5979,
      "ruiting": 5980,
      "umes": 5981,
      "Ġ327": 5982,
      "Ġ335": 5983,
      "Ġ322": 5984,
      "aine": 5985,
      "ainting": 5986,
      "rying": 5987,
      "illon": 5988,
      "illip": 5989,
      "aka": 5990,
      "akin": 5991,
      "akatang": 5992,
      "quess": 5993,
      "ecca": 5994,
      "uster": 5995,
      "ocal": 5996,
      "ocks": 5997,
      "ocracy": 5998,
      "used": 5999,
      "ffman": 6000,
      "Ġleads": 6001,
      "Ġleaving": 6002,
      "ectator": 6003,
      "ĠKen": 6004,
      "ĠKans": 6005,
      "ĠKhab": 6006,
      "ĠKilled": 6007,
      "ĠKerr": 6008,
      "ĠKirk": 6009,
      "ĠKanan": 6010,
      "Ġancient": 6011,
      "Ġanimos": 6012,
      "),[": 6013,
      "ialidoci": 6014,
      "ughes": 6015,
      "uglett": 6016,
      "ĠAround": 6017,
      "ĠArmen": 6018,
      "abic": 6019,
      "ability": 6020,
      "ulk": 6021,
      "ulsory": 6022,
      "Ġitself": 6023,
      "hton": 6024,
      "Ġrate": 6025,
      "Ġrough": 6026,
      "Ġrise": 6027,
      "Ġrally": 6028,
      "Ġroles": 6029,
      "Ġracist": 6030,
      "Ġchair": 6031,
      "Ġchallenged": 6032,
      "Ġ51": 6033,
      "Ġ52": 6034,
      "Ġ54": 6035,
      "Ġ57": 6036,
      "Ġ58": 6037,
      "Ġ524": 6038,
      "Ġ569": 6039,
      "ource": 6040,
      "ĠIraqMassacres": 6041,
      "Ġrepeated": 6042,
      "Ġrepainting": 6043,
      "ĠStateh": 6044,
      "asting": 6045,
      "astratiosphecom": 6046,
      "Ġplay": 6047,
      "Ġplain": 6048,
      "Ġplant": 6049,
      "Ġplayed": 6050,
      "Ġplumb": 6051,
      "Ġalleged": 6052,
      "ĠUrmia": 6053,
      "ĠUnder": 6054,
      "ĠInter": 6055,
      "ĠInspect": 6056,
      "losed": 6057,
      "ardeber": 6058,
      "artigraum": 6059,
      "Ġprod": 6060,
      "Ġprox": 6061,
      "Ġproceed": 6062,
      "Ġprobation": 6063,
      "Ġprogress": 6064,
      "Ġexile": 6065,
      "Ġexisting": 6066,
      "Ġexecut": 6067,
      "Ġexiled": 6068,
      "Ġexhaust": 6069,
      "ĠChron": 6070,
      "ĠChiles": 6071,
      "ĠChildren": 6072,
      "ĠChromosome": 6073,
      "107": 6074,
      "108": 6075,
      "109": 6076,
      "1017": 6077,
      "Ġcommon": 6078,
      "Ġcommenced": 6079,
      "ideo": 6080,
      "Ġhes": 6081,
      "Ġheat": 6082,
      "Ġhealth": 6083,
      "ngyll": 6084,
      "endar": 6085,
      "endly": 6086,
      "Ġoriginals": 6087,
      "uperc": 6088,
      "rity": 6089,
      "ogog": 6090,
      "Ġcapitols": 6091,
      "oso": 6092,
      "osyll": 6093,
      "Ġ40": 6094,
      "Ġ48": 6095,
      "Ġ414": 6096,
      "Ġ65": 6097,
      "Ġ67": 6098,
      "Ġ656": 6099,
      "Ġcontaining": 6100,
      "Ġcontracted": 6101,
      "180": 6102,
      "181": 6103,
      "183": 6104,
      "202": 6105,
      "2010": 6106,
      "2020": 6107,
      "2016": 6108,
      "ranean": 6109,
      "technical": 6110,
      "Ġadm": 6111,
      "Ġadding": 6112,
      "Ġadequ": 6113,
      "Ġadmiral": 6114,
      "ounce": 6115,
      "sions": 6116,
      "Ġ1985": 6117,
      "ĠUnborn": 6118,
      "ighton": 6119,
      "ightly": 6120,
      "Ġ71": 6121,
      "Ġ77": 6122,
      "Ġ78": 6123,
      "170": 6124,
      "174": 6125,
      "1788": 6126,
      "Ġnews": 6127,
      "122": 6128,
      "124": 6129,
      "pring": 6130,
      "Ġ99": 6131,
      "itional": 6132,
      "164": 6133,
      "169": 6134,
      "osts": 6135,
      "ubg": 6136,
      "actions": 6137,
      "Ġcompet": 6138,
      "Ġcompulsory": 6139,
      "Ġ1851": 6140,
      "Ġ103": 6141,
      "Ġ108": 6142,
      "affolding": 6143,
      "antly": 6144,
      "antage": 6145,
      "landers": 6146,
      "soil": 6147,
      "Ġyour": 6148,
      "Ġyard": 6149,
      "151": 6150,
      "154": 6151,
      "156": 6152,
      "oke": 6153,
      "oked": 6154,
      "oken": 6155,
      "oking": 6156,
      "Ġunif": 6157,
      "Ġunveil": 6158,
      "Ġunsan": 6159,
      "ueen": 6160,
      "Ġnoted": 6161,
      "Ġnotes": 6162,
      "Ġnotable": 6163,
      "ĠOnce": 6164,
      "131": 6165,
      "133": 6166,
      "134": 6167,
      "138": 6168,
      "139": 6169,
      "1375": 6170,
      "cles": 6171,
      "ignificant": 6172,
      "thern": 6173,
      "thers": 6174,
      "attack": 6175,
      "144": 6176,
      "146": 6177,
      "147": 6178,
      "Ġinstance": 6179,
      "Ġdeinstitution": 6180,
      "gans": 6181,
      "oho": 6182,
      "uringWorth": 6183,
      "pting": 6184,
      "ifting": 6185,
      "iferous": 6186,
      "ifying": 6187,
      "Ġresett": 6188,
      "Ġresearch": 6189,
      "Ġresembling": 6190,
      "orthian": 6191,
      "Ġ160": 6192,
      "Ġ161": 6193,
      "Ġ167": 6194,
      "Ġ169": 6195,
      "Ġremember": 6196,
      "ĠVaugh": 6197,
      "246": 6198,
      "247": 6199,
      "2427": 6200,
      "2462": 6201,
      "Ġspl": 6202,
      "Ġspan": 6203,
      "Ġspeak": 6204,
      "Ġspotted": 6205,
      "Ġspectator": 6206,
      "Ġattention": 6207,
      "Ġattracted": 6208,
      "Ġattitude": 6209,
      "111": 6210,
      "Ġagency": 6211,
      "Ġaggl": 6212,
      "Ġenthus": 6213,
      "Ġworkers": 6214,
      "Ġafterwards": 6215,
      "Ġafternoon": 6216,
      "ĠCommonwealth": 6217,
      "ĠCommittee": 6218,
      "Ġmassacred": 6219,
      "Ġ80": 6220,
      "Ġ81": 6221,
      "Ġ86": 6222,
      "ornkop": 6223,
      "Ġpartly": 6224,
      "ricken": 6225,
      "Ġclash": 6226,
      "Ġclaim": 6227,
      "Ġcluster": 6228,
      "Ġcompleting": 6229,
      "333": 6230,
      "udge": 6231,
      "udio": 6232,
      "udget": 6233,
      "Ġ154": 6234,
      "Ġ158": 6235,
      "2002": 6236,
      "2005": 6237,
      "ronn": 6238,
      "Ġrecently": 6239,
      "Ġrecovered": 6240,
      "Ġrecarpet": 6241,
      "Ġrecruiting": 6242,
      "260": 6243,
      "265": 6244,
      "268": 6245,
      "izes": 6246,
      "ierony": 6247,
      "Ġgovernors": 6248,
      "Ġcolors": 6249,
      "owned": 6250,
      "Statue": 6251,
      "ipment": 6252,
      "ĠAlbert": 6253,
      "ĠAladd": 6254,
      "ĠAlfred": 6255,
      "ĠAlbright": 6256,
      "299": 6257,
      "anned": 6258,
      "Ġdissu": 6259,
      "Ġdisapp": 6260,
      "Ġdisease": 6261,
      "Ġunders": 6262,
      "237": 6263,
      "238": 6264,
      "252": 6265,
      "254": 6266,
      "255": 6267,
      "259": 6268,
      "Ġshould": 6269,
      "ĠShia": 6270,
      "ĠShah": 6271,
      "ĠShortly": 6272,
      "Ġstairways": 6273,
      "enses": 6274,
      "ensis": 6275,
      "Ġoverlook": 6276,
      "Ġoversee": 6277,
      "Ġovercrow": 6278,
      "ĠAsh": 6279,
      "rovements": 6280,
      "ĠHealth": 6281,
      "Ġcommanding": 6282,
      "Ġcommanders": 6283,
      "ĠIts": 6284,
      "ĠEngland": 6285,
      "Ġ97815": 6286,
      "Ġgenerals": 6287,
      "Ġgenerally": 6288,
      "Ġlegislator": 6289,
      "ĠYeomanry": 6290,
      "ĠYouTub": 6291,
      "Ġ235": 6292,
      "Ġ236": 6293,
      "Ġ239": 6294,
      "Ġremoving": 6295,
      "7438": 6296,
      "redomin": 6297,
      "raction": 6298,
      "Ġsecretary": 6299,
      "ilities": 6300,
      "Ġ290": 6301,
      "Ġ296": 6302,
      "anga": 6303,
      "angular": 6304,
      "angreif": 6305,
      "Ġcavalrymen": 6306,
      "Ġreferred": 6307,
      "ulture": 6308,
      "iersman": 6309,
      "Ġportion": 6310,
      "Ġ240": 6311,
      "Ġ246": 6312,
      "Ġupgr": 6313,
      "ribes": 6314,
      "Ġreluct": 6315,
      "ĠFormul": 6316,
      "ĠZone": 6317,
      "ĠZeal": 6318,
      "ĠZoological": 6319,
      "ĠZorthian": 6320,
      "Ġthemsel": 6321,
      "Ġartisans": 6322,
      "ahrt": 6323,
      "auau": 6324,
      "ĠAnkawa": 6325,
      "ĠAnswer": 6326,
      "Ġmonosyll": 6327,
      "etts": 6328,
      "ĠLeo": 6329,
      "ĠLeaf": 6330,
      "ĠLeQu": 6331,
      "Ġoutbreak": 6332,
      "Ġoutnumber": 6333,
      "Ġprefixes": 6334,
      "Ġprevent": 6335,
      "Ġ1990": 6336,
      "Ġ1992": 6337,
      "Ġ1993": 6338,
      "Ġneed": 6339,
      "Ġvillagers": 6340,
      "273": 6341,
      "Ġ275": 6342,
      "ĠClim": 6343,
      "ĠClick": 6344,
      "ĠClara": 6345,
      "ĠClayton": 6346,
      "riving": 6347,
      "ĠBoard": 6348,
      "ĠOffices": 6349,
      "Ġadvan": 6350,
      "Ġadvantage": 6351,
      "cession": 6352,
      "short": 6353,
      "shaped": 6354,
      "ĠBrigades": 6355,
      "iddon": 6356,
      "Ġproved": 6357,
      "Ġprovides": 6358,
      "Ġproviding": 6359,
      "Ġexpensive": 6360,
      "Ġexpedition": 6361,
      "Ġexpressing": 6362,
      "Ġexpenses": 6363,
      "Ġsupply": 6364,
      "Ġsurrounds": 6365,
      "Ġfollowers": 6366,
      "ĠSherman": 6367,
      "Ġrequire": 6368,
      "Ġ1904": 6369,
      "Ġ1906": 6370,
      "Ġ1909": 6371,
      "Ġ1892": 6372,
      "Ġ1893": 6373,
      "Ġ1895": 6374,
      "Ġcareer": 6375,
      "Ġcarved": 6376,
      "Ġcarillon": 6377,
      "Ġ221": 6378,
      "Ġmainten": 6379,
      "ĠWhite": 6380,
      "ĠWhitt": 6381,
      "Ġdefined": 6382,
      "Ġdefending": 6383,
      "Ġenvel": 6384,
      "Ġenough": 6385,
      "Ġencomp": 6386,
      "Ġencl": 6387,
      "Ġencir": 6388,
      "Ġenclosed": 6389,
      "Ġ255": 6390,
      "ropol": 6391,
      "Ġlanding": 6392,
      "ĠGeorgian": 6393,
      "ledge": 6394,
      "Ġquick": 6395,
      "Ġqualified": 6396,
      "Ġsoldier": 6397,
      "Ġpole": 6398,
      "Ġ21165": 6399,
      "ething": 6400,
      "Ġnearly": 6401,
      "ĠPakistani": 6402,
      "Ġ1885": 6403,
      "Ġ1886": 6404,
      "Ġcontinuously": 6405,
      "Ġimprov": 6406,
      "Ġimposs": 6407,
      "xpialidoci": 6408,
      "Ġsymp": 6409,
      "Ġperceived": 6410,
      "Ġpersecution": 6411,
      "ĠAlliance": 6412,
      "Ġavalanches": 6413,
      "Ġhimself": 6414,
      "urkey": 6415,
      "ĠEastAssyrian": 6416,
      "Ġincludes": 6417,
      "ĠConflict": 6418,
      "Ġcaptain": 6419,
      "Ġcapturing": 6420,
      "eatured": 6421,
      "oyah": 6422,
      "raphs": 6423,
      "Ġscru": 6424,
      "Ġscale": 6425,
      "Ġscaffolding": 6426,
      "Ġmove": 6427,
      "Ġmovement": 6428,
      "ullock": 6429,
      "ĠChurchSyriac": 6430,
      "upreo": 6431,
      "gedy": 6432,
      "ylights": 6433,
      "Ġboiler": 6434,
      "Ġacross": 6435,
      "Ġaccept": 6436,
      "Ġaccomp": 6437,
      "Ġacanth": 6438,
      "ĠCollect": 6439,
      "ĠColony": 6440,
      "ĠColumb": 6441,
      "ĠColored": 6442,
      "ĠCollege": 6443,
      "Ġplanted": 6444,
      "Who": 6445,
      "While": 6446,
      "Ġterrain": 6447,
      "Ġinfantry": 6448,
      "Ġ263": 6449,
      "ĠAdolph": 6450,
      "ĠArabic": 6451,
      "Ġfoundation": 6452,
      "Ġmajority": 6453,
      "rave": 6454,
      "scape": 6455,
      "Ġraising": 6456,
      "Ġoldest": 6457,
      "Ġslaves": 6458,
      "Ġslightly": 6459,
      "Ġsoon": 6460,
      "Ġsoil": 6461,
      "ĠAbrah": 6462,
      "ĠAbbawi": 6463,
      "Ġmountains": 6464,
      "Ġmountainous": 6465,
      "ologic": 6466,
      "ologos": 6467,
      "Ġdetained": 6468,
      "Ġhallways": 6469,
      "ĠProblem": 6470,
      "thorpe": 6471,
      "ĠLegislature": 6472,
      "ĠLegislators": 6473,
      "ifically": 6474,
      "nex": 6475,
      "races": 6476,
      "ĠØª": 6477,
      "ĠØ´": 6478,
      "Ġwindow": 6479,
      "Ġcornice": 6480,
      "ĠAnderson": 6481,
      "Ġactive": 6482,
      "Ġactions": 6483,
      "Ġactivities": 6484,
      "ĠCarr": 6485,
      "ĠMallory": 6486,
      "ĠRegiment": 6487,
      "ĠPlace": 6488,
      "ĠEditor": 6489,
      "Ġviews": 6490,
      "ĠUniversal": 6491,
      "Ġtransp": 6492,
      "Ġwarfare": 6493,
      "Ġsentiment": 6494,
      "Ġpresident": 6495,
      "Ġblack": 6496,
      "Ġblamed": 6497,
      "Ġblocks": 6498,
      "Ġblasting": 6499,
      "ometime": 6500,
      "ĠCompletion": 6501,
      "ĠCompanion": 6502,
      "ĠCompleted": 6503,
      "ĠMcWherter": 6504,
      "ĠMcFar": 6505,
      "Ġdemon": 6506,
      "ĠLandon": 6507,
      "ĠLandscape": 6508,
      "Ġorganism": 6509,
      "Ġplacement": 6510,
      "Ġparticular": 6511,
      "Ġordering": 6512,
      "Ġestimating": 6513,
      "5898": 6514,
      "Although": 6515,
      "Shortly": 6516,
      "eams": 6517,
      "keit": 6518,
      "Ġwaterproof": 6519,
      "Ġsquir": 6520,
      "Ġpassage": 6521,
      "Ġinitiative": 6522,
      "Ġmayor": 6523,
      "ĠByrd": 6524,
      "Ġrevised": 6525,
      "ĠReconstruction": 6526,
      "Ġstones": 6527,
      "Ġstonem": 6528,
      "Ġarmory": 6529,
      "Ġrepresenting": 6530,
      "Ġextended": 6531,
      "Ġconsider": 6532,
      "Ġquarter": 6533,
      "Ġquarries": 6534,
      "Army": 6535,
      "Architect": 6536,
      "play": 6537,
      "pless": 6538,
      "aldun": 6539,
      "Ġcosts": 6540,
      "Ġpositions": 6541,
      "Ġoffer": 6542,
      "Ġoffered": 6543,
      "Ġbody": 6544,
      "Ġauthority": 6545,
      "ĠCampbell": 6546,
      "Ġminutes": 6547,
      "ĠMarcoing": 6548,
      "ĠMarquess": 6549,
      "ĠMaryland": 6550,
      "Ġdepth": 6551,
      "Ġdepiction": 6552,
      "Ġdeputy": 6553,
      "ĠHolmes": 6554,
      "Ġstratiosphecom": 6555,
      "Ġgenus": 6556,
      "Ġspecified": 6557,
      "Ġspecifically": 6558,
      "Ġtemporal": 6559,
      "59333": 6560,
      "Brownlow": 6561,
      "ĠQuin": 6562,
      "Ġtruce": 6563,
      "Ġtakes": 6564,
      "Ġtaking": 6565,
      "Ġtraditional": 6566,
      "onomy": 6567,
      "Ġcanal": 6568,
      "Ġcrossed": 6569,
      "Ġpersonally": 6570,
      "Ġindic": 6571,
      "Ġinvited": 6572,
      "Ġinvestig": 6573,
      "Ġfaced": 6574,
      "ĠMaking": 6575,
      "Ġlights": 6576,
      "ĠParastratiosphecom": 6577,
      "ĠDavidson": 6578,
      "Ġtransfor": 6579,
      "Ġappropriate": 6580,
      "Ġappropriation": 6581,
      "Massacre": 6582,
      "wlll": 6583,
      "Ġidentities": 6584,
      "Ġidentified": 6585,
      "alcalino": 6586,
      "Ġseeking": 6587,
      "Ġinterest": 6588,
      "Ġinterested": 6589,
      "Ġfrontiersman": 6590,
      "Ġmetric": 6591,
      "ĠMemorials": 6592,
      "Ġdirection": 6593,
      "ĠBelgium": 6594,
      "ĠBelvedere": 6595,
      "ĠBelfast": 6596,
      "ĠBelvid": 6597,
      "ĠBills": 6598,
      "ĠBaker": 6599,
      "Ġreinterred": 6600,
      "raging": 6601,
      "ragut": 6602,
      "ragilistice": 6603,
      "ĠExpeditions": 6604,
      "Ġeffect": 6605,
      "Ġeffective": 6606,
      "ependence": 6607,
      "Ġappeared": 6608,
      "Ġhistorians": 6609,
      "Ġsubsequent": 6610,
      "Anti": 6611,
      "Antidisestablishmentarianism": 6612,
      "Viewing": 6613,
      "tionary": 6614,
      "Ġelse": 6615,
      "Ġensuing": 6616,
      "Ġopened": 6617,
      "Ġcoast": 6618,
      "Ġcleaning": 6619,
      "Ġcapitals": 6620,
      "Ġsetback": 6621,
      "Ġpopular": 6622,
      "Ġposts": 6623,
      "ĠCreighton": 6624,
      "ĠCooperative": 6625,
      "Ġdelayed": 6626,
      "Ġdeliber": 6627,
      "Ġdowntown": 6628,
      "Ġlink": 6629,
      "ĠReview": 6630,
      "ĠPaardeber": 6631,
      "Ġgroundbreak": 6632,
      "berto": 6633,
      "ĠOthering": 6634,
      "Ġrestrooms": 6635,
      "Ġcontroversies": 6636,
      "Ġrecognize": 6637,
      "Ġallowing": 6638,
      "Ġshowed": 6639,
      "Ġconvicts": 6640,
      "boring": 6641,
      "gogo": 6642,
      "schaf": 6643,
      "schiff": 6644,
      "Ġcounterpart": 6645,
      "Ġskyscrapers": 6646,
      "Ġskylights": 6647,
      "Ġsettlement": 6648,
      "Ġsettled": 6649,
      "Ġsettlers": 6650,
      "Ġpushed": 6651,
      "Ġpressing": 6652,
      "ĠAfrican": 6653,
      "ĠShel": 6654,
      "ĠSheffield": 6655,
      "ĠSenior": 6656,
      "Ġdistrict": 6657,
      "Ġdistraction": 6658,
      "Ġdebris": 6659,
      "ĠBeá¹¯": 6660,
      "ĠHoffman": 6661,
      "ĠHighlanders": 6662,
      "Ġstream": 6663,
      "ceptible": 6664,
      "Ġequipment": 6665,
      "Ġvisit": 6666,
      "Ġvisited": 6667,
      "abethton": 6668,
      "Ġhelp": 6669,
      "Ġhelpless": 6670,
      "Ġpreparation": 6671,
      "Ġinfluence": 6672,
      "Ġnationalistic": 6673,
      "Ġtribesmen": 6674,
      "Ġindependent": 6675,
      "Ġhandrailings": 6676,
      "70000894": 6677,
      "Aftermath": 6678,
      "Exterior": 6679,
      "ihanga": 6680,
      "nowled": 6681,
      "Ġtask": 6682,
      "Ġsigned": 6683,
      "Ġsafe": 6684,
      "Ġprisoner": 6685,
      "ĠTreasure": 6686,
      "ĠSlaves": 6687,
      "ĠSevier": 6688,
      "ĠSeventh": 6689,
      "ĠBarrow": 6690,
      "ĠBeck": 6691,
      "Ġhouses": 6692,
      "ĠPortland": 6693,
      "ĠPublisher": 6694,
      "Ġstarting": 6695,
      "Ġformal": 6696,
      "ĠLouise": 6697,
      "ĠLlanfairpwll": 6698,
      "Ġconditioning": 6699,
      "Ġlegitim": 6700,
      "Ġcharacter": 6701,
      "Ġplastering": 6702,
      "Ġadjutant": 6703,
      "ĠContract": 6704,
      "ĠContinu": 6705,
      "ĠControvers": 6706,
      "Ġimmediate": 6707,
      "Ġclimbing": 6708,
      "ĠOfficer": 6709,
      "Ġsupporting": 6710,
      "Ġencourage": 6711,
      "Ġdecorations": 6712,
      "Artwork": 6713,
      "Ġminorities": 6714,
      "Ġdescribed": 6715,
      "Ġdescribes": 6716,
      "Ġdescribing": 6717,
      "Ġcirculated": 6718,
      "Ġsimilarly": 6719,
      "ĠAmendments": 6720,
      "Command": 6721,
      "Description": 6722,
      "colonel": 6723,
      "gwyngyll": 6724,
      "ieve": 6725,
      "ievement": 6726,
      "licts": 6727,
      "minate": 6728,
      "welche": 6729,
      "Ø§Ùħ": 6730,
      "Ø§ÙĨ": 6731,
      "Ġriding": 6732,
      "Ġrumors": 6733,
      "Ġrusted": 6734,
      "arshen": 6735,
      "Ġcovered": 6736,
      "Ġcelebrates": 6737,
      "Ġsprings": 6738,
      "Ġpilasters": 6739,
      "Ġflying": 6740,
      "Ġflown": 6741,
      "Ġtopsoil": 6742,
      "ĠSchol": 6743,
      "Ġmeant": 6744,
      "ĠMediter": 6745,
      "ĠMillet": 6746,
      "Ġdifferent": 6747,
      "Ġdifficult": 6748,
      "ĠBenjam": 6749,
      "ĠBusts": 6750,
      "Ġhoist": 6751,
      "ĠPhysical": 6752,
      "ĠPhillip": 6753,
      "Ġstrugg": 6754,
      "ĠWithout": 6755,
      "Ġgrade": 6756,
      "Ġgasoliers": 6757,
      "Ġguns": 6758,
      "ĠFourth": 6759,
      "ressional": 6760,
      "ĠVillages": 6761,
      "ĠVictorian": 6762,
      "Ġsucceed": 6763,
      "Ġdiscussed": 6764,
      "Ġdiscussing": 6765,
      "Ġrefurbished": 6766,
      "Ġrefurbishing": 6767,
      "Ġjoints": 6768,
      "Ġsurvivors": 6769,
      "Ġpoorly": 6770,
      "ĠCharleston": 6771,
      "Ġdeterioration": 6772,
      "Ġdeteriorating": 6773,
      "Ġpreservative": 6774,
      "ĠMcCl": 6775,
      "ĠFranklin": 6776,
      "Ġsupervise": 6777,
      "Ġsupervised": 6778,
      "ĠBernarde": 6779,
      "8944": 6780,
      "85052": 6781,
      "Forrest": 6782,
      "McC": 6783,
      "Monument": 6784,
      "Monuments": 6785,
      "Plaque": 6786,
      "burgh": 6787,
      "freesboro": 6788,
      "horo": 6789,
      "pinion": 6790,
      "voraltern": 6791,
      "ÙĥÙĬ": 6792,
      "Ü¡Ü¬": 6793,
      "Ġtitin": 6794,
      "Ġtitle": 6795,
      "Ġtravel": 6796,
      "Ġturned": 6797,
      "Ġcivilians": 6798,
      "Ġsenior": 6799,
      "Ġprior": 6800,
      "Ġprime": 6801,
      "Ġpunishing": 6802,
      "Ġpurchasing": 6803,
      "relief": 6804,
      "Ġinhabited": 6805,
      "Ġinhabitants": 6806,
      "Ġbarracks": 6807,
      "ĠAustralia": 6808,
      "ĠAustralian": 6809,
      "Ġfamily": 6810,
      "Ġfigure": 6811,
      "Ġfigures": 6812,
      "Ġfresh": 6813,
      "ĠTriumph": 6814,
      "ĠSea": 6815,
      "ĠSupported": 6816,
      "Ġmanoeuv": 6817,
      "Ġmarching": 6818,
      "ĠMinist": 6819,
      "ĠMassey": 6820,
      "ĠMasnier": 6821,
      "Ġholds": 6822,
      "Ġhighly": 6823,
      "Ġload": 6824,
      "Ġlotus": 6825,
      "ĠResearch": 6826,
      "ĠResource": 6827,
      "ĠRosary": 6828,
      "ĠRosie": 6829,
      "ammar": 6830,
      "Ġstrength": 6831,
      "thousanders": 6832,
      "ĠDonabed": 6833,
      "ĠGenocide": 6834,
      "ĠGrounded": 6835,
      "ĠWales": 6836,
      "Ġgreatest": 6837,
      "ĠEsther": 6838,
      "Ġwithdraw": 6839,
      "uminoso": 6840,
      "ĠKhaldun": 6841,
      "Ġaltered": 6842,
      "ĠInformation": 6843,
      "Ġexamine": 6844,
      "Ġexamined": 6845,
      "Ġexcavated": 6846,
      "Ġrocky": 6847,
      "Ġsuccessful": 6848,
      "Stafford": 6849,
      "ĠAskOxford": 6850,
      "Ġrelinquishing": 6851,
      "Ġneighb": 6852,
      "Ġneighboring": 6853,
      "Ġadvocate": 6854,
      "Ġrenewed": 6855,
      "Ġrenewal": 6856,
      "Ġsummary": 6857,
      "Ġdetailing": 6858,
      "ĠElizabeth": 6859,
      "ĠElizabethton": 6860,
      "Ġsquadrons": 6861,
      "Ġincorpor": 6862,
      "Ġincorrectly": 6863,
      "Ġincreasing": 6864,
      "ĠScottish": 6865,
      "Ġobserve": 6866,
      "Ġefforts": 6867,
      "Ġfloccinaucinihilipilification": 6868,
      "ĠPortraits": 6869,
      "ĠLouisville": 6870,
      "Ġemployment": 6871,
      "030683": 6872,
      "Basement": 6873,
      "Becke": 6874,
      "Nimsdai": 6875,
      "Persecution": 6876,
      "Photo": 6877,
      "Sirhind": 6878,
      "Summer": 6879,
      "Second": 6880,
      "burner": 6881,
      "koauau": 6882,
      "missi": 6883,
      "whakatang": 6884,
      "yioides": 6885,
      "zwischen": 6886,
      "Åŀawo": 6887,
      "á¸¥": 6888,
      "ĠÜķÜ£": 6889,
      "Ġemblem": 6890,
      "Ġutil": 6891,
      "Ġtrackers": 6892,
      "aneous": 6893,
      "onthologos": 6894,
      "alifragilistice": 6895,
      "itriolic": 6896,
      "Ġovern": 6897,
      "Ġceremony": 6898,
      "Ġsomething": 6899,
      "Ġsusceptible": 6900,
      "Ġsolicited": 6901,
      "Ġintegrity": 6902,
      "Ġbottom": 6903,
      "Ġbalconies": 6904,
      "Ġbriefly": 6905,
      "ĠAisthorpe": 6906,
      "Ġframes": 6907,
      "Ġfleeing": 6908,
      "Ġfriendly": 6909,
      "Ġfurnish": 6910,
      "ĠTravis": 6911,
      "Ġtopped": 6912,
      "ĠSummit": 6913,
      "ĠCherokee": 6914,
      "ĠCorner": 6915,
      "Ġmyself": 6916,
      "ĠMurfreesboro": 6917,
      "ĠMuslim": 6918,
      "Ġduress": 6919,
      "Ġdigraphs": 6920,
      "Ġderricks": 6921,
      "ĠIdent": 6922,
      "ĠBibcode": 6923,
      "ĠBriefing": 6924,
      "Ġhauled": 6925,
      "Ġhighest": 6926,
      "Ġhotel": 6927,
      "Ġhardwood": 6928,
      "Ġlayout": 6929,
      "chwyrn": 6930,
      "ĠRemod": 6931,
      "Ġnegoti": 6932,
      "ĠPoplar": 6933,
      "ĠHodgson": 6934,
      "ĠHakkari": 6935,
      "Ġsteps": 6936,
      "ĠDiaries": 6937,
      "ĠDoornkop": 6938,
      "ĠDuhok": 6939,
      "ĠDespite": 6940,
      "ĠDiscoveries": 6941,
      "Ġthreatened": 6942,
      "ĠWolfe": 6943,
      "ĠWelsh": 6944,
      "Ġgradually": 6945,
      "ĠFarragut": 6946,
      "ĠLawmakers": 6947,
      "Ġarbitrarily": 6948,
      "Ġbegun": 6949,
      "Ġbeginning": 6950,
      "Ġvaults": 6951,
      "Ġissues": 6952,
      "ĠKelly": 6953,
      "ĠUpon": 6954,
      "ĠChaldean": 6955,
      "Ġcommunications": 6956,
      "1672427": 6957,
      "Ġunfinished": 6958,
      "Ġunusually": 6959,
      "Ġapproved": 6960,
      "Ġappointment": 6961,
      "Ġattributed": 6962,
      "Ġdispute": 6963,
      "Ġseverely": 6964,
      "Ġreforms": 6965,
      "Ġsymbol": 6966,
      "Ġacquiring": 6967,
      "Ġterritorial": 6968,
      "Ġsubstantive": 6969,
      "Ġmountaineering": 6970,
      "ĠProtesters": 6971,
      "ĠIsmael": 6972,
      "Ġstonecutters": 6973,
      "Ġproposal": 6974,
      "Ġreinforcements": 6975,
      "Ġcooling": 6976,
      "Ġdelivered": 6977,
      "Ġsculptures": 6978,
      "Ġgrassy": 6979,
      "Ġerecting": 6980,
      "Ġesplanade": 6981,
      "Ġfabricate": 6982,
      "Ġfossiliferous": 6983,
      "ĠKarakoram": 6984,
      "hemidemisemihemidemisemi": 6985,
      "03575": 6986,
      "Aequeo": 6987,
      "Bibliography": 6988,
      "Beginning": 6989,
      "Cambrai": 6990,
      "Clashes": 6991,
      "Davis": 6992,
      "Divisional": 6993,
      "Entrance": 6994,
      "Flowers": 6995,
      "Flags": 6996,
      "Faucon": 6997,
      "Gigabase": 6998,
      "Jeloo": 6999,
      "Learn": 7000,
      "Minutes": 7001,
      "Music": 7002,
      "Official": 7003,
      "Reactions": 7004,
      "Return": 7005,
      "Responsibility": 7006,
      "Sesqu": 7007,
      "avily": 7008,
      "going": 7009,
      "hinzwischen": 7010,
      "iastic": 7011,
      "lanty": 7012,
      "metric": 7013,
      "nuku": 7014,
      "pects": 7015,
      "pokai": 7016,
      "pukaka": 7017,
      "silio": 7018,
      "seryl": 7019,
      "tamatea": 7020,
      "tahu": 7021,
      "uermann": 7022,
      "whenua": 7023,
      "¦Üª": 7024,
      "Ġromanized": 7025,
      "Ġessentially": 7026,
      "Ġultimately": 7027,
      "Ġtype": 7028,
      "Ġtestimonial": 7029,
      "eraceo": 7030,
      "onhotonthologos": 7031,
      "oraston": 7032,
      "atoglyph": 7033,
      "alberstam": 7034,
      "Ġwrote": 7035,
      "Ġweighs": 7036,
      "Ġoolitic": 7037,
      "Ġoxforddictionaries": 7038,
      "Ġcoup": 7039,
      "Ġcigarette": 7040,
      "Ġcabinet": 7041,
      "Ġcubic": 7042,
      "Ġceased": 7043,
      "Ġcurtains": 7044,
      "Ġsouthern": 7045,
      "Ġsustained": 7046,
      "Ġsocial": 7047,
      "Ġpowers": 7048,
      "Ġpierced": 7049,
      "Ġpipes": 7050,
      "Ġpsychological": 7051,
      "Ġpedestal": 7052,
      "Ġinternational": 7053,
      "Ġincomplete": 7054,
      "Ġborder": 7055,
      "Ġbayon": 7056,
      "Ġbattles": 7057,
      "Ġbidders": 7058,
      "Ġburial": 7059,
      "Ġbringing": 7060,
      "Ġbrevet": 7061,
      "ĠAwarded": 7062,
      "Ġfuneral": 7063,
      "Ġfeasibility": 7064,
      "Ġfloodlights": 7065,
      "ĠfaÃ§ade": 7066,
      "Ġfrequently": 7067,
      "ĠTigris": 7068,
      "ĠTragedy": 7069,
      "ĠTohalla": 7070,
      "ĠTradition": 7071,
      "ĠTaumata": 7072,
      "lewellyn": 7073,
      "Ġachievement": 7074,
      "Ġacknowled": 7075,
      "Ġamplif": 7076,
      "Ġautonomy": 7077,
      "icopters": 7078,
      "Ġtogether": 7079,
      "ĠSurvey": 7080,
      "ĠSoldier": 7081,
      "ĠSargon": 7082,
      "ĠSequoyah": 7083,
      "ĠCongressional": 7084,
      "Ġmosa": 7085,
      "Ġmoney": 7086,
      "Ġmaterial": 7087,
      "Ġmessage": 7088,
      "Ġmolecules": 7089,
      "Ġmoldings": 7090,
      "ĠMeasuringWorth": 7091,
      "ĠMÄģori": 7092,
      "stagram": 7093,
      "sternartigraum": 7094,
      "Ġdiameter": 7095,
      "Ġdocumented": 7096,
      "ĠNicholas": 7097,
      "ĠNikki": 7098,
      "ĠNineveh": 7099,
      "ĠIssues": 7100,
      "ĠBodies": 7101,
      "ĠBaird": 7102,
      "ĠBagnoli": 7103,
      "Ġrectangular": 7104,
      "Ġlounge": 7105,
      "ĠRebecca": 7106,
      "ĠReady": 7107,
      "ĠRitchie": 7108,
      "Ġnaked": 7109,
      "Ġnecess": 7110,
      "ampposts": 7111,
      "ĠHimalayan": 7112,
      "ĠHumphris": 7113,
      "ĠJodh": 7114,
      "ĠJefferson": 7115,
      "ĠJirayr": 7116,
      "ĠDedicated": 7117,
      "ĠDriefontein": 7118,
      "ĠDybowski": 7119,
      "ĠGauche": 7120,
      "ĠGorgias": 7121,
      "ĠGriffin": 7122,
      "ĠGadsprec": 7123,
      "ĠWells": 7124,
      "ĠWTVF": 7125,
      "Ġgalleries": 7126,
      "Ġgunners": 7127,
      "ĠStewart": 7128,
      "ĠOrigins": 7129,
      "ĠOperations": 7130,
      "ĠOpinions": 7131,
      "ĠForeign": 7132,
      "ĠFinnegans": 7133,
      "ĠLuther": 7134,
      "ĠLincolnshire": 7135,
      "terygon": 7136,
      "ĠEighth": 7137,
      "ĠEcumenical": 7138,
      "Ġconducted": 7139,
      "00207438": 7140,
      "owcroft": 7141,
      "Ġvariant": 7142,
      "Ġasylum": 7143,
      "ĠKansas": 7144,
      "ĠKhabur": 7145,
      "Ġanimosity": 7146,
      "ĠArmenian": 7147,
      "Ġchairman": 7148,
      "Ġplumbing": 7149,
      "ĠInspector": 7150,
      "Ġproceedings": 7151,
      "Ġprobationary": 7152,
      "Ġexhausted": 7153,
      "ĠChrononhotonthologos": 7154,
      "upercalifragilistice": 7155,
      "Ġadequate": 7156,
      "Ġuniform": 7157,
      "Ġunsanitary": 7158,
      "Ġdeinstitutional": 7159,
      "ĠVaughn": 7160,
      "Ġagglutinative": 7161,
      "Ġenthusiastic": 7162,
      "Ġclaimed": 7163,
      "Ġrecarpeted": 7164,
      "ieronymus": 7165,
      "ĠAladdin": 7166,
      "Ġdissuade": 7167,
      "Ġovercrowding": 7168,
      "ĠYouTube": 7169,
      "redominantly": 7170,
      "angreifen": 7171,
      "Ġupgrade": 7172,
      "Ġreluctance": 7173,
      "ĠZealand": 7174,
      "Ġthemselves": 7175,
      "Ġmonosyllabic": 7176,
      "ĠLeQuire": 7177,
      "Ġmaintenance": 7178,
      "ĠWhittington": 7179,
      "Ġencompass": 7180,
      "Ġquickly": 7181,
      "Ġ211652462": 7182,
      "Ġimpossible": 7183,
      "xpialidocious": 7184,
      "Ġaccompanied": 7185,
      "Ġacanthus": 7186,
      "ĠColumbia": 7187,
      "ĠAbraham": 7188,
      "Ġstratiosphecomyioides": 7189,
      "ĠParastratiosphecomyia": 7190,
      "ĠBelvidere": 7191,
      "Ġsetbacks": 7192,
      "Ġdeliberately": 7193,
      "ĠPaardeberg": 7194,
      "Ġgroundbreaking": 7195,
      "ĠPublishers": 7196,
      "ĠMediterranean": 7197,
      "ĠBenjamen": 7198,
      "Ġsucceeding": 7199,
      "ĠMasnieres": 7200,
      "03068374": 7201,
      "whakatangihanga": 7202,
      "Åŀawoce": 7203,
      "Ġnegotiations": 7204,
      "00207438000": 7205,
      "upercalifragilisticexpialidocious": 7206
    },
    "merges": [
      [
        "Ġ",
        "t"
      ],
      [
        "h",
        "e"
      ],
      [
        "i",
        "n"
      ],
      [
        "a",
        "n"
      ],
      [
        "e",
        "r"
      ],
      [
        "o",
        "n"
      ],
      [
        "Ġt",
        "he"
      ],
      [
        "e",
        "d"
      ],
      [
        "č",
        "Ċ"
      ],
      [
        "o",
        "r"
      ],
      [
        "a",
        "t"
      ],
      [
        "e",
        "n"
      ],
      [
        "e",
        "s"
      ],
      [
        "a",
        "r"
      ],
      [
        "a",
        "l"
      ],
      [
        "i",
        "s"
      ],
      [
        "Ġ",
        "w"
      ],
      [
        "i",
        "t"
      ],
      [
        "Ġ",
        "o"
      ],
      [
        "a",
        "s"
      ],
      [
        "Ġ",
        "c"
      ],
      [
        "an",
        "d"
      ],
      [
        "Ġ",
        "s"
      ],
      [
        "Ġ",
        "p"
      ],
      [
        "r",
        "e"
      ],
      [
        "Ġo",
        "f"
      ],
      [
        "Ġ",
        "1"
      ],
      [
        "i",
        "l"
      ],
      [
        "Ġ",
        "in"
      ],
      [
        "in",
        "g"
      ],
      [
        "Ġ",
        "2"
      ],
      [
        "Ġ",
        "b"
      ],
      [
        "Ġ",
        "A"
      ],
      [
        "Ġ",
        "f"
      ],
      [
        "Ġ",
        "and"
      ],
      [
        "Ġ",
        "T"
      ],
      [
        "l",
        "e"
      ],
      [
        "Ġ",
        "a"
      ],
      [
        "i",
        "c"
      ],
      [
        "o",
        "m"
      ],
      [
        "i",
        "on"
      ],
      [
        "o",
        "u"
      ],
      [
        "Ġt",
        "o"
      ],
      [
        "Ġ",
        "S"
      ],
      [
        "Ġ",
        "C"
      ],
      [
        "r",
        "i"
      ],
      [
        "Ġ",
        "m"
      ],
      [
        "Ġ",
        "M"
      ],
      [
        "Ġ2",
        "0"
      ],
      [
        "o",
        "l"
      ],
      [
        "a",
        "c"
      ],
      [
        "en",
        "t"
      ],
      [
        "e",
        "t"
      ],
      [
        "s",
        "t"
      ],
      [
        "Ġ",
        "d"
      ],
      [
        ".",
        "["
      ],
      [
        "s",
        "e"
      ],
      [
        "Ġ",
        "("
      ],
      [
        "Ġ",
        "N"
      ],
      [
        "a",
        "p"
      ],
      [
        "Ġ",
        "I"
      ],
      [
        "Ġ",
        "B"
      ],
      [
        "Ġ",
        "h"
      ],
      [
        "Ġ",
        "re"
      ],
      [
        "Ġ1",
        "9"
      ],
      [
        "Ġ",
        "on"
      ],
      [
        "r",
        "o"
      ],
      [
        "Ġ",
        "l"
      ],
      [
        "i",
        "v"
      ],
      [
        "u",
        "r"
      ],
      [
        "l",
        "y"
      ],
      [
        "er",
        "s"
      ],
      [
        "Ġ20",
        "2"
      ],
      [
        "c",
        "h"
      ],
      [
        "Ġ",
        "R"
      ],
      [
        "ĠT",
        "he"
      ],
      [
        "a",
        "d"
      ],
      [
        "Ġ",
        "n"
      ],
      [
        "i",
        "r"
      ],
      [
        "a",
        "m"
      ],
      [
        "Ġ",
        "P"
      ],
      [
        "Ġw",
        "as"
      ],
      [
        "at",
        "e"
      ],
      [
        "Ġ",
        "H"
      ],
      [
        "e",
        "v"
      ],
      [
        "i",
        "m"
      ],
      [
        "c",
        "t"
      ],
      [
        "n",
        "d"
      ],
      [
        "e",
        "m"
      ],
      [
        "e",
        "l"
      ],
      [
        "Ġ",
        "J"
      ],
      [
        "Ġs",
        "t"
      ],
      [
        "i",
        "d"
      ],
      [
        "es",
        "t"
      ],
      [
        "i",
        "g"
      ],
      [
        "Ġ",
        "\""
      ],
      [
        "t",
        "h"
      ],
      [
        "is",
        "t"
      ],
      [
        "Ġ",
        "D"
      ],
      [
        "Ġt",
        "h"
      ],
      [
        "at",
        "ion"
      ],
      [
        "Ġ",
        "G"
      ],
      [
        "r",
        "a"
      ],
      [
        "n",
        "es"
      ],
      [
        "Ġ",
        "W"
      ],
      [
        "â",
        "Ģ"
      ],
      [
        "Ġ",
        "g"
      ],
      [
        "ĠS",
        "t"
      ],
      [
        "al",
        "l"
      ],
      [
        "e",
        "w"
      ],
      [
        "\"",
        "."
      ],
      [
        "b",
        "er"
      ],
      [
        "ar",
        "y"
      ],
      [
        "ap",
        "it"
      ],
      [
        "u",
        "n"
      ],
      [
        "1",
        "9"
      ],
      [
        "en",
        "nes"
      ],
      [
        "ennes",
        "se"
      ],
      [
        "Ġf",
        "or"
      ],
      [
        "apit",
        "ol"
      ],
      [
        "o",
        "v"
      ],
      [
        "]",
        "["
      ],
      [
        "Ġ",
        "O"
      ],
      [
        "i",
        "a"
      ],
      [
        "v",
        "il"
      ],
      [
        "Ġ",
        "F"
      ],
      [
        "Ġ",
        "L"
      ],
      [
        "Ġb",
        "y"
      ],
      [
        "or",
        "d"
      ],
      [
        "ev",
        "ed"
      ],
      [
        "Ġ",
        "ar"
      ],
      [
        "t",
        "er"
      ],
      [
        "Ġ",
        "E"
      ],
      [
        ")",
        "."
      ],
      [
        "c",
        "e"
      ],
      [
        "Ġc",
        "on"
      ],
      [
        "s",
        "s"
      ],
      [
        "et",
        "ri"
      ],
      [
        "ĠR",
        "etri"
      ],
      [
        "ĠRetri",
        "eved"
      ],
      [
        "âĢ",
        "ĵ"
      ],
      [
        "0",
        "0"
      ],
      [
        "ĠT",
        "ennesse"
      ],
      [
        "r",
        "es"
      ],
      [
        "a",
        "y"
      ],
      [
        "Ġ",
        "e"
      ],
      [
        "Ġ202",
        "6"
      ],
      [
        "o",
        "w"
      ],
      [
        "Ġ1",
        "8"
      ],
      [
        "'",
        "s"
      ],
      [
        "it",
        "h"
      ],
      [
        "Ġb",
        "e"
      ],
      [
        "er",
        "e"
      ],
      [
        "vil",
        "le"
      ],
      [
        "Â",
        "Ń"
      ],
      [
        "as",
        "h"
      ],
      [
        "Ġw",
        "ith"
      ],
      [
        "r",
        "om"
      ],
      [
        "a",
        "v"
      ],
      [
        "o",
        "t"
      ],
      [
        "a",
        "g"
      ],
      [
        "u",
        "t"
      ],
      [
        "Ġw",
        "ere"
      ],
      [
        "Ġ",
        "v"
      ],
      [
        "Ġ",
        "at"
      ],
      [
        "ĠTennesse",
        "e"
      ],
      [
        "ash",
        "ville"
      ],
      [
        "y",
        "ri"
      ],
      [
        "Ġ",
        "as"
      ],
      [
        "r",
        "u"
      ],
      [
        "ĠN",
        "ashville"
      ],
      [
        "ou",
        "nd"
      ],
      [
        "u",
        "m"
      ],
      [
        "Ġ",
        "3"
      ],
      [
        "Ġ",
        "is"
      ],
      [
        "a",
        "in"
      ],
      [
        "r",
        "y"
      ],
      [
        "om",
        "m"
      ],
      [
        "ar",
        "ch"
      ],
      [
        "t",
        "ed"
      ],
      [
        "is",
        "h"
      ],
      [
        "il",
        "l"
      ],
      [
        "a",
        "k"
      ],
      [
        "q",
        "u"
      ],
      [
        "yri",
        "an"
      ],
      [
        "ĠA",
        "ss"
      ],
      [
        "e",
        "c"
      ],
      [
        "Ġw",
        "h"
      ],
      [
        "d",
        "ing"
      ],
      [
        "u",
        "st"
      ],
      [
        "o",
        "c"
      ],
      [
        "Ġf",
        "rom"
      ],
      [
        "on",
        "g"
      ],
      [
        "ĠC",
        "apitol"
      ],
      [
        "o",
        "p"
      ],
      [
        "u",
        "s"
      ],
      [
        "f",
        "f"
      ],
      [
        "Ġ",
        "le"
      ],
      [
        "Ġ",
        "or"
      ],
      [
        "e",
        "ct"
      ],
      [
        "p",
        "p"
      ],
      [
        "Ġ",
        "K"
      ],
      [
        "u",
        "il"
      ],
      [
        "he",
        "r"
      ],
      [
        "ĠAss",
        "yrian"
      ],
      [
        "Ġ",
        "an"
      ],
      [
        "c",
        "om"
      ],
      [
        "at",
        "ed"
      ],
      [
        "re",
        "w"
      ],
      [
        ")",
        ","
      ],
      [
        "i",
        "al"
      ],
      [
        "u",
        "g"
      ],
      [
        "ĠA",
        "r"
      ],
      [
        "a",
        "b"
      ],
      [
        "u",
        "l"
      ],
      [
        "Ġ",
        "it"
      ],
      [
        "em",
        "ber"
      ],
      [
        "ĠN",
        "ew"
      ],
      [
        "er",
        "n"
      ],
      [
        "o",
        "d"
      ],
      [
        "h",
        "t"
      ],
      [
        "ra",
        "q"
      ],
      [
        "s",
        "p"
      ],
      [
        "er",
        "al"
      ],
      [
        "ĠM",
        "arch"
      ],
      [
        "Ġth",
        "at"
      ],
      [
        "Ġ",
        "r"
      ],
      [
        "Ġ",
        "âĢĵ"
      ],
      [
        "T",
        "he"
      ],
      [
        "or",
        "t"
      ],
      [
        "i",
        "an"
      ],
      [
        "Ġc",
        "h"
      ],
      [
        "Ġ",
        "5"
      ],
      [
        "ou",
        "r"
      ],
      [
        "ĠI",
        "raq"
      ],
      [
        "Ġre",
        "p"
      ],
      [
        "ĠSt",
        "ate"
      ],
      [
        "uil",
        "ding"
      ],
      [
        "as",
        "t"
      ],
      [
        "Ġp",
        "l"
      ],
      [
        "and",
        "rew"
      ],
      [
        "ac",
        "andrew"
      ],
      [
        "Ġ",
        "al"
      ],
      [
        "Ġ",
        "U"
      ],
      [
        "i",
        "es"
      ],
      [
        "in",
        "al"
      ],
      [
        "e",
        "p"
      ],
      [
        "ĠI",
        "n"
      ],
      [
        "l",
        "o"
      ],
      [
        "m",
        "ent"
      ],
      [
        "ar",
        "d"
      ],
      [
        "ar",
        "t"
      ],
      [
        "Ġp",
        "ro"
      ],
      [
        "ac",
        "k"
      ],
      [
        "Ġv",
        "ia"
      ],
      [
        "Ġe",
        "x"
      ],
      [
        "as",
        "s"
      ],
      [
        "ic",
        "h"
      ],
      [
        "u",
        "re"
      ],
      [
        "e",
        "ar"
      ],
      [
        "u",
        "ly"
      ],
      [
        "ĠC",
        "h"
      ],
      [
        "ap",
        "ers"
      ],
      [
        "1",
        "0"
      ],
      [
        "Ġ",
        "ro"
      ],
      [
        "Ġc",
        "omm"
      ],
      [
        "id",
        "e"
      ],
      [
        "Ġor",
        "ig"
      ],
      [
        "Ġ",
        "he"
      ],
      [
        "Ġb",
        "uilding"
      ],
      [
        "ug",
        "ust"
      ],
      [
        "n",
        "g"
      ],
      [
        "en",
        "d"
      ],
      [
        "sp",
        "apers"
      ],
      [
        "Ġorig",
        "inal"
      ],
      [
        "r",
        "ound"
      ],
      [
        "or",
        "k"
      ],
      [
        "Ġh",
        "is"
      ],
      [
        "u",
        "p"
      ],
      [
        "r",
        "it"
      ],
      [
        "iv",
        "e"
      ],
      [
        "ĠA",
        "ugust"
      ],
      [
        "ĠM",
        "acandrew"
      ],
      [
        "ĠNew",
        "spapers"
      ],
      [
        "Ġ",
        "$"
      ],
      [
        "e",
        "b"
      ],
      [
        "f",
        "ic"
      ],
      [
        "o",
        "g"
      ],
      [
        "Ġc",
        "apitol"
      ],
      [
        "Ġp",
        "p"
      ],
      [
        "o",
        "s"
      ],
      [
        "Ġ",
        "4"
      ],
      [
        "Ġ",
        "6"
      ],
      [
        "Ġcon",
        "t"
      ],
      [
        "k",
        "i"
      ],
      [
        "1",
        "8"
      ],
      [
        "ĠJ",
        "uly"
      ],
      [
        "2",
        "0"
      ],
      [
        "r",
        "an"
      ],
      [
        "t",
        "e"
      ],
      [
        "al",
        "ry"
      ],
      [
        "av",
        "alry"
      ],
      [
        "r",
        "ic"
      ],
      [
        "in",
        "e"
      ],
      [
        "on",
        "d"
      ],
      [
        "is",
        "ion"
      ],
      [
        "om",
        "p"
      ],
      [
        "ou",
        "s"
      ],
      [
        "ist",
        "or"
      ],
      [
        "ru",
        "ct"
      ],
      [
        "a",
        "ir"
      ],
      [
        "l",
        "d"
      ],
      [
        "en",
        "eral"
      ],
      [
        "Ġa",
        "d"
      ],
      [
        "Ġwh",
        "ich"
      ],
      [
        "Ġw",
        "ord"
      ],
      [
        "ou",
        "n"
      ],
      [
        "iv",
        "ision"
      ],
      [
        "s",
        "ion"
      ],
      [
        "Ġ19",
        "8"
      ],
      [
        "t",
        "t"
      ],
      [
        "ĠT",
        "h"
      ],
      [
        "ou",
        "g"
      ],
      [
        "Ġst",
        "ate"
      ],
      [
        "ĠU",
        "n"
      ],
      [
        "ig",
        "ht"
      ],
      [
        "Ġth",
        "is"
      ],
      [
        "ov",
        "ern"
      ],
      [
        "ĠAr",
        "ch"
      ],
      [
        "Ġ",
        "7"
      ],
      [
        "or",
        "e"
      ],
      [
        "iv",
        "ed"
      ],
      [
        "1",
        "7"
      ],
      [
        "c",
        "he"
      ],
      [
        "er",
        "v"
      ],
      [
        "Ġof",
        "fic"
      ],
      [
        "Ġh",
        "ad"
      ],
      [
        "Ġn",
        "ew"
      ],
      [
        "un",
        "e"
      ],
      [
        "1",
        "2"
      ],
      [
        "g",
        "e"
      ],
      [
        "Ġl",
        "ong"
      ],
      [
        "l",
        "at"
      ],
      [
        "p",
        "r"
      ],
      [
        "Ġ",
        "9"
      ],
      [
        "it",
        "ion"
      ],
      [
        "res",
        "s"
      ],
      [
        "ng",
        "l"
      ],
      [
        "v",
        "er"
      ],
      [
        "it",
        "y"
      ],
      [
        "ic",
        "al"
      ],
      [
        "rit",
        "ish"
      ],
      [
        "1",
        "6"
      ],
      [
        "el",
        "l"
      ],
      [
        "Ġar",
        "e"
      ],
      [
        "o",
        "st"
      ],
      [
        "u",
        "b"
      ],
      [
        "ac",
        "t"
      ],
      [
        "ĠI",
        "nd"
      ],
      [
        "ation",
        "al"
      ],
      [
        "an",
        "u"
      ],
      [
        "Ġc",
        "omp"
      ],
      [
        "am",
        "e"
      ],
      [
        "Ġ18",
        "5"
      ],
      [
        "Ġ1",
        "0"
      ],
      [
        "ag",
        "e"
      ],
      [
        "f",
        "ter"
      ],
      [
        "er",
        "ed"
      ],
      [
        "ass",
        "ac"
      ],
      [
        "round",
        "s"
      ],
      [
        "anu",
        "ary"
      ],
      [
        "a",
        "ff"
      ],
      [
        "l",
        "l"
      ],
      [
        "an",
        "t"
      ],
      [
        "on",
        "e"
      ],
      [
        "Ġ20",
        "0"
      ],
      [
        "ir",
        "st"
      ],
      [
        "l",
        "and"
      ],
      [
        "s",
        "o"
      ],
      [
        "Ġ",
        "y"
      ],
      [
        "en",
        "c"
      ],
      [
        "1",
        "5"
      ],
      [
        "a",
        "z"
      ],
      [
        "o",
        "k"
      ],
      [
        "s",
        "on"
      ],
      [
        "Ġ",
        "un"
      ],
      [
        "at",
        "er"
      ],
      [
        "ic",
        "e"
      ],
      [
        "ent",
        "s"
      ],
      [
        "ad",
        "e"
      ],
      [
        "e",
        "y"
      ],
      [
        "u",
        "e"
      ],
      [
        "u",
        "nd"
      ],
      [
        "in",
        "t"
      ],
      [
        "Ġn",
        "ot"
      ],
      [
        "ĠO",
        "n"
      ],
      [
        "ĠAssyrian",
        "s"
      ],
      [
        "pr",
        "il"
      ],
      [
        "1",
        "3"
      ],
      [
        "c",
        "l"
      ],
      [
        "l",
        "ow"
      ],
      [
        "im",
        "e"
      ],
      [
        "ig",
        "n"
      ],
      [
        "m",
        "y"
      ],
      [
        "o",
        "ber"
      ],
      [
        "t",
        "her"
      ],
      [
        "at",
        "t"
      ],
      [
        "ar",
        "k"
      ],
      [
        "is",
        "sion"
      ],
      [
        "ic",
        "t"
      ],
      [
        "ĠB",
        "ritish"
      ],
      [
        "lo",
        "or"
      ],
      [
        "1",
        "4"
      ],
      [
        "i",
        "b"
      ],
      [
        "it",
        "ed"
      ],
      [
        "re",
        "e"
      ],
      [
        "Ġin",
        "st"
      ],
      [
        "Ġd",
        "e"
      ],
      [
        "g",
        "an"
      ],
      [
        "m",
        "er"
      ],
      [
        "o",
        "h"
      ],
      [
        "ed",
        "ia"
      ],
      [
        "ur",
        "ing"
      ],
      [
        "7",
        "8"
      ],
      [
        "p",
        "t"
      ],
      [
        "ac",
        "e"
      ],
      [
        "st",
        "ruct"
      ],
      [
        "am",
        "p"
      ],
      [
        "all",
        "s"
      ],
      [
        "ru",
        "ary"
      ],
      [
        "eb",
        "ruary"
      ],
      [
        "ĠArch",
        "ived"
      ],
      [
        "i",
        "f"
      ],
      [
        "Ġ",
        "res"
      ],
      [
        "er",
        "m"
      ],
      [
        "or",
        "th"
      ],
      [
        "Ġ1",
        "6"
      ],
      [
        "Ġa",
        "pp"
      ],
      [
        "ou",
        "t"
      ],
      [
        "ri",
        "g"
      ],
      [
        "ĠI",
        "S"
      ],
      [
        "Ġre",
        "m"
      ],
      [
        "ĠJ",
        "anuary"
      ],
      [
        "Ġg",
        "rounds"
      ],
      [
        "Ġit",
        "s"
      ],
      [
        "g",
        "is"
      ],
      [
        "Ġ",
        "V"
      ],
      [
        "at",
        "h"
      ],
      [
        "ĠIraq",
        "i"
      ],
      [
        "Ġal",
        "so"
      ],
      [
        "2",
        "4"
      ],
      [
        "i",
        "or"
      ],
      [
        "or",
        "s"
      ],
      [
        "at",
        "es"
      ],
      [
        "Ġs",
        "p"
      ],
      [
        "ĠC",
        "avalry"
      ],
      [
        "Ġat",
        "t"
      ],
      [
        "ĠTh",
        "is"
      ],
      [
        "gis",
        "lat"
      ],
      [
        "1",
        "1"
      ],
      [
        "c",
        "c"
      ],
      [
        "r",
        "oug"
      ],
      [
        "ĠA",
        "pril"
      ],
      [
        "Ġa",
        "g"
      ],
      [
        "Ġ19",
        "5"
      ],
      [
        "Ġ202",
        "4"
      ],
      [
        "all",
        "ed"
      ],
      [
        "00",
        "0"
      ],
      [
        "l",
        "ag"
      ],
      [
        "Ġ",
        "k"
      ],
      [
        "Ġ",
        "ent"
      ],
      [
        "Ġw",
        "ork"
      ],
      [
        "Ġf",
        "irst"
      ],
      [
        "Ġa",
        "fter"
      ],
      [
        "ĠC",
        "omm"
      ],
      [
        "Ġm",
        "assac"
      ],
      [
        "ad",
        "s"
      ],
      [
        "ĠH",
        "istor"
      ],
      [
        "ĠW",
        "ar"
      ],
      [
        "Ġlong",
        "est"
      ],
      [
        "Ġ",
        "8"
      ],
      [
        "or",
        "n"
      ],
      [
        "Ġp",
        "art"
      ],
      [
        "ct",
        "ober"
      ],
      [
        "Ġcon",
        "struct"
      ],
      [
        "Ġwh",
        "o"
      ],
      [
        "ric",
        "k"
      ],
      [
        "oun",
        "t"
      ],
      [
        "9",
        "4"
      ],
      [
        "Ġc",
        "l"
      ],
      [
        "Ġs",
        "u"
      ],
      [
        "Ġf",
        "loor"
      ],
      [
        "ou",
        "se"
      ],
      [
        "ĠJ",
        "une"
      ],
      [
        "ĠF",
        "ebruary"
      ],
      [
        "Ġch",
        "am"
      ],
      [
        "Ġcomp",
        "le"
      ],
      [
        "3",
        "0"
      ],
      [
        "3",
        "3"
      ],
      [
        "i",
        "k"
      ],
      [
        "i",
        "re"
      ],
      [
        "j",
        "ect"
      ],
      [
        "u",
        "d"
      ],
      [
        "w",
        "o"
      ],
      [
        "he",
        "d"
      ],
      [
        "an",
        "s"
      ],
      [
        "an",
        "ce"
      ],
      [
        "it",
        "ect"
      ],
      [
        "Ġ1",
        "5"
      ],
      [
        "ov",
        "ember"
      ],
      [
        "Ġ198",
        "8"
      ],
      [
        "2",
        "00"
      ],
      [
        "B",
        "N"
      ],
      [
        "r",
        "on"
      ],
      [
        "in",
        "d"
      ],
      [
        "it",
        "e"
      ],
      [
        "Ġre",
        "c"
      ],
      [
        "iv",
        "al"
      ],
      [
        "oc",
        "i"
      ],
      [
        "ĠIS",
        "BN"
      ],
      [
        "2",
        "6"
      ],
      [
        "e",
        "en"
      ],
      [
        "i",
        "z"
      ],
      [
        "i",
        "er"
      ],
      [
        "p",
        "h"
      ],
      [
        "w",
        "ard"
      ],
      [
        "he",
        "n"
      ],
      [
        "Ġ202",
        "2"
      ],
      [
        "Ġg",
        "overn"
      ],
      [
        "a",
        "j"
      ],
      [
        "u",
        "se"
      ],
      [
        "as",
        "e"
      ],
      [
        "Ġc",
        "ol"
      ],
      [
        "ĠP",
        "ress"
      ],
      [
        "ation",
        "s"
      ],
      [
        "ow",
        "n"
      ],
      [
        "Ġy",
        "ear"
      ],
      [
        "att",
        "le"
      ],
      [
        "ads",
        "ki"
      ],
      [
        ",",
        "["
      ],
      [
        "S",
        "t"
      ],
      [
        "i",
        "p"
      ],
      [
        "l",
        "ac"
      ],
      [
        "Ġb",
        "ut"
      ],
      [
        "ĠA",
        "l"
      ],
      [
        "Ġd",
        "uring"
      ],
      [
        "ĠG",
        "adski"
      ],
      [
        "2",
        "9"
      ],
      [
        "an",
        "n"
      ],
      [
        "Ġd",
        "is"
      ],
      [
        "Ġn",
        "orth"
      ],
      [
        "est",
        "or"
      ],
      [
        "ter",
        "ior"
      ],
      [
        "1",
        "19"
      ],
      [
        "Ġ",
        "all"
      ],
      [
        "Ġ",
        "und"
      ],
      [
        "at",
        "ing"
      ],
      [
        "il",
        "e"
      ],
      [
        "Ġin",
        "cl"
      ],
      [
        "Ġd",
        "es"
      ],
      [
        "em",
        "ent"
      ],
      [
        "ĠD",
        "ivision"
      ],
      [
        "ĠTennesse",
        "an"
      ],
      [
        "qu",
        "ival"
      ],
      [
        "ĠAr",
        "my"
      ],
      [
        "Ġro",
        "om"
      ],
      [
        "quival",
        "ent"
      ],
      [
        "2",
        "3"
      ],
      [
        "2",
        "5"
      ],
      [
        "en",
        "ce"
      ],
      [
        "es",
        "s"
      ],
      [
        "Ġs",
        "h"
      ],
      [
        "Ġin",
        "t"
      ],
      [
        "ĠS",
        "h"
      ],
      [
        "ĠC",
        "on"
      ],
      [
        "ir",
        "on"
      ],
      [
        "Ġst",
        "air"
      ],
      [
        "Ġar",
        "ound"
      ],
      [
        "ĠE",
        "quivalent"
      ],
      [
        "ec",
        "ember"
      ],
      [
        "Ġcham",
        "ber"
      ],
      [
        "e",
        "e"
      ],
      [
        "x",
        "t"
      ],
      [
        "Ġ",
        "&"
      ],
      [
        "Ġ",
        "us"
      ],
      [
        "en",
        "s"
      ],
      [
        "Ġo",
        "ver"
      ],
      [
        "ĠA",
        "s"
      ],
      [
        "Ġd",
        "ivision"
      ],
      [
        "ro",
        "v"
      ],
      [
        "ĠH",
        "e"
      ],
      [
        "ep",
        "t"
      ],
      [
        "Ġcomm",
        "and"
      ],
      [
        "rick",
        "land"
      ],
      [
        "6",
        "6"
      ],
      [
        "X",
        "X"
      ],
      [
        "a",
        "il"
      ],
      [
        "w",
        "n"
      ],
      [
        "er",
        "y"
      ],
      [
        "Ġthe",
        "ir"
      ],
      [
        "ing",
        "s"
      ],
      [
        "ic",
        "an"
      ],
      [
        "ĠM",
        "ay"
      ],
      [
        "ĠN",
        "ovember"
      ],
      [
        "ĠI",
        "t"
      ],
      [
        "Ġl",
        "ater"
      ],
      [
        "am",
        "es"
      ],
      [
        "ĠSt",
        "rickland"
      ],
      [
        "ĠO",
        "ctober"
      ],
      [
        "Ġar",
        "ch"
      ],
      [
        "ĠE",
        "ngl"
      ],
      [
        "Ġ9",
        "78"
      ],
      [
        "oh",
        "n"
      ],
      [
        "ept",
        "ember"
      ],
      [
        "l",
        "an"
      ],
      [
        "Ġ",
        "iron"
      ],
      [
        "Ġs",
        "ev"
      ],
      [
        "Ġs",
        "erv"
      ],
      [
        "ou",
        "th"
      ],
      [
        "Ġd",
        "o"
      ],
      [
        "Ġg",
        "eneral"
      ],
      [
        "ĠL",
        "ond"
      ],
      [
        "res",
        "ent"
      ],
      [
        "Ġle",
        "gislat"
      ],
      [
        "ĠLond",
        "on"
      ],
      [
        "4",
        "5"
      ],
      [
        "b",
        "ers"
      ],
      [
        "o",
        "od"
      ],
      [
        "w",
        "een"
      ],
      [
        "Ġ",
        "Y"
      ],
      [
        "is",
        "hed"
      ],
      [
        "Ġ2",
        "3"
      ],
      [
        "ĠS",
        "eptember"
      ],
      [
        "ac",
        "h"
      ],
      [
        "et",
        "ween"
      ],
      [
        "Ġon",
        "e"
      ],
      [
        "Ġ202",
        "0"
      ],
      [
        "em",
        "or"
      ],
      [
        "Ġle",
        "tt"
      ],
      [
        "ĠInd",
        "ian"
      ],
      [
        "Ġrem",
        "ov"
      ],
      [
        "roug",
        "h"
      ],
      [
        "ĠEngl",
        "ish"
      ],
      [
        "Ġlett",
        "ers"
      ],
      [
        "7",
        "4"
      ],
      [
        "i",
        "ki"
      ],
      [
        "o",
        "f"
      ],
      [
        "r",
        "ed"
      ],
      [
        "r",
        "act"
      ],
      [
        "s",
        "c"
      ],
      [
        "v",
        "al"
      ],
      [
        "Ġ",
        "vil"
      ],
      [
        "es",
        "ey"
      ],
      [
        "Ġs",
        "ec"
      ],
      [
        "il",
        "it"
      ],
      [
        "Ġ2",
        "9"
      ],
      [
        "Ġa",
        "b"
      ],
      [
        "om",
        "e"
      ],
      [
        "om",
        "an"
      ],
      [
        "ol",
        "d"
      ],
      [
        "ĠJ",
        "ohn"
      ],
      [
        "Ġword",
        "s"
      ],
      [
        "ngl",
        "esey"
      ],
      [
        "Ġund",
        "er"
      ],
      [
        "e",
        "g"
      ],
      [
        "r",
        "is"
      ],
      [
        "w",
        "ay"
      ],
      [
        "Ġ",
        "čĊ"
      ],
      [
        "an",
        "g"
      ],
      [
        "Ġc",
        "avalry"
      ],
      [
        "Ġre",
        "f"
      ],
      [
        "Ġbe",
        "gan"
      ],
      [
        "ul",
        "t"
      ],
      [
        "Ġrep",
        "lac"
      ],
      [
        "mer",
        "ican"
      ],
      [
        "Ġmassac",
        "re"
      ],
      [
        "aj",
        "or"
      ],
      [
        "estor",
        "ation"
      ],
      [
        "I",
        "I"
      ],
      [
        "i",
        "e"
      ],
      [
        "i",
        "ers"
      ],
      [
        "Ġ",
        "ord"
      ],
      [
        "or",
        "ted"
      ],
      [
        "Ġo",
        "ther"
      ],
      [
        "Ġp",
        "ort"
      ],
      [
        "Ġ2",
        "4"
      ],
      [
        "Ġb",
        "etween"
      ],
      [
        "ĠA",
        "nglesey"
      ],
      [
        "ou",
        "ld"
      ],
      [
        "ur",
        "al"
      ],
      [
        "Ġn",
        "ame"
      ],
      [
        "ĠH",
        "ar"
      ],
      [
        "Ġth",
        "rough"
      ],
      [
        "ĠSt",
        "aff"
      ],
      [
        "ennesse",
        "e"
      ],
      [
        "Ġbe",
        "en"
      ],
      [
        "Ġpro",
        "ject"
      ],
      [
        "Ġcomm",
        "ission"
      ],
      [
        "T",
        "ennessee"
      ],
      [
        "e",
        "il"
      ],
      [
        "o",
        "in"
      ],
      [
        "p",
        "er"
      ],
      [
        "r",
        "ary"
      ],
      [
        "Ġ",
        "im"
      ],
      [
        "Ġ",
        "up"
      ],
      [
        "Ġ1",
        "4"
      ],
      [
        "ri",
        "b"
      ],
      [
        "Ġre",
        "l"
      ],
      [
        "ur",
        "n"
      ],
      [
        "ĠG",
        "e"
      ],
      [
        "19",
        "94"
      ],
      [
        "ĠO",
        "tt"
      ],
      [
        "ĠF",
        "or"
      ],
      [
        "ter",
        "n"
      ],
      [
        "um",
        "n"
      ],
      [
        "Ġinst",
        "alled"
      ],
      [
        "a",
        "w"
      ],
      [
        "d",
        "ition"
      ],
      [
        "e",
        "et"
      ],
      [
        "f",
        "t"
      ],
      [
        "m",
        "ed"
      ],
      [
        "t",
        "on"
      ],
      [
        "Ġ",
        "Z"
      ],
      [
        "Ġthe",
        "m"
      ],
      [
        "at",
        "ive"
      ],
      [
        "Ġs",
        "ide"
      ],
      [
        "ĠA",
        "merican"
      ],
      [
        "ĠB",
        "attle"
      ],
      [
        "Ġre",
        "g"
      ],
      [
        "iv",
        "es"
      ],
      [
        "ur",
        "ch"
      ],
      [
        "Ġar",
        "t"
      ],
      [
        "Ġcon",
        "s"
      ],
      [
        "av",
        "e"
      ],
      [
        "ĠUn",
        "ited"
      ],
      [
        "ĠInd",
        "ia"
      ],
      [
        "Ġ200",
        "6"
      ],
      [
        "ib",
        "rary"
      ],
      [
        "Ġcol",
        "umn"
      ],
      [
        "Ġarch",
        "itect"
      ],
      [
        "Ġsec",
        "ond"
      ],
      [
        "ĠStaff",
        "ord"
      ],
      [
        "3",
        "8"
      ],
      [
        "a",
        "h"
      ],
      [
        "a",
        "u"
      ],
      [
        "i",
        "ed"
      ],
      [
        "i",
        "ew"
      ],
      [
        "r",
        "en"
      ],
      [
        "in",
        "u"
      ],
      [
        "an",
        "che"
      ],
      [
        "ĠA",
        "n"
      ],
      [
        "Ġm",
        "on"
      ],
      [
        "ol",
        "low"
      ],
      [
        "et",
        "t"
      ],
      [
        "ur",
        "d"
      ],
      [
        "ur",
        "y"
      ],
      [
        "im",
        "es"
      ],
      [
        "ist",
        "an"
      ],
      [
        "ĠL",
        "e"
      ],
      [
        "Ġro",
        "of"
      ],
      [
        "Ġcl",
        "im"
      ],
      [
        "ilit",
        "ary"
      ],
      [
        "i",
        "ous"
      ],
      [
        "o",
        "b"
      ],
      [
        "p",
        "s"
      ],
      [
        "p",
        "edia"
      ],
      [
        "Ġt",
        "ime"
      ],
      [
        "Ġt",
        "wo"
      ],
      [
        "Ġo",
        "ut"
      ],
      [
        "Ġp",
        "re"
      ],
      [
        "ĠN",
        "ational"
      ],
      [
        "Ġ19",
        "9"
      ],
      [
        "ur",
        "es"
      ],
      [
        "Ġn",
        "e"
      ],
      [
        "ĠP",
        "ol"
      ],
      [
        "un",
        "n"
      ],
      [
        "Ġe",
        "ast"
      ],
      [
        "ut",
        "ion"
      ],
      [
        "Ġ3",
        "0"
      ],
      [
        "ill",
        "ion"
      ],
      [
        "ak",
        "e"
      ],
      [
        "ime",
        "le"
      ],
      [
        "Ġgovern",
        "ment"
      ],
      [
        "iki",
        "pedia"
      ],
      [
        "val",
        "anche"
      ],
      [
        "Ġvil",
        "lag"
      ],
      [
        "2",
        "7"
      ],
      [
        "7",
        "0"
      ],
      [
        "A",
        "ss"
      ],
      [
        "m",
        "b"
      ],
      [
        "o",
        "ot"
      ],
      [
        "Ġ",
        "j"
      ],
      [
        "on",
        "s"
      ],
      [
        "or",
        "y"
      ],
      [
        "Ġw",
        "alls"
      ],
      [
        "Ġc",
        "ent"
      ],
      [
        "Ġ2",
        "7"
      ],
      [
        "ĠC",
        "l"
      ],
      [
        "ri",
        "v"
      ],
      [
        "et",
        "te"
      ],
      [
        "ĠB",
        "o"
      ],
      [
        "Ġh",
        "istor"
      ],
      [
        "Ġ19",
        "33"
      ],
      [
        "ĠD",
        "ecember"
      ],
      [
        "ĠG",
        "overn"
      ],
      [
        "ĠO",
        "ff"
      ],
      [
        "Ġ3",
        "1"
      ],
      [
        "Ġad",
        "v"
      ],
      [
        "int",
        "on"
      ],
      [
        "ict",
        "ion"
      ],
      [
        "c",
        "es"
      ],
      [
        "e",
        "arch"
      ],
      [
        "f",
        "ore"
      ],
      [
        "s",
        "h"
      ],
      [
        "w",
        "er"
      ],
      [
        "Ġ",
        "ev"
      ],
      [
        "he",
        "re"
      ],
      [
        "an",
        "y"
      ],
      [
        "Ġc",
        "ap"
      ],
      [
        "Ġ1",
        "3"
      ],
      [
        "Ġd",
        "ay"
      ],
      [
        "ĠB",
        "rig"
      ],
      [
        "Ġl",
        "ibrary"
      ],
      [
        "id",
        "d"
      ],
      [
        "ĠSt",
        "ates"
      ],
      [
        "ĠAss",
        "oci"
      ],
      [
        "Ġr",
        "en"
      ],
      [
        "Ġpro",
        "v"
      ],
      [
        "Ġex",
        "p"
      ],
      [
        "ub",
        "l"
      ],
      [
        "Ġatt",
        "ack"
      ],
      [
        "Ġconstruct",
        "ion"
      ],
      [
        "Ġsu",
        "pp"
      ],
      [
        "Ġcomple",
        "ted"
      ],
      [
        "Ġint",
        "o"
      ],
      [
        "Ġus",
        "ed"
      ],
      [
        "Ġsev",
        "eral"
      ],
      [
        "Ġvillag",
        "es"
      ],
      [
        "Ass",
        "yrian"
      ],
      [
        "I",
        "n"
      ],
      [
        "b",
        "y"
      ],
      [
        "c",
        "k"
      ],
      [
        "i",
        "am"
      ],
      [
        "m",
        "an"
      ],
      [
        "n",
        "own"
      ],
      [
        "Ġthe",
        "y"
      ],
      [
        "or",
        "ld"
      ],
      [
        "Ġs",
        "ur"
      ],
      [
        "Ġb",
        "as"
      ],
      [
        "Ġf",
        "ollow"
      ],
      [
        "ic",
        "s"
      ],
      [
        "ĠS",
        "her"
      ],
      [
        "Ġm",
        "illion"
      ],
      [
        "et",
        "y"
      ],
      [
        "Ġre",
        "qu"
      ],
      [
        "Ġ19",
        "0"
      ],
      [
        "iv",
        "il"
      ],
      [
        "ir",
        "ed"
      ],
      [
        "ĠH",
        "inton"
      ],
      [
        "ist",
        "s"
      ],
      [
        "ĠG",
        "az"
      ],
      [
        "Ġ18",
        "9"
      ],
      [
        "ab",
        "le"
      ],
      [
        "Ġr",
        "estoration"
      ],
      [
        "our",
        "t"
      ],
      [
        "ĠOtt",
        "oman"
      ],
      [
        "ĠGaz",
        "ette"
      ],
      [
        "4",
        "0"
      ],
      [
        "7",
        "1"
      ],
      [
        "e",
        "k"
      ],
      [
        "ar",
        "g"
      ],
      [
        "ar",
        "ly"
      ],
      [
        "ar",
        "ge"
      ],
      [
        "Ġc",
        "ar"
      ],
      [
        "Ġp",
        "rom"
      ],
      [
        "Ġ2",
        "2"
      ],
      [
        "le",
        "ment"
      ],
      [
        "Ġm",
        "ain"
      ],
      [
        "Ġm",
        "od"
      ],
      [
        "ol",
        "a"
      ],
      [
        "Ġst",
        "ruct"
      ],
      [
        "ĠD",
        "av"
      ],
      [
        "ĠW",
        "h"
      ],
      [
        "ĠW",
        "ikipedia"
      ],
      [
        "Ġ18",
        "4"
      ],
      [
        "ak",
        "istan"
      ],
      [
        "up",
        "ola"
      ],
      [
        "Ġde",
        "f"
      ],
      [
        "Ġag",
        "ain"
      ],
      [
        "ount",
        "ain"
      ],
      [
        "Ġreplac",
        "ed"
      ],
      [
        "3",
        "5"
      ],
      [
        "6",
        "0"
      ],
      [
        "e",
        "ak"
      ],
      [
        "k",
        "s"
      ],
      [
        "m",
        "e"
      ],
      [
        "v",
        "el"
      ],
      [
        "Ġ",
        "en"
      ],
      [
        "Ġ",
        "est"
      ],
      [
        "Ġ",
        "enc"
      ],
      [
        "en",
        "n"
      ],
      [
        "Ġw",
        "ould"
      ],
      [
        "Ġs",
        "outh"
      ],
      [
        "Ġ2",
        "5"
      ],
      [
        "Ġ2",
        "8"
      ],
      [
        "Ġto",
        "wer"
      ],
      [
        "ĠS",
        "imele"
      ],
      [
        "Ġm",
        "ilitary"
      ],
      [
        "se",
        "mb"
      ],
      [
        "ap",
        "h"
      ],
      [
        "ro",
        "p"
      ],
      [
        "Ġl",
        "and"
      ],
      [
        "ĠThe",
        "y"
      ],
      [
        "ĠH",
        "a"
      ],
      [
        "ĠH",
        "ill"
      ],
      [
        "ra",
        "it"
      ],
      [
        "Ġfor",
        "ce"
      ],
      [
        "ĠF",
        "alls"
      ],
      [
        "Ġbe",
        "fore"
      ],
      [
        "end",
        "ed"
      ],
      [
        "ĠComm",
        "ission"
      ],
      [
        "ron",
        "t"
      ],
      [
        "Ġyear",
        "s"
      ],
      [
        "emor",
        "ial"
      ],
      [
        "Ġremov",
        "ed"
      ],
      [
        "ĠGe",
        "or"
      ],
      [
        "2",
        "2"
      ],
      [
        "7",
        "5"
      ],
      [
        "G",
        "eneral"
      ],
      [
        "M",
        "acandrew"
      ],
      [
        "e",
        "f"
      ],
      [
        "e",
        "ad"
      ],
      [
        "l",
        "ed"
      ],
      [
        "l",
        "es"
      ],
      [
        "o",
        "se"
      ],
      [
        "r",
        "d"
      ],
      [
        "r",
        "ad"
      ],
      [
        "u",
        "al"
      ],
      [
        "Ġ",
        "qu"
      ],
      [
        "at",
        "ue"
      ],
      [
        "en",
        "ate"
      ],
      [
        "en",
        "ry"
      ],
      [
        "Ġw",
        "hen"
      ],
      [
        "Ġc",
        "amp"
      ],
      [
        "Ġc",
        "upola"
      ],
      [
        "Ġs",
        "old"
      ],
      [
        "Ġp",
        "o"
      ],
      [
        "Ġ2",
        "1"
      ],
      [
        "ic",
        "k"
      ],
      [
        "et",
        "h"
      ],
      [
        "Ġh",
        "ouse"
      ],
      [
        "Ġre",
        "ce"
      ],
      [
        "Ġon",
        "ly"
      ],
      [
        "Ġl",
        "oc"
      ],
      [
        "ers",
        "on"
      ],
      [
        "Ġn",
        "ear"
      ],
      [
        "ĠP",
        "ur"
      ],
      [
        "ĠP",
        "akistan"
      ],
      [
        "im",
        "est"
      ],
      [
        "em",
        "p"
      ],
      [
        "Ġst",
        "one"
      ],
      [
        "id",
        "ent"
      ],
      [
        "ig",
        "h"
      ],
      [
        "Ġ18",
        "8"
      ],
      [
        "ill",
[...]
